#version: 0.2
Ġ d
Ġ e
Ġ a
r a
Ġd e
Ġ p
Ġ c
o s
n t
r e
a s
Ġ s
e r
o r
a d
e s
Ġc o
i s
Ġ o
i n
Ã £
m a
Ġ n
Ã£ o
i a
q u
Ġ f
m e
t a
Ã §
i c
r o
n d
a r
Ġ t
i d
Ã ©
a l
Ġ qu
Ġ u
Ġco m
Ġd o
r i
Ġe m
nt e
Ġ m
Ġs e
e l
Ġd a
Ã ¡
Ġqu e
o n
Ã Ń
Ã§ Ã£o
Ġ re
t o
t e
a ra
Ġ A
Ġe s
a n
Ġ C
Ġ v
l e
t i
e n
o u
ad o
Ġn o
Ġ 1
Ġ S
re s
u l
Ġ "
e m
o l
nd o
i l
Ġ M
Ã ³
Ġ P
Ġ E
c i
Ġ l
Ġp ara
Ġu m
Ġ ma
g u
t u
Ġf o
Ġn a
a m
Ġu ma
ic a
nt o
Ġs u
Ġ in
n c
Ġ b
Ġ g
s e
Ġp or
Ġ B
d o
e i
Ġ 2
Ġ (
me nte
i o
u s
ad a
h a
Ã ª
n s
Ġ i
Ġ Ã©
v a
Ġp ro
Ġ os
Ġ R
Ġa s
ad e
Ġfo i
l a
p o
e nt
Ġ D
Ġ O
h o
Ã µ
p e
Ãµ es
Ġ N
Ġ F
Ġcom o
Ġ T
d e
Ġde s
Ġ j
Ġ Ã
Ġ1 9
Ġp el
i v
ra s
m o
Ġ L
m b
Ġ G
i z
i t
id o
d a
ra m
i g
c e
s o
Ġ2 0
Ġo u
is t
id ade
Ġe x
h e
Ġ I
Ġd os
v e
n o
c o
Ġp o
Ġ J
c a
Ġa p
t r
i r
ad os
u n
me nto
Ã º
Ġ me
Ã© m
Ġa l
i m
Ã§ Ãµes
Ġ ta
Ġco n
Ġe nt
ic o
Ġa o
p a
n a
r ia
Ġma is
l o
nd e
Ġsu a
id a
Ġc a
Ġs o
Ġp ar
Ġes t
Ġ H
Ġs er
Ġco nt
Ġp er
nc ia
Ġt ra
g o
a Ã§Ã£o
Ã¡ ri
i ta
m p
Ġse u
Ġn Ã£o
Ġ h
Ġf or
Ã§ a
c ia
a t
" ,
ĠÃ ł
i f
a ndo
nt es
Ġa n
ĠE s
Ġ V
Ġa t
Ġp r
i ra
Ġm u
u r
t er
Ġe le
Ġd as
Ġp ri
Ġ U
Ġt er
e ra
Ġp a
s a
me nt
i to
Ġt o
d u
Ġt em
v o
t os
Ġco ns
is ta
r u
e c
ci on
in a
u m
Ġa r
Ã ¢
v er
Ġ20 1
t ic
Ġm o
u ra
Ġpri me
i ro
Ġre s
Ãª ncia
) ,
Ġf a
ad as
mb Ã©m
l u
e nte
ĠC o
nt er
Ġta mbÃ©m
Ġse gu
nd a
Ġcom p
tu ra
Ġpel a
i or
e z
v el
v i
Ġg ra
Ġes ta
Ġent re
g a
Ġa c
Ġpel o
â Ģ
er s
Ġ20 0
i Ã§Ã£o
Ġso b
Ġd is
" .
t or
Ġp os
e d
ÃŃ s
Ġe n
Ġd i
o g
t ra
Ġes c
i x
a is
Ġ or
Ġt e
Ġ Ã¡
d os
Ã ´
r os
in g
as s
Ġf il
Ġ le
Ġ W
o c
ĠE m
Ġm as
qu e
ul o
Ġs Ã£o
i u
b l
p os
Ġm es
ei ro
ia l
es so
Ãª s
ma n
Ġo b
ri o
Ġp re
Ã³ s
Ġa b
i b
t as
0 0
Ġ K
E m
a g
ĠN o
ti v
id os
t ica
Ġan os
en s
ta l
Ġb a
) .
b e
i on
m in
ara m
Ã¡ri o
m as
t ado
es s
c h
b o
p res
Ġre g
Ġe ra
Ġc ar
Ġfo ram
e re
f or
ĠR e
Ġsob re
Ġc as
ad or
Ġas s
tr u
i os
l es
a nto
ĠM ar
in al
Â ł
ĠA l
in ha
n e
in o
ad es
Ġ 3
Ġt or
Ã§ o
v ol
Ġma r
or te
g ra
j a
Ġn as
ci o
Ġi mp
Ġa u
ĠP a
p er
ĠU n
Ã© c
b al
Ġse us
Ġn os
tr os
nt a
Ġp res
Ġ1 8
al iz
j e
is te
b ro
cia l
h am
Ġc or
in do
Ġin c
Ġat Ã©
d er
Ġfor ma
t es
on s
t ro
i p
ei ra
Ġi nter
ic os
cion al
i as
Ġre c
ti va
ul a
ura nte
ti tu
pe ra
Ġf u
po is
Ġe nc
m er
ĠN a
an Ã§
Ġv ez
Ġ ro
ment os
l ia
el e
ta r
b a
ic as
Ġo f
Ġm il
ra n
Ġtem po
d as
Ġo nde
Ġ ho
id ades
Ã© r
iv ers
ĠS e
i te
Ġcont ra
as e
Ġpro du
i Ã£o
ra l
Ġco nc
Ġa d
Ãº s
Ġin s
Ġ Ċ
Ġ âĢ
Ã¡ri os
b er
ĠP or
Ġ -
ĠA s
Ġpr in
Ġl u
o m
Ġ ha
is s
Ġc am
er ra
o nt
Ãª n
ĠB ras
en as
v ia
Ġal gu
Ġqu al
Ġd u
Ġa no
ĠD e
Ġ19 9
an h
ĠS a
Ã³ ria
Ġi nte
ent es
Ġdi re
Ġqu ando
in da
ĠM a
Ġma ior
Ġo c
ĠÃ º
d io
Ġtra bal
g e
i le
Ġs a
ti l
he c
ÃŃ n
Ġd ia
Ġprime iro
al mente
to u
id as
ĠC a
p or
Ġ ra
Ġno me
Ġp ol
ra da
r Ã¡
or re
Ã© s
Ġc idade
Ġmes mo
Ġco me
Ġse ndo
ra nc
Ġc l
Ġpar te
ist as
Ã´ n
Ġfa z
Ġtra ns
Ġpos s
Ġsu as
es te
d ia
ce u
ĠO s
ar ia
Ġprime ira
Ġdo is
Ġre la
Ġprin ci
es t
Ġ 4
h os
Ġde c
Ã© ri
re m
b u
an o
Ġsu b
v am
ti vo
n os
o ver
ul ar
Ġde pois
g em
i ma
g ar
Ġest Ã¡
t ados
ol a
ĠC h
t ico
on a
ĠR o
Ġh ist
is mo
Ġa os
it os
Ġpo de
Ġd urante
ar d
Ġu s
Ġj u
f er
Ġes p
Ã¢ n
Ġp ass
Ġin d
e t
Ã³ p
era l
Ġes pe
ra Ã§Ã£o
s on
Ġou tros
Ġre ce
ro u
Ġtor n
Ġ 5
Ġc er
t Ã³
ĠA r
ĠS Ã£o
ĠJ o
el a
j u
Ġe la
Ġgra nde
Ã§ as
Ġa g
Ã¡ s
is Ã£o
Ġa inda
ĠS u
Ġe qu
Ġd if
Ġdes en
Q u
o go
Ġt r
Ġc he
Ã³ r
Ġf inal
d em
Ãº bl
Ġg ru
f e
Ġ X
ci as
ĠBras il
in e
Ġp e
ti r
ĠG u
Ġv ol
Ġap Ã³s
em bro
i e
Ġj Ã¡
Ġenc ont
Ġpar tic
Ġc ri
id era
Ġap res
an a
Ġp esso
m os
u ro
ado res
ei to
Ġj og
c k
Ġv er
Ġapres ent
Ġmu ito
n g
Ġg over
Ġ19 8
1 9
Ġl oc
v al
Ġpa ÃŃs
Ġl anÃ§
Ġcon hec
u ma
p re
Ġap enas
es a
c u
Ġpo p
Ġc an
ĠC ar
ra do
Ġm Ãºs
el o
ÃŃ cio
or d
ĠE le
Ġa tu
i Ã§Ãµes
in u
Ġf am
a re
Ġinc lu
Ġse m
ÃŃ vel
t ras
al a
ra v
h as
ÃŃ p
p lo
nt os
g re
v ido
p u
ic ial
Ġ is
Ġin f
z a
ĠÃ¡ l
Ġtr Ãªs
Ġre aliz
ĠB a
Ġc ria
Ġc ham
at ro
p l
Ġn e
g an
Ġa nt
c on
Ġc r
Ġv e
Ġca p
Ġa f
Ġp u
Ãª m
ica Ã§Ã£o
Ġent Ã£o
Ġu n
o i
id e
Ġpol ÃŃ
Ġ gu
Ġno v
Ġor ig
Ġes te
t Ã¡
se gu
ĠCo m
ri l
or ta
c esso
t on
l ti
an eiro
Ġ19 7
Ã©ri e
un ic
Ġ 6
tic as
ĠP ar
Ġes tu
Ġcons tru
Ġe d
Ġd iv
Ġprinci p
if ic
gu a
ĠM u
N o
b um
id ente
Ġs ido
ra r
for ma
c ul
ve is
h or
iz aÃ§Ã£o
Ġcon f
Ġs i
ri g
ĠM o
Ġdesen vol
qu anto
en a
ia m
Ġ Qu
Ġdu as
ĠL u
ĠL e
v es
Ġn Ãº
c ar
Ġi r
ita r
c er
Ã¡ri as
Ġpo der
Ġf re
c os
Ġgru po
Ġme l
ĠÃ¡l bum
d ic
ci mento
a nt
Ġ 7
re a
Ġ Y
ig a
d or
vi mento
Ġno va
Ġto dos
Ġpel os
ma r
mb ro
Ġv o
Ġcome Ã§
Ġl iv
Ġ19 6
t h
Ġfil me
Ġpro f
Ġt i
Â º
Ġs ol
Ġs iste
l as
ri bu
Ġf un
b il
ri to
Ġu til
ÃŃ t
Ġde f
Ġ1 5
ĠÃº lti
v en
Ġt inha
ig n
ĠC am
Ġfor m
Ġ 8
Ġf al
Ġs Ã©rie
Ġsegu ndo
in as
Ġf ic
Ġcons idera
Ġm Ã©
Ġdif ere
ag em
ĠÃł s
in ho
Ġv is
Ã¡ ria
i nte
Ġd ist
Ġesta va
Ġde z
Ãªn cias
ita l
Ġb em
ent a
qu er
ĠJ a
ÃŃ lia
ol og
Ġpr Ã³p
Ġha via
Ġ1 7
Ġpu bl
es ta
Ġest re
an Ã§a
os to
Ġb ras
ĠS o
Ġte ve
s Ã£o
ĠR io
Ġdes ta
Ġc ul
Ġpar tir
it as
Ġb ase
i pa
Ġ Z
Ġou tras
Ġem pres
ĠnÃº mer
i pe
Ġs Ã©c
Ġma io
Ġat rav
Ġi m
nd es
r is
Ġho me
Ġass im
Ġl on
ĠPa ulo
Ġc u
m es
Ã¡ vel
ei ros
ĠA p
ig o
an ha
I I
Ġma n
Ġdes de
Ġa m
Ġposs u
ir os
Ġhist Ã³ria
ĠA le
Ġc ent
Ġa ntes
Ġbras ile
Ġp l
d ade
Ġre pres
Ã³ g
ĠC on
âĢ Ŀ
er o
or n
Ġv ida
Ġe les
Ġp Ãºbl
ta Ã§Ã£o
u al
Ġp as
Ġt ro
Ġreg iÃ£o
Ġl a
Ġc ada
Ġp ou
ic i
o do
n Ã§a
tic os
ĠmÃºs ica
Ġe ram
Ġ 9
ĠL a
iv e
b le
Ġ1 0
Ġalgu ns
Ġpesso as
g ia
Ġutil iz
tiv os
Ġse te
ĠÃ© po
d es
to res
c re
Ġcas a
Ġen quanto
Ġm ul
Ã© rio
p on
gra ma
d i
Ġco nd
ti on
ta mente
Ġf e
ĠP ro
Ġd ivers
Ġcon segu
Ġm unic
Ġche g
O s
Ã§ os
ĠEs tados
ĠÃ©po ca
Ġatrav Ã©s
Ġde ix
Ġ1 6
qu is
Ġj ogo
Ġper ÃŃ
b el
h er
or ia
Ġfu nd
2 0
Ġp es
Ġcomp le
Ġgover no
ĠP ara
Ġpo dem
ic ia
Ġba nda
nt ro
Ġa mb
ic e
c as
Ġor gan
ĠB o
Ġap ro
ĠN e
ĠâĢ ľ
Ġ ,
Ġpar t
Ġpro je
f a
l ig
Ġs im
ĠG ra
Ġal Ã©m
Ġe v
ĠnÃºmer o
Ġmu ndo
or do
Ġno vo
ĠL o
Ġimp orta
Ġa po
tu gu
ĠUn idos
Ġper son
Ġa co
g al
ul aÃ§Ã£o
i nt
z e
Ġsiste ma
l os
Ġb o
t re
ĠsÃ©c ulo
ĠP o
Ġp ra
Ġest ado
Ã¢ ncia
Ġtorn ou
Ġ19 5
Ġvez es
Ġrece be
i gu
Ġf ez
Ġ19 4
ed ade
Ġ( "
Ġv Ã¡rios
a nd
Ġespe cial
Ġt ÃŃt
Ġres ul
Ġin ÃŃcio
ran Ã§a
Ġex em
il l
iss Ã£o
Ġa le
Ġco l
c ado
el ho
ĠC ons
en h
ĠÃ ī
Ġap are
Ġg eral
m Ã£
b r
os o
f re
Ġtrabal ho
A s
i mo
ĠC as
Ġc h
Ġsu per
i ent
Ġv al
Ġv en
res s
Ġloc al
Ġte ndo
Ġmu d
ul ho
p ara
ĠA nt
Ġsub s
ĠUn ivers
Ġcont inu
Ġp la
i re
ĠR a
es se
un ho
olog ia
Ġca us
Ġ" "
Ġs Ã³
ĠA m
ĠperÃŃ odo
re ira
ĠE x
tu bro
t in
tÃ³ rio
Ġqu atro
h Ãµes
. .
Ġv ers
Ġd Ã©c
Ġta r
Ġpro grama
gre ja
Ġes ti
Ġtempo rada
Ġlu gar
ĠB ar
Ġis so
Ġm os
ÃŃp io
if ica
il a
me l
Ã© ci
u nd
tiv as
es ar
Ġfam ÃŃlia
Ġprodu z
Ġesc ol
ĠF oi
Ġmo d
i k
g os
f ica
ion al
p ri
Ġc ur
ĠÃº n
Ġ19 3
Ġent anto
Ġme d
an e
ĠJ os
T he
o v
bo ra
ĠT e
ri t
id ent
Ġcont a
ÃŃ do
Ġle v
Ġde r
Ġco lo
re iro
Ġ1 2
Ġprincip al
Ġser vi
f ia
el l
ve u
Ġper m
j o
p ar
nt re
b ol
ĠÃ ģ
Ġpubl ic
ĠI s
Ġar t
Ġpe qu
du z
cia is
Ġ ru
Ġh Ã¡
mer ic
ri as
Ġre f
c ri
pe c
n as
lu be
c ou
ĠÃ¡ rea
i va
er v
Ġl o
a u
ĠcomeÃ§ ou
E s
Ġc in
Ġcom un
Ġ il
Ġde vido
ĠM e
t s
Ġou tro
Ġl ado
Ġac ordo
ic h
Ġoc orre
Ġa ta
Ã© l
Ġ r
v is
Ġt ur
Ġf im
Ġcont ro
Ġd iz
ec ess
ĠT o
Ġpass ou
Ġtar de
os ta
Ġto do
qu es
os a
Ġau tor
Ġc ara
t ada
Ġvol ta
nd er
Ġv Ã¡rias
ĠD a
u Ã§Ã£o
Ġcer ca
Ġest Ã£o
Ġa ca
am b
Ġm orte
Ġ1 4
ia no
o ra
ei ta
00 0
b re
nd ia
Ġ .
ix o
Ġencont ra
i ras
Ġn um
ta nte
min ist
u do
ĠF a
Ġal i
s os
a Ã§Ãµes
ÃŃ da
Ã³ n
Ġmel hor
m ou
in s
Ġn ecess
Ġn orte
c ess
r y
Ġmu itos
Ġconhec ido
Ġob je
p el
ĠS ul
Ġs al
ĠC ol
Ġme io
i ram
ĠO r
Ġv ia
nd ial
Ġfil ho
ri os
iv o
v id
ĠâĢ ĵ
ix a
ĠF ranc
Ġsu r
Ġres p
tura l
Ġexem plo
Ġca pa
Ġto tal
Ġsegu inte
an os
Ġ1 1
Ġsegu nda
Ġm in
Ġequ ipe
ĠF er
D e
ĠE uro
N a
Ġe p
ĠI n
Ġp ed
Ġpas sa
Ġn u
ĠF e
ĠtÃŃt ulo
Ã¡ tica
ĠH o
Ġ1 3
l us
en se
Ġou tubro
Ġtrabal h
te n
ona to
an c
Ã³ x
Ġe con
. "
Ġprodu Ã§Ã£o
Ġalgu mas
Ġin g
Ġa ju
ol Ã³g
Ġmar Ã§o
Ġme n
ĠT he
ĠEs tado
Ġfaz er
Ġdes co
Ġaf ir
an g
Ġe l
Ġdez embro
en o
Ġesc ri
r in
Ġj aneiro
m Ã£o
Ġpor tugu
c ter
ve reiro
ĠdÃ©c ada
Ġt ri
Ġter c
g ens
s as
ĠJ aneiro
Ġco nte
Ġsete mbro
u p
v as
Ġser ia
Ġv a
Ġs ign
Ġt ele
ĠlanÃ§ ado
pe onato
gu e
Ġmil hÃµes
v ista
Ġto das
Ã©r ci
Ã¡ l
ter ior
Ġgra v
ĠJo Ã£o
Ġl ib
Ã©c n
ĠAs s
Ġcl ass
Ġme nos
ĠMar ia
Ġpa re
Ġt re
ĠT a
ÃŃ ci
k e
Ġpartic ipa
ĠI nter
Ġsi tu
Ġgra ndes
ul os
ÃŃ l
Ġab ril
Ġsu cesso
us ic
p anha
ĠUnivers idade
Ġloc aliz
Ġof icial
Ġf ranc
d ios
te bol
al e
Ġa nter
Ġj ulho
ĠP e
Ġnov embro
Ġesp Ã©ci
Ġpo is
Ġj unho
te g
tr ia
va Ã§Ã£o
Ġpop ulaÃ§Ã£o
Ġinf lu
Ġdi as
ĠT ra
ĠNa cional
Ġco le
g as
Ġs ul
Ġag osto
ta ndo
Ġse ja
Ġ201 0
Ġper man
Ġo pera
ri z
ei o
orn al
Ġcr ÃŃ
pa is
Ġmunic ÃŃpio
Ġesc re
Ġpa i
ĠNo va
ca Ã§Ã£o
Ġpres idente
Ġb as
Ġqual quer
ĠSe gu
Ġn uma
ĠJos Ã©
ĠG a
mp re
Ġdis pu
Ġcham ado
ĠO u
Ġdef in
Ġm on
x o
tiva mente
is a
na cional
tu gal
Ġder ro
Ġrecebe u
1 8
ĠC or
Ġinclu indo
Ġorig inal
Ġv ÃŃ
i me
Ġg anh
Ġt he
b ita
ar i
Ġa qu
u d
un ci
b ra
in h
Ġdis so
ĠD es
t Ã©
Ġmaior ia
Ġm or
Ġmes ma
o d
cion ais
Ġex iste
Ġmu itas
i mento
en Ã§a
Ġpro ble
ĠB e
Ġcas o
es es
Ġvers Ã£o
Ġqu ais
Ġco ma
Ġa tiv
ÃŃ a
Ġes pa
ĠGu erra
t ido
Ġlon go
Ġprinci pais
Ġob s
ta nto
p ro
Ġcom pe
is e
ĠM an
g ado
ĠPor tugal
ig os
Ġcara cter
Ã©rci to
f f
Ġse nt
Ġar qu
tu ras
r b
Ġc res
ĠA n
l ica
Ġgu erra
Ġpro cesso
is co
re d
Ġg en
ÃŃ veis
Ġ 0
in os
r ic
Ġm Ã£
Ġcin co
Ġ201 2
nc e
Ġpartic ip
Ġaca b
mb ros
" )
Ġl anÃ§a
Ġpel as
Ġpr Ã³x
Ġcar reira
ĠA d
Ġu so
m ica
Ġform ula
S e
Ġ201 1
Ġrec on
g io
ĠC ent
or ma
Ġa v
Ġe f
nd as
Ġt en
ĠO l
i Ãµes
c il
na ndo
Ġpro v
Ġc ha
Ġfe vereiro
Ġm er
A l
Ġl ig
a y
Ġpou co
Ġv it
Ġe ns
ĠU m
Ġqu ar
Ġl im
Ã©r ica
p as
Ġrela Ã§Ã£o
Ġre al
Ġempres a
Ġre i
ia na
Ġter min
Ġcon ju
Ġc lube
Ġg ol
Ġf er
Ġliv ro
Ġob ra
Ġcan Ã§Ã£o
ho w
is Ã³
al l
Ġpos iÃ§Ã£o
Ġto da
Ġsubs titu
A p
Ġt Ã©cn
Ġna cional
Ġdesenvol vimento
Ġen vol
v isÃ£o
ica mente
Ġdifere ntes
Ġter ri
p h
Ġse mpre
Ġfic ou
Ġ [
ou r
Ġre lig
h n
ĠF il
ĠpÃºbl ico
Ġ200 9
Ġpro mo
bil idade
ma na
Ġproje to
Ġ z
Ġpa pel
ĠE la
Ġ201 3
ei tos
ru z
ĠM as
e ndo
Ġ3 0
Ġi nt
ĠpaÃŃs es
Ġre tor
Ġrepres ent
Ġde ter
Ġ201 4
Ġ200 8
u t
Ġc ir
Ġal c
Ġ2 5
Ġm Ã¡
Ġinte gra
Ġconstru Ã§Ã£o
os s
Ġ19 2
Ġcom er
r Ã£o
Ġcor re
ia n
ib il
ĠpolÃŃ tica
ĠGra nde
Ġfre qu
ĠJ u
il o
ag ens
m ina
Ġcomp os
Ġme mbros
Ġep isÃ³
f o
C o
ta mento
ĠE l
nd ida
Ġcons titu
ĠP er
for m
Ġpossu i
de ral
Ġfo ra
per i
c ido
Ġau to
Ġes tru
Ġqu ase
Ġorgan iz
Ġcor po
Ġj ov
Ġre fer
Ġp ad
u b
Ġaco nte
ist Ãªncia
el es
Ġt ec
Ġho je
a mento
Ġimporta nte
Ġi ma
Ġab er
io res
on e
Ġprime iros
Ġem bora
Ġmos tra
ĠSa nta
ĠA nd
ĠEs ta
Ġde ntro
Ġex ec
Ġta l
ic k
Â ª
Ġt Ãªm
Ġou tra
s es
if icaÃ§Ã£o
ĠAp Ã³s
Ġpor Ã©m
ÃŃ f
Ġl ÃŃ
Ġcap ital
Ġad minist
Ġin de
Ġinter pre
Ġg era
ĠI I
Ġpre c
Ġp al
ro n
Ġ201 5
s ia
in ado
Ġob ras
Ãºbl ica
Ġsign ifica
p la
Ġjog os
iv er
on g
1 0
ĠC an
as se
Ġti po
Ġ201 6
Ġin forma
Ġes se
k a
Ġde m
rit Ã¢n
ei ras
Ġl in
ca is
Ġle va
ĠM in
Ġ200 7
Ġ ide
n Ã§as
qu ia
ĠD o
Ġm orre
Ġcon he
Ġes sa
u man
Ġj ornal
g aÃ§Ã£o
ĠI greja
nt as
co m
Ġqu ad
Ġreg ist
Ġprincip almente
em in
Ġf ra
ti u
ĠD u
Ġdes a
e x
Ġan unci
Ġ rÃ¡
c el
u a
Ġpes quis
Ġdis se
ĠP ed
en e
Ġb ar
re as
nde nte
Ġbrasile iro
ĠprÃ³p rio
la nd
Ġpro g
Ġa meric
ĠB er
Ġa nd
Ġpo ntos
Ġj a
Ġl ÃŃn
Ġv i
Ġc al
ĠF ranÃ§a
ĠS al
Ã´n ia
l y
Ġso cial
Ġpro pri
amb Ã©m
Ã¡ veis
ado ra
p ol
x im
ĠH a
c ho
i el
Ġma ter
Ġque m
Ġha bita
ĠÃºlti mo
Ġt ent
Ġ ri
Ġ200 6
Ġas so
ĠV er
ĠÃ¡ gua
Ġex peri
Ġcent ro
ĠAl Ã©m
ĠI ns
in d
Ġta nto
Ġl inha
ĠâĢ Ķ
Ġcon qu
Ġdi rig
Ġf ica
er ia
Ġde ve
ĠC l
ĠEs te
Ġju nto
ĠU ma
t el
ĠS en
Ġde u
ĠBras ile
Ġins titu
ves ti
ĠP ol
pe nd
ra is
Ġpop ular
us tr
Ġan ima
nc a
c ha
i ri
Ġpo nto
ula res
ber to
Ġrela cion
v io
Ġnova mente
ion ais
Ġat ing
ĠG e
nde u
h t
Ġre vel
Ġorig em
ĠC al
ĠE d
ĠE ntre
ia r
p en
Ġesta vam
ina is
Ġlu ta
pos iÃ§Ã£o
te ns
Ġpro c
Ġsu s
Ġca nt
Ġin icia
b ri
Ġed iÃ§Ã£o
ĠEuro pa
ent os
Ġanter ior
k m
Ġa mp
Ġele ito
tu al
ada mente
2 00
er ic
te m
n er
Ġpo vo
ĠF u
ĠCar los
p ira
ĠEs c
Ġ ident
Ġcheg ou
ci edade
Ġconhec ida
ĠA c
ĠI mp
ĠN orte
Ġf in
Ġex ib
ing le
p Ãºblica
Ġex pl
Ã© tica
Ġcham ada
ti f
ĠS il
Ġin v
re g
Ġl ogo
pe d
Ġl he
ĠS h
Ġp ala
ĠMu ndial
Ã³ rias
Ġ201 7
Ġne g
Ġdec id
ĠAm Ã©rica
Ġpor que
Ġg a
v ida
es sa
ĠT V
Ã´n io
Ġmel ho
l ic
it or
Ġ2 4
Ġmes es
Ġfun cion
Ġo p
Ġperson agem
Ġfor te
ĠF re
u pa
Ġest ad
Ġse is
Ġmo vimento
ĠW il
ve nto
gu es
Ġtrans m
c he
Ġfa to
Ġcom b
ar t
Ġdeter min
x to
Ġf ro
he res
Ġind iv
Ġdivers as
Ġdivers os
1 5
ĠF o
terior mente
ĠCo mo
ĠA b
ĠM Ã©
Ġir mÃ£
ÃŃs tica
ra das
ment ar
ĠRe ino
ĠRo ma
ĠCo pa
ĠB ra
Ġrepres enta
ol o
in ham
Ã£ os
Ġesc ola
Ġmo der
ĠlanÃ§a mento
Ġem pre
Ã³ d
ĠP al
Ġcul tura
pos ta
ta n
Ġespe c
du Ã§Ã£o
tal ha
Ġ idade
v em
ente mente
ce ndo
ad eira
n ador
Ġ ÃŃ
ĠA u
Ġde no
Ġdes em
e b
go ra
Ã¢ ne
ul as
ĠG o
le y
Ġt enta
Ġconju nto
ine ma
Ġp int
Ġgru pos
ĠSu a
Ġs ÃŃ
ti z
ĠP r
i ente
Ġprof iss
ĠmÃ£ e
w n
ĠRe g
Ġposs ÃŃvel
ĠQu ando
Ġdes te
Ġhome ns
ĠDe pois
k i
Ġf eito
Ġpala v
Ġf ase
Ġpr Ã©
g on
Ã¡s s
ĠD urante
Ġ rio
Ġin icial
1 7
ur so
bo a
p les
Ġex pres
Ġfu tebol
Ġesti lo
c le
c to
Ġof ere
Ġmo mento
g i
Ġca nto
Ġcria Ã§Ã£o
or o
c am
c ulo
Ġ200 5
ĠP ri
x a
Ġv el
Ġmaio res
Ġcam po
ĠM il
est Ã£o
ĠA o
do res
Ġin vesti
C om
or r
Ġres ta
ÃŃn io
Ġatu al
Ã¡ cio
Ġle i
Ġn enh
Ã ¼
ent u
b ele
" ),
Ġdec l
Ġqu anto
Ġc os
ar do
Ġmil itar
Ġre un
rÃ¡ f
Ġcompe ti
or k
ĠCam peonato
' s
ĠÃ¡ reas
er va
Ġ2 1
Ġpl ane
Ġass um
Ġafir ma
mel ha
Ġfor Ã§a
t t
ra dos
y s
ĠL is
ĠSe u
Ġcam pe
ma ra
Ġ2 2
n ia
Ġn ÃŃvel
ĠÃºn ico
Ġfil ha
Ġfil hos
Ġin ici
l er
Ġa do
Ġb us
Ġ19 0
v or
z o
Ġper de
ĠCo mp
iz ado
Ġc idades
z es
a va
ĠJo hn
Ġdis co
iv il
Ġdist ribu
ĠX V
Ãªm io
Ġca teg
Ġval or
Ġgeral mente
nta mente
Ġm usic
i er
is so
Ġconsegu iu
ĠT ambÃ©m
ĠN os
Ġn orma
ĠA ng
Ġresp ons
man ha
Ġconsidera do
Ġb ritÃ¢n
g er
ĠprÃ³p ria
v il
ĠI ng
qu ele
lo res
Ġc ient
Ġe r
Ġsim ples
ĠB u
b ar
ĠA t
1 2
f t
ĠPed ro
Ġmo do
at os
Ġdo cu
el as
or ge
Ġ201 8
Ġse le
p orte
Ġpro va
Ġcaus a
Ġins tru
Ġf os
Ġ1 00
d en
ĠÃºlti ma
Ġ2 3
Ġexec u
Ġcon se
ÃŃs ticas
Ġe du
ĠRe pÃºblica
g n
Ġper te
ĠD ire
u ais
Ġfor Ã§as
ess or
Ġjog ador
ma is
am eric
" "
Ġtele visÃ£o
1 6
ĠF or
ĠPor to
ĠR ec
Ġapo io
Ġdo m
Ġv oc
Ġhist Ã³r
Ġ200 0
Ġma nt
b ur
Ġespa Ã§o
Ã´ m
Ġmul heres
Ġv ari
Ġnu nca
d ou
ĠP res
Ġterc eiro
Ġs how
Ġar te
h ar
Ġdire ito
Ġperman e
ĠS er
vel mente
Ġestru tura
Ġfre nte
Ġre vista
ĠFranc isco
Ġ id
Ġp en
ĠH e
Ġ '
Ġe t
Ġen er
Ġd ados
lu b
d ar
Ġesta bele
Ġh er
Ġh uman
l Ã¢
Ġro ma
c ada
Ġv aria
Ġmar ca
Ġvit Ã³ria
Ġl idera
R e
tu almente
i ntes
Ġpre f
Ġhome m
Ġproble mas
ĠAle manha
Ġ18 9
Ġtra dic
v os
Ġ200 4
âĢ ĵ
Ġsur g
ul tura
Ġcomp anh
vol uÃ§Ã£o
r ist
Ġganh ou
re to
ĠLis boa
Ap Ã³s
ĠSu per
se u
Ãº de
Ġresul tado
c idade
Ġrelig ios
Ġforma Ã§Ã£o
re n
ĠPa ul
Ġt inham
pa re
Ġba ir
ĠIns titu
Ġme tros
ip al
Ġco la
l Ãªs
Ġcar go
ten Ã§Ã£o
ment al
Ġalc anÃ§
ra Ã§Ãµes
1 4
Ġo l
ic ion
cul os
tu r
Ġdiv id
Ġdire tor
y a
Ġex Ã©rcito
ÃŃ g
ĠA g
Ġfil mes
om ia
ĠvÃŃ de
Ġnov os
Ġter mo
Ġterri tÃ³rio
w ard
Ġs on
ĠE n
id Ãªncia
o k
Ġde fe
ĠH en
ber t
Ġprin c
ĠS te
Ġlib er
es e
nte mente
ĠmÃ© dia
h an
ba te
Ġca ndida
cia Ã§Ã£o
ment a
ĠÃºn ica
Ġex p
Ġus ado
Ġdes tru
ce d
Ġap esar
Ġfun Ã§Ã£o
Ġme mbro
j as
Ġde le
Ġlo cais
Ġv ir
Ġir mÃ£o
h Ã£o
Ġacab ou
Ġimporta ntes
Ã ī
ĠepisÃ³ dio
Ġcon ver
Ġter ia
nt ar
ma z
Ġcontro le
Ġse de
Ġparticipa Ã§Ã£o
Ġg re
Ġ2 8
ĠV al
Ġmusic al
ĠmÃ© d
i ado
f r
Ġf igu
Ġdeno min
Ġse para
Ġ2 6
ĠlÃŃn gua
Ġa gora
at er
1 1
ĠFe deral
ĠL ei
Ã© tr
Ġcom um
Ġter ra
ĠS ou
ns a
tu re
ĠlanÃ§ ou
Ġg e
it y
h ou
ĠCa p
Ġre de
v ado
ĠespÃ©ci es
Ġest Ãº
iz ada
c ra
ĠM ad
Ġbrasile ira
Ġti me
am es
Ġes pera
Ġarqu ite
Ġestu dos
Ġmod elo
t ÃŃ
Ġe uro
ĠAle x
Ġnov as
Ġi greja
ra ndo
Ġqu ant
ĠNe w
Ġservi Ã§o
Ġ2 7
ific ado
Ġcont ribu
Ġpro te
.. .
l mente
ne y
Â °
ve ndo
Ã¢ mara
p ida
Ġdire Ã§Ã£o
Ġesp anh
Ġb ranc
Ġap re
bel ec
ĠP ra
Ġac red
U m
it er
ce ram
Ġt Ã£o
res so
in hos
Ġf ÃŃs
Ġsegu intes
Ġfos se
Ġinte res
m ada
Ġcr ist
t Ã£o
nt ou
Ġi tal
u el
t ri
Ġor dem
gu as
t Ã¢ncia
ĠB ro
Ġun ivers
Ġse x
Ġlev ou
Ġant iga
ta m
mb ora
Ġed if
Ġaco mp
Ġhabita ntes
s u
Ġil ha
ĠDe us
ter ra
Ġes pos
Ġmul her
Ġ w
1 3
Ġdis pon
Ġg Ãªn
v ada
Ã¢n ia
iz a
Ġex c
Ġtrans fer
me n
Ġdis c
Ġequ ip
Ãº n
r Ã©
Ġconqu ista
Ġdes cre
ive ram
Ġamb os
ÃŃci os
Ġsegu ida
Ġv iv
Ġso fre
Ġre ti
pera dor
f ici
Ġen vi
Ġten ha
ĠX I
ĠE du
in c
Ġen fre
Ġescre veu
Ġde l
F oi
ram as
Ġso mente
p Ã£o
it ado
Ġant igo
Ġing lÃªs
s en
m ado
Ġcome Ã§a
Ġobje tivo
Ġle g
Ġi ntro
in ar
] ]
Ġc inema
ĠM el
ce nte
Ġinter nacional
ĠM ed
Ġperson agens
Ġta is
Ġcam panha
Ġener gia
es tiv
x e
da p
Ġ18 8
Ġpres enÃ§a
Ġaju da
ur sos
Ġapresent a
Ġ200 3
ĠImp Ã©rio
Ġfaz endo
ĠD an
c ida
Ġjov em
Ġab s
Ġesc rito
ĠUn iÃ£o
P or
Ġservi Ã§os
Ġi gu
Ġv ice
ei as
Ġ5 0
Ġde ver
ĠpolÃŃ tico
ĠI tÃ¡
Ġpa is
Ġmil ita
Ġ he
icia is
Ġb an
p s
Ġrece b
Ġpartic ular
Ġex er
Ġat ribu
5 0
qu Ãªncia
Ġnas ceu
Ġpoder ia
Ġcent ral
Ġale mÃ£
P ara
ci os
ĠE les
Ġativ idades
Ġde se
Ġal ta
Ġg ara
Ġe u
Ġse mana
Ġna tural
Ã£ s
c an
Ġa te
tado res
Ġpro p
Ġrec u
Ġinter ior
Ġh uma
ix as
Ġ Ã³
Ġfa vor
Ġ200 2
Ġtec n
Ġorgan izaÃ§Ã£o
Ġso ciedade
ar Ã¡
id er
Ã´n ica
Ġb i
Ġva i
ou ve
Ġpesso a
Ġab ri
Ġnome ado
Ġespecial mente
ĠEs panha
ĠPar is
Ġportugu Ãªs
u mb
d iÃ§Ã£o
Ġe vento
ĠMin ist
p Ã§Ã£o
h es
ibil idade
Ġ2 9
Ġ &
Ã´ me
ĠItÃ¡ lia
Ġmo nt
Ġesta belec
ti m
Ġdecl ara
Ġcomer cial
Ġse rem
Ġespos a
e ta
ca ndo
Ġres ol
or i
la terra
Ġl ar
ĠmÃºs icas
Ġpos teriormente
i nto
ĠH ar
Ġex plo
ĠAss im
ĠLo nd
ĠT er
un a
Ġ201 9
ĠPar tido
Ġman eira
estiv al
l he
ran g
t adas
Ġen g
Ġab and
as h
u me
Ġda ta
Ġcri ado
Ġdeix ou
Ġcas os
Ġele mentos
au gu
it h
Ġimp or
g ent
Ġh os
Ġprime iras
era is
ĠAp esar
Ã¡ tico
ĠIng laterra
ĠM c
ÃŃ dos
Ġ199 0
w a
ĠF l
Ġfu nda
Ġempres as
Ġdes ign
vol u
ĠInter nacional
ĠJa pÃ£o
nd ido
b y
ul ado
ĠT ri
ia is
Ġin augu
en os
Ġinter na
ĠI l
ter na
Ġre mo
ĠT erra
Ġ200 1
ĠB en
ĠT em
Ġhome na
Ġrespons Ã¡vel
Ġins ta
Ġatu almente
ĠCo nt
Ġn em
ĠUn ido
Ġde dic
Ġconf ir
Ġpart ida
Ġ Ã³r
Ġocorre u
ĠAl gu
Ġmorre u
ta ram
in ou
c al
Ġtem pera
iz ar
19 9
Ġbas tante
Ġa dap
me a
Ġm inu
Ġc us
Ġsu cess
Ġesta r
p es
Ġinflu Ãªncia
Ġestu da
Ġl ista
l d
Ġconc lu
Ġind ic
us ti
Ġpar tes
u z
j am
ĠH er
ĠM ic
Ġd ig
c ados
ĠespÃ©ci e
at Ã³
Ġtrabal hos
res po
Ã¡ r
Ġap ar
ĠInstitu to
is po
Ġretor n
Ġass ass
o res
inh eiro
ĠU S
Ġapro xim
ĠC ha
Ġal tura
Ġtor nando
r us
ĠvÃŃde o
Ġens ino
ment aÃ§Ã£o
Ġser Ã¡
Ġcapa cidade
Ġal te
Ġex ce
Ġdes se
Ġsuper ior
ens Ã£o
Ġde les
ĠS anto
g ou
Ġfa ixa
Ġar ti
t y
ti ma
c em
ĠM unic
Ġac esso
Ġproc ura
Ġu rb
Ã© tico
tÃ³ rios
Ġprof essor
Ġmu ndial
Ġs an
Ġt udo
Ġf eita
âĢĿ ,
Ġex tens
II I
Ġterc eira
Ġho ras
Ġcanto ra
ĠP la
Ġoc as
Ġref ere
Ġmer cado
U ma
k o
ril ha
ĠS an
Ġcria nÃ§as
t ia
Ġe las
h ado
Ġparticip ou
ĠM ais
ĠÃ į
is la
ĠCent ro
Ġi me
ĠestÃº dio
Ġd ar
Ġf lu
Ġl Ã¡
ÃŃ du
h ia
Ġvol tou
Ã¡ ticas
ÃŃn ci
Ġa Ã§Ã£o
ĠG al
Ġja pon
ĠJ e
it es
f on
ĠI r
Ġad qu
Ġdire itos
t elo
pe ndente
ĠR oc
Ġju ntamente
ÃŃl io
Ġ18 7
v ar
Ġaband on
in aÃ§Ã£o
Ġno ite
ic ul
Ġestre ia
Ġmen or
ĠY ou
Ġca val
ÃŃp ios
Ġanunci ou
ne t
ĠprÃ³x imo
Ġestu do
Ġcontra to
ar da
Ġbair ro
ci ado
ĠSegu ndo
Ġf lores
Ġse cre
ĠB el
ĠK a
" ).
ÃŃs tico
Ã¡ lia
Ġsitu aÃ§Ã£o
os os
Ġdes sa
Ġcasa mento
nde ndo
Ġf emin
D urante
Ġev entos
in i
gra fia
Ġper to
3 0
Ġmelho res
z er
ĠRo d
anÃ§ as
ig ht
ÃŃ ncia
p le
Ġacred ita
ĠPri me
ĠC ruz
Ġac us
Ġcond iÃ§Ãµes
Ġliv ros
nc o
Ġfranc Ãªs
re l
ĠC u
em ia
Ġf ec
Ġpres ente
Ġjog adores
Ġo ito
Ġcor respo
ĠJ es
Ġobs erv
Ġmater ial
Ġem isso
Ã© is
ĠSil va
Ġre duz
Ġart istas
Ġal to
Ġse melha
Ġconf l
Ġrecon hec
Ġou ro
Ġte oria
Ġcl Ã¡ss
Ġc e
Ġrealiz ado
te iro
or da
Ġma nte
Ġdiv isÃ£o
k y
c l
Ġc ic
Ã© d
Ġb lo
ĠM at
Ġent rou
Ġ18 6
Ġm Ãªs
Ġreg iÃµes
ĠSa ntos
Ġp s
Ġtorn ar
Ġcon vid
Ġtur n
Ġel im
ĠS ch
ĠX X
iv os
Ġs ingle
Ġsol o
b un
Ġfer ro
Ġtro pas
ĠN Ã£o
m i
Ġequ ipa
Ġca be
Ġcateg oria
Ġoc upa
man as
ĠB an
c Ã§Ã£o
ĠAs so
ei tas
ĠM ag
to do
U A
ĠCas a
ĠW al
ez a
Ġart ista
Ġtor na
Ġres pec
Ġcompeti Ã§Ã£o
mb ra
Ġliv re
ĠEs p
ic al
Ġcon ven
v an
p ital
Ġra z
Ġm is
j ec
ĠCons elho
Ġvi ol
Ġba talha
Ġpre para
Ġmin ist
ci ma
Ġmud ou
Ġata que
Ġ198 0
ĠCh ar
s h
ĠRec ord
Ġ x
Ġcan Ã§Ãµes
ica is
Ġdec isÃ£o
Ġex tra
Ġcan al
Ġest es
k er
ĠEsc ola
Ġ4 0
o od
Ã³ l
Ġd ura
j os
Ġor ient
Ġperm i
Ġdem ons
ĠG lo
Ġsobre v
Ġma l
c ent
ĠS am
ĠA ra
ĠM al
Ġcaracter ÃŃsticas
Ġper ce
ica Ã§Ãµes
Ãºs sia
ĠV i
ro l
x ima
Ġgara nt
ĠG over
Ġvo tos
Ġat ra
Ġ197 0
tica mente
Ġv ista
ri que
ĠC Ã¢mara
Ġide ia
ĠY ork
Ġperm ite
ĠAlex and
C a
Ġcoma ndo
un g
Ġ199 9
Ġins pira
en n
Ġse n
ĠL ou
w s
lia m
ri m
ĠM or
Ġc ivil
Ġcomun idade
Ġrealiz ada
Ġver d
Ġeuro pe
Ġven ceu
Ġind Ãºs
id ad
Ġob te
Ġanima is
Ġpesquis a
Ġinc lus
Ġtrans forma
Ġprodu tos
c ol
Ġconc ent
Ġex ig
Ġo n
Ġde mo
ho ra
Ġquar to
fr ica
Ġter ras
Ġp Ã¡
Ġpequ ena
Ã©r cio
Ġrecon he
Ġmilita res
Ġpart ido
Ġcom bate
Ġesta Ã§Ã£o
Ġcol on
us Ã£o
Ġde pu
b as
Ġdiv ul
ĠCh ina
Ġint it
Ġinici ou
Ġn este
co mo
ture za
Ġ199 8
Ġsa Ãºde
Ġpro cess
ÃŃnci pe
re f
ĠLond res
ĠSa nt
Ġtrabalh ar
Ġestre ou
ĠJes us
el os
Ġtrabal ha
Ġcria r
Ġfal ta
Ġam or
le n
vel a
Ġoc up
Ġcampe Ã£o
l am
m or
Ã³ lo
u ta
Ġsiste mas
Ġa nte
ĠS ol
f il
Ġso ciais
Ġ[ [
Ġcha ma
Ġre no
Ã© u
gu s
l i
Ġprog ramas
Ġte ma
Ġalgu m
ÃŃf ico
in gu
Ġal go
ĠLu ÃŃs
) ;
Ġvis ita
ĠT ur
man os
Ġar mas
Ġsuper f
Ġlin gu
Ġinteres se
r ÃŃ
ĠRe al
it ada
ĠlÃŃ der
ris to
Ġre tra
Ġclass ific
Ġob rig
Ġtermin ou
Ġminu tos
Ġgover nador
ĠO ri
Ġes co
Ġr us
Ġma nter
Ġcri ada
usti Ã§a
Ġpl ano
Ġf Ã¡
g ada
ru po
Ġes ca
Ġc en
Ġsegu ranÃ§a
Ġm us
ĠÃºlti mos
d ados
Ġme t
Ġent rada
Ġest ra
Ġrec ursos
ia Ã§Ã£o
ÃŃ das
Ġpr Ã¡tica
Ġafir mou
Ġaproxim adamente
ÃŃ cia
us tra
Ġf iz
Ġse ns
le c
er g
Ġcomp ara
ĠEx Ã©rcito
Ġfro nte
Ġb il
ĠH u
l an
Ġt iveram
Ġdecid iu
Ã´ s
Ġprofiss ional
. ,
Ġbo a
Ġf ol
ĠL ib
Ġturn Ãª
ident al
b i
Ġ3 1
Ġima gem
Ġter mos
ĠS ec
al idade
Ġescri ta
ĠÃģ frica
ĠcomeÃ§ aram
Ġmas sa
ĠG ar
Ġno mes
Ġcres cimento
ĠR u
Ġo este
an as
Ġa cima
ĠAc ad
ĠpÃºbl ica
ĠD iv
pend Ãªncia
Ġim perador
Ġqu er
Ġfor mas
g h
ran k
ĠI II
Ġus u
Ġfin anc
tu ro
Ġu sa
a c
ĠH ist
Ġs at
Ġsent ido
Ġc i
E S
Ġv ivo
ĠPor Ã©m
pida mente
t ad
qu ela
ĠMu ndo
Ġindiv ÃŃdu
Ġcontinu ou
Ġc Ã³p
Ġvis to
ĠBrasile iro
ĠSegu nda
o t
Ġba ixo
Ġpequ eno
Ġa ma
Ġecon omia
ĠI nd
ĠS im
en cia
or ias
Ġa mea
ÃŃ mp
ĠWil liam
Ġconsidera da
Ġ /
cul dade
Ġimpor tÃ¢ncia
m y
ĠT h
ĠIs so
Ġrec us
nd os
Ġh ouve
Ġedu caÃ§Ã£o
Ġgen eral
Ġime dia
ver s
Ġqual idade
ĠD is
Ġins tal
E x
Ġv ive
Ġvel oc
lub es
Ġcom u
Ġus ando
Ġescol h
Ġd Ã¡
Ġar re
Ġti pos
or de
ed ades
Ġcri ou
rÃ¡ fica
Ġinicial mente
Ġna tureza
Ġcl asse
Ġbus ca
Ġl iga
Ġmo vi
Ġex tre
tiv idade
is to
g Ã£o
Ġfa cil
Ġh or
ĠR os
Ġv ig
Ġc ruz
ĠXI X
Ġre co
x ico
an ce
on el
v idos
Ġele iÃ§Ãµes
ĠPor tugu
Ġdist rito
ĠE UA
ĠgÃªn ero
pl os
re e
Ġinclu em
us s
Ġdes cri
Ġt este
bl ic
Ġperm it
Ġinforma Ã§Ãµes
l ing
Ġa val
Ġe nte
ara n
Ġver dade
Ġdif icul
k s
Ã© n
Ġutiliz ado
Ġre v
Ġj ur
ro m
Ġdo min
Ġrela Ã§Ãµes
Ġfinal mente
Ġus ar
Ġman if
ĠMo nte
ĠN or
ĠD ou
Ġ k
Ġmet ade
Ġcam inho
Ġproble ma
ÃŃ fica
io te
Ã£ es
ol d
b os
ĠlanÃ§ ada
ĠV ila
Co mo
T V
i que
ito ra
Ġac ei
Ġra pidamente
Ġlu z
Ġ199 7
il ar
ra ma
Ġd im
ĠM er
N A
" ".
Ġnenh um
ĠN as
Ġale mÃ£o
al o
A r
Ġpublic ado
Ġativ idade
Ġpos i
Ġtor no
or ld
ĠM usic
ment ou
âĢĿ .
olÃ³g ico
Ġz ona
o me
ito u
Ġes ses
es as
Ġrecu pera
Ġre for
ĠE mbora
rÃ¡f ico
Ġun idades
ita Ã§Ã£o
Ġquant idade
Ġin im
Ġan al
Ġintro duz
Ġcur so
a mente
Ġau mento
Ġma nda
Ġconhe cimento
ĠE u
Ġacomp anh
Ġ199 6
ÃŃci e
ncia l
im os
tr Ã¡s
Ġat riz
Ġ196 0
Ġab a
Ġpor tanto
Ġv eio
to ra
Ġde ri
Ġme ns
Ġis to
Ġest ados
Ġes quer
ad Ã¡
ti mo
Ġven ce
Ġ Â
Ġl este
Ġtem pos
Ġemisso ra
Ġd ado
Ã³n io
Ġd inheiro
ĠJ Ã¡
âĢ Ļ
Ġma nd
Ġc ele
" ",
tu s
De pois
Ġescol as
Ġest rang
o a
iss Ãµes
ÃŃ b
D es
Ã¢ nt
Ġedif ÃŃcio
Ġn ar
ri mento
al ha
ĠD om
Ġencont rar
Ġexiste m
ĠcrÃŃ tica
l in
is h
n am
Ġan Ã¡l
ĠJ og
Ġp ilo
ÃŃ m
Ġpropri edade
ĠMunic ipal
t Ã¡rio
Ġh on
Ġa er
Ġb al
ĠM on
Ġna ve
Ġfun Ã§Ãµes
u ncia
Ġta man
er to
ÃŃ d
it Ã£o
Ġdim inu
Ġinde pendente
Ãº l
rado res
Ġmed ida
ia nos
Ġpro vo
Ġjov ens
Ġprova velmente
ĠB ru
Ġat or
id ro
l or
Ġprov ÃŃncia
Ġele tr
ĠAnt Ã´nio
ĠÃŃ nd
Ġfo to
am os
Ġcont r
Ġcu ja
ĠG eral
Ġmud anÃ§a
or me
Ġ199 4
Ġgu itar
Ġl ite
un ha
ci p
M a
Ġre le
Ġdef esa
Ġdo u
ĠCons titu
ta is
Ã© ia
es c
Ġa de
ĠM inas
Ġpad rÃ£o
M ar
ĠRe de
Ġex istÃªncia
for me
ga mento
Ġpalav ra
Ġav anÃ§
t ida
cer ia
us t
Ġfa br
Ġadminist ra
v idas
ĠR ei
titu de
Ġinsta la
Ġ8 0
Ġc Ã©l
ĠFer nando
Ġamb iente
Ġapro v
te d
Ġdispu ta
19 8
Ġrefer Ãªncia
Ġconc eito
ta nt
Ġpro por
Ġlon ga
Ġfrequ entemente
Ġcap tura
ĠT om
Ġapare ce
tu n
Ġa Ã§Ãµes
Ġ6 0
Ġexc lus
Ã ¶
Ġre a
Ġlin has
ĠA na
Ġcir cu
Ġqu il
ĠD em
vi os
4 0
Ġequip es
fer Ãªncia
ĠV ic
ĠBrasile ira
Ġse manas
Ġportugu esa
Ġg as
ing ton
is as
ĠJa ck
Ġdesco bri
ĠB at
Ġ199 5
nd eira
Ġes for
Ġdifere nte
Ġet c
Ġde mais
quis tou
ec er
ÃŃ ram
Ġar gu
x as
olÃ³g ica
Ã© gio
b s
on y
E ntre
ĠMar tin
Ġcu jo
bun al
ĠA ward
ĠDa vid
ĠC i
Ã¢n ica
Ġpossu em
ig ra
Ġcam peonato
pos to
ĠC lube
Ã¢ me
em ble
B C
Ġcomp orta
b or
ĠG re
Ġt es
ber g
Ġes por
u nda
ĠrÃ¡ dio
Ġus ada
Ãªn io
Ġpalav ras
im es
an s
ĠEn quanto
ustr ial
Ġapresent ou
Ġi ria
Ġn esta
ĠJ ames
ce nd
Ġas pec
ĠMÃ© xico
i entes
Ġv em
v in
est re
tif ic
ig as
ber ta
er vaÃ§Ã£o
ĠMu seu
la res
Ġhavia m
Ġes sas
ĠÃ ¢
Ġm issÃ£o
Ġdesta que
Ġca tÃ³
Ġindiv id
Ġdesem pen
Ġanter iores
ĠSe te
Ġameric ano
ha el
ĠFu tebol
v ir
ĠB as
Ġche fe
ĠC osta
ĠtÃŃt ulos
Ġcos tu
Ġecon Ã´m
Ġoc orr
u ras
ven Ã§Ã£o
ĠP h
ta ria
on as
Ġap lic
ta gon
ĠO c
Ġpo te
ĠEs sa
Ġhuman os
Ġa trÃ¡s
Ġam igo
ĠOr dem
Ã³ is
iz ou
Ġeng enh
Ġs ite
Ġa z
ĠpolÃŃ ticas
Ġdemons tra
Ġperde u
ĠW ar
Ġcomp osta
Ġperte nc
ma ndo
ass em
mb a
g en
Ġof iciais
Ġor den
ent al
ra tura
Ġcar ta
ĠR ib
t le
Ġdif ÃŃ
de raÃ§Ã£o
ĠL iga
Ġes qu
Ġche gar
ĠPres idente
t riz
Ġinte ress
Ġtradic ional
Ġ199 2
Ġpass ado
iva mente
Ġse quÃªncia
Ġinclu i
ĠCom un
e ram
ĠG rupo
Ġres id
Ġgol s
Ġam igos
Ġun idade
Ġre p
Ġcul tural
e nd
ÃŃl ias
Ġhomena gem
Ġd Ã³
me ns
gues ia
o p
ou s
Ġcar ro
u e
t ina
Ġaber tura
ĠS ha
Ġinte ns
ĠGlo bo
ĠH ol
Qu ando
io c
Ġg o
Ġcontro l
tÃ¡ vel
n Ã¡
Ġrece ber
ĠSen hora
Ġas se
ĠirmÃ£ os
Ġfu turo
Ġdis s
iste m
iv al
Ġcabe Ã§a
Ġve ÃŃ
ĠI sa
ĠindÃºs tria
g ados
ĠR Ãºssia
Ġtrabalh ou
Ã´ mica
Ġbase ado
gent ina
ĠM es
Ġsu fici
i mentos
Ġcon quistou
iz ados
Ġtra tamento
Ġdes con
par tamento
Ġef eito
Ġoficial mente
Ġveloc idade
Ġprec isa
Ġf ala
Ã§ ado
Ġc re
ĠD ia
Ġadminist raÃ§Ã£o
Ġte atro
Ġpe Ã§as
Ġm ol
E le
id es
Ġac ad
Ġar m
Ġa tenÃ§Ã£o
Ġpro tes
Ġsol dados
Ġv iz
Ġne go
m on
Ġtaman ho
os as
2 5
Ġ199 1
S a
Ġn esse
nd em
Ġobte ve
Ġ ris
f ic
Ã© dia
tion al
re ia
Ġin vas
or po
Ġpass ando
Ġcontr Ã¡rio
ti o
Ġch in
ific ar
Ġme m
Ġeste ve
Ġresul tados
Ġele nco
Ġe lo
ĠMinist Ã©rio
Ġlocaliz ado
Ġmar cou
Ġin fer
ci mentos
oso fia
ÃŃ rito
ĠJ orge
Ġent ra
h i
Ġcom Ã©rcio
er ial
Ġm ic
Ġpass ar
bl iote
Ġde vem
ĠF estival
Ġac er
Ġref le
ve ram
Ġoriginal mente
A o
Ġde co
Ġc orte
Ġtrans porte
Ġp Ã³s
Ã³ rio
Ġsegu ir
ra el
Ġau x
Ġpro tagon
Ġ18 5
por to
as t
Ġfor ne
Ġex a
Ġest as
Ġestad ual
ĠM os
n es
Ġant igos
y o
Ã§ ar
P a
Ġmo tor
Ġproje tos
Ġpou cos
Ġme ados
g ica
Se gu
era Ã§Ã£o
Ġdes tin
ĠC D
Ġcor r
Ġimp re
Ġc idad
ord en
Ġde la
un os
g resso
Ġtra z
Ġg al
ĠpolÃŃ ticos
Ġn Âº
Ġvoc Ãª
Ġclass ificaÃ§Ã£o
Ġc lubes
Ġv isÃ£o
Ġt rÃ¡
Ġe ta
ĠCent ral
Ġnecess Ã¡rio
ĠV ol
Ġe fe
Ġassum iu
ĠS p
ia nÃ§a
Ġter re
Ġef eitos
i qu
Ġtenta tiva
w ay
ĠC e
ĠE ra
Ġasso ci
6 0
ĠdÃ³ lares
Ġconte mp
is Ãµes
ĠB al
ĠHen rique
Ġj ul
ĠÃ¡ r
F A
Ġpr isÃ£o
de u
Ġfe deral
ĠP en
Ġnenh uma
Ġpesso al
ĠepisÃ³ dios
Ã³d igo
ĠAlgu ns
Ã¡ b
igu el
L e
ĠB la
ĠA inda
Ġrealiz ar
ĠE r
ĠW orld
n i
Ġtra diÃ§Ã£o
Ġn ada
Ġb at
on al
tr Ã³
ĠMan uel
Ġ199 3
Ġfo nte
Ġda ndo
Ġneg Ã³
Ġresp eito
Ġre pe
ĠP os
Ġro ck
d ades
ĠA ustr
Ġres po
O u
Ġ7 0
ĠOl iv
ĠRod ri
Ġexperi Ãªncia
Ġprec is
ĠCal if
Ġar tes
ig h
Ġass u
Ġpermane ceu
ĠL os
Ġalgu ma
z z
w e
Ġvia gem
ĠM ont
Ġba ixa
Ġmen cion
va Ã§Ãµes
Ġsuperf ÃŃcie
Ġpen sa
w are
Ġo por
Ã© re
Ġpr Ãªmio
ĠJog os
Ġso m
Ġdistribu iÃ§Ã£o
l tra
ĠB ill
ĠcÃ³p ias
p p
Ġin ver
A S
ĠV en
og ra
Ġap lica
Ġdiz endo
Ġhist ori
Ã´n ico
ĠCan adÃ¡
Ġap os
us tria
Ġcompanh ia
Ġpass aram
ĠC la
til h
ĠC he
ĠSec re
it Ã¡rio
ĠtÃ©cn ico
I n
ĠG en
il la
nt u
Ġsus p
Ġper f
ĠL iv
Ġinclus ive
Ġhist Ã³rias
Ġaba ixo
Ġfam ÃŃlias
Ġderro ta
il ia
Ġl ic
Ġpres id
Ġespanh ol
Ġamp la
Ġa vi
Ġdu pla
Ġp le
Ġestra tÃ©
ĠcrÃŃ ticas
ĠG on
at or
ĠD el
Ġb ol
nda nte
bo ard
Ġem pa
Ġresta ura
Ġm Ã£o
Ġing les
Ġtorn eio
ĠS ta
Ġcomp osto
Ġconstru ÃŃdo
pu blic
n y
Ġgra du
Ġpublic ou
ĠEs se
Ġfo ntes
ĠAu gus
Ġpr os
ĠA meric
en ci
Ġraz Ã£o
Ġreg ime
Ġtempera tura
ĠM en
Ġencont ram
ĠDes de
N as
Ġcons tante
ĠCon c
mel ho
Ġcas ou
Ġesc rav
Ġforma to
id Ã£o
Ġmar ido
Ġmud anÃ§as
Ġc osta
Ġcomun icaÃ§Ã£o
L a
Ġval ores
Ġpare ce
ĠSo cial
tro u
Ġcas as
Ġ km
Ġaer ona
Ġ18 3
Ġ9 0
Ġ18 4
Ġdire tamente
g es
Ġh i
Ġtre in
Ġno ve
Ġfigu ra
Ġdo enÃ§a
Ġte xto
ĠJ er
ĠT ho
Ġde us
Ġroma nce
Ġb om
ĠNos sa
Ã¡ u
p ia
Ġj o
Ġnecess idade
ĠR ich
Ãµ e
Ġrealiz ou
Ġel Ã©tr
Ġfiz eram
Ã¡ ticos
ĠV ir
Ġcapa z
Ġconhec idos
Ġgu er
Ġqu estÃ£o
Ġad ul
on o
Ġdis pos
ta ntes
ĠtÃ©cn ica
emble ia
Ġ198 8
ix os
ei x
Ġinf ant
Ġapare ceu
Ġcant or
Ġb ene
k u
Ġpo dia
Ġc ena
aliz aÃ§Ã£o
qu im
no w
ĠC ham
Ġ195 0
Ġcomp ar
Ġ198 9
Ġpres sÃ£o
c ular
Ġnorma lmente
ĠÃį ndia
ria mente
Ġcons iste
ĠPrime ira
Ġpre oc
ĠEntre tanto
pol ita
vo re
Ġproduz ido
Ġexpres s
Ġrespec tivamente
ĠanÃ¡l ise
Ġpre te
Ġt el
Ġres posta
Ġche ga
ĠW e
Ġima gens
Ġcont in
Ġdepu tado
for d
Ġfund ada
Ġp ens
Ġdist Ã¢ncia
ĠI ta
Ġmanda to
C on
Ġarti go
Ġpro teg
Ġsemelha nte
Ġdesa pare
on es
b ras
Ġgover na
Ġpref eito
ĠAsso ciaÃ§Ã£o
Ġt it
tura is
cial mente
ĠP u
ĠMic hael
Ġentre vista
Ġconte Ãº
ĠI or
Ġescri tor
ga res
Ġch u
le t
ĠDire ito
ĠEuro pe
ĠE g
Ġtotal mente
f ra
Ġfa ixas
Ġor d
P ro
Ġsele Ã§Ã£o
Ġdec la
ĠC rist
ĠK e
Ġp at
ĠC risto
d y
Ġem p
Ġigu al
i nta
c rito
Ġexpl ic
ĠM iguel
ĠGover no
Ġdis ti
Ġpassa gem
ĠEs tÃ¡
Ġne ga
ĠPo p
Ġper c
ĠG erais
Ġreg ular
ma l
Ġe c
Ã¢n ico
ĠL at
ĠT al
ĠAustr Ã¡lia
Ġs inal
Ã¢ne a
in has
ĠB or
Ġcont Ã©m
tu de
anh as
Ġinforma Ã§Ã£o
v entu
Ġsa be
ĠAnt on
ĠA mb
ĠB ol
C A
ve z
Ġconc e
Ġvers Ãµes
Ġtecn ologia
ĠIor que
t ino
bu ns
D o
ĠF und
19 7
Ġprodu tor
Ġele iÃ§Ã£o
Ġsus te
T o
le o
Ġlocaliz ada
ing s
Ġcomple tamente
Ġcola bo
Ġa gra
ĠdÃ©c adas
ĠH or
r id
Ġal unos
Ġb io
ment ais
ess em
i es
ĠP ere
Ġdis p
Ġconfl ito
Ġvo z
Ġpar ceria
ĠAcad emia
ĠAb ril
N os
ĠE ng
form ula
Ã¢n cias
ta Ã§Ãµes
ĠH el
2 2
ĠB ranc
g ando
Ġpequ enas
Ġcond uz
il iar
Ġparticip ar
a res
Ġpa ci
ĠPa pa
le ta
Ġform ado
Ġopor tun
ĠMa io
ord este
i ou
Ġdia nte
Ġdecla rou
c aram
Ġpe Ã§a
Ġv as
ĠNo vo
Ġde te
ess Ã£o
tu a
Ġg er
Ġdever ia
Ġtro p
Ġent rar
Ġpara l
Ġcond en
Ġmanif esta
te u
ĠG il
Ġdeix ar
ito res
Ã ±
ĠR es
ĠJ ul
Â ²
Ġtem as
Ġre ais
Ġb re
Ġpro ib
Al Ã©m
Ġc el
ĠPe ter
Ġinstitu iÃ§Ã£o
m ia
ĠCam p
Ġdes ses
res t
Ġleg isla
l im
ĠsÃŃ mb
v ador
Ġf eitas
Ġfu g
Ġal terna
Ġdom ÃŃnio
Ġv ila
Ġh ip
ĠhistÃ³r ico
tu ais
Ġad icion
Ġf en
Ġa fe
ĠP at
ĠRo bert
ĠAr gentina
Ġper d
Ġprodu to
Ġpres entes
Ġcu mp
Ġimpre nsa
w ood
ĠB ur
por t
u re
Ġro d
ĠI nte
Ġpri m
m un
Ġpor ta
Ġenc erra
Ġna vio
vi Ã©tica
h ada
Ġaf as
est Ãµes
ĠmÃ£ os
p al
Ġ198 6
Ġno ta
Ġin Ãº
Ġv ide
Ġus ados
Ġaconte ceu
ĠD ist
ers on
b res
Ġprof esso
Ġev itar
ĠD r
Ġcu id
ons tru
Ġre bel
ĠS tu
Ġinc orpo
iz ant
Ġt iv
Ġinte n
ĠC idade
Ġpos to
b ia
Ġcontinu a
C h
Ġsegu ido
Ġob ter
Â »
ĠnÃº cle
s ingle
Ġre pro
Ġvoc al
f era
Ġim ped
is c
2 3
nt ado
it s
u mo
Ġb ra
r or
Ġcer im
ĠsÃ©c ulos
Ġdirig ido
V D
v ent
un id
ĠalcanÃ§ ou
i ada
Ġfic ar
ĠGe orge
Ġespe ci
u ÃŃ
Ġna vios
Ġde pe
Ġinterna cionais
im as
is mos
Ġco isas
ĠH Ã¡
ur os
m u
S P
Ġf ru
Ġestre las
ĠC atÃ³
es tra
Ġpro posta
ĠBa hia
ei Ã§Ã£o
ĠCa tar
Ġanunci ado
Ġfaz em
Ġh um
Ġpequ enos
ĠC ou
c idos
S Ã£o
Ġdesempen ho
2 4
Ġc la
ita is
2 1
ÃŃ dia
ĠpolÃŃ cia
ĠCom issÃ£o
Ġsa ÃŃda
ĠnÃºmer os
an sÃ£o
ik i
ĠdifÃŃ cil
ero porto
v Ã£o
ta le
es ter
Ġaju dar
Ġad m
Ġcons ider
ĠG r
em as
ĠD ez
o nte
Ġmante ve
ĠÃ¡l buns
Ġlu gares
Ġde tal
is tir
Ġper segu
Ġm adeira
Ġad vo
Ġpla ta
p ul
ĠN este
g in
iv as
tu do
Ġopera Ã§Ãµes
Ġrec orde
Ġextre ma
Ġau di
Ã³r nia
g ro
ĠAng eles
Ġser iam
Ġda quele
Ġinstitu iÃ§Ãµes
Ġt ira
Ġdeix ando
Ġdes tes
y er
Ġopera Ã§Ã£o
ĠmÃ¡ qu
Ap esar
ĠcÃ©l ulas
ques tra
Ġesquer da
ĠTra ns
g ios
Ġco res
Ġpint ura
S o
ĠmÃ© dio
Ġcheg ada
Ġhuma no
ĠFa culdade
8 0
" ;
Ġ198 5
t is
ĠA tualmente
Ġg lo
ĠT ele
Ġf Ã£s
ĠA ma
ĠD ar
Ġte x
Ġcas al
Ġaca ba
N e
pos tas
gra f
ĠtÃ©cn icas
ard im
ĠmÃ© todo
ĠJ ulho
Ġb Ã¡s
ĠT r
Ġconstru ÃŃda
Ġper s
ĠS erra
Ġbo mb
Ġpal Ã¡cio
l s
ic idade
Ġfor n
iver so
bur go
Ġhuma na
Ġmus icais
Ġta xa
Ġcomu ns
Ġpr ÃŃncipe
Ġexpres sÃ£o
Ġlite ratura
Ġintit ulado
ĠI V
Segu ndo
Ġapresent aÃ§Ã£o
Ġra inha
Ġgera Ã§Ã£o
Ġata ques
ĠBer n
ĠV it
fon so
anh ia
ĠIs to
Ġf inais
Ġem bar
Ġv est
Ġme tal
Ġd or
Ġliber dade
c y
Ġpop ula
re do
ĠP as
c ro
ĠpÃ¡ g
Ġre ino
no res
ĠI m
Ġv inte
Ġreal idade
Ã³r m
Ġenc ar
ĠbritÃ¢n ico
Ġfre guesia
Ġn ÃŃveis
ĠPaul ista
Ġtrans por
ĠMel hor
ĠOu tubro
Ġtransm it
Ã ¨
ĠcrÃŃ ticos
ĠNo v
Ġexp ansÃ£o
Ġconte xto
um in
Ġconf ro
Ġpa z
ur s
Ġ198 7
Ġ193 0
Ġbrasile iros
Ġpubl icaÃ§Ã£o
Ġau tores
Ġo posiÃ§Ã£o
Ġc enas
ĠT ro
ĠP l
ĠRecord s
ĠV e
Ġprograma Ã§Ã£o
ens es
ĠW h
Ġmod elos
Ġfu ndo
Ġmunic ÃŃpios
ĠprÃ³x ima
Ġcompos iÃ§Ã£o
ÃŃ r
l ine
Ġmas cul
ĠCalif Ã³rnia
Ġse tor
Ġcome mo
Ġs Ã©
ĠD ra
ik e
Ġescre ver
Ġretorn ou
ĠSete mbro
ĠmÃ©d ico
iel d
ta va
Ġna cionais
ĠD ec
ba ix
Ġfronte ira
ĠT re
Ġau ment
Ġcomp rimento
Ġestre la
Ġgra vaÃ§Ã£o
Ġcoma nd
ĠOliv eira
Ġv elho
Ġse jam
Ġobje tos
Ġextens Ã£o
ÃŃt ulo
Ġs in
Ġmovi mentos
Ġru a
ĠMil itar
Ġanterior mente
ist ia
ion almente
ita ndo
Ġle tras
ÃŃs s
Ġpart idas
ĠB i
ĠN esse
Ã§ ou
Ġapro xima
Ġjornal ista
Ġsu g
Ġproduz ir
tro polita
Ã©ri os
ul s
ĠB re
Ġps ic
Ġcome Ã§o
Ġprocess os
Ġesc ala
Ġital iano
y n
Ġtent ou
ĠP an
Ġdi plo
ĠT or
Ġcar Ã¡
M A
ĠS tar
ei tura
ĠP i
Ġped ido
Ġv in
Ġtro ca
ĠF rank
Ġlig aÃ§Ã£o
Ġcomp ree
Ġna quele
ĠÃ¡ ra
Ġbranc o
Ġutiliz ada
Ġind ustrial
ĠCon gresso
Ġdiz er
ĠlÃŃn guas
Ġim pa
de us
C ar
Ġre des
Ġ18 0
Ġqu eria
Ġdes sas
ĠFer ro
ĠK o
er ta
Ġc ru
Ġind ica
is f
Ġma tem
Ġsobrev iv
americ ano
ĠÂ «
b at
iz ando
ĠP re
ĠTra bal
Ġde las
man n
Ġg anha
Ġestad unid
Ġmis tura
Ġgover n
lÃ¢ nt
ĠR ua
Ġex ter
Ġcon forme
ĠTri bunal
ĠrÃ¡ p
is se
Ġ198 2
Ġretor no
re na
ing les
u i
Ġj us
Ġlingu agem
Ġb ispo
Ġfund aÃ§Ã£o
Ġme nores
Ġpos se
z ar
a ch
Ġameric ana
B A
ĠGu il
Ġf as
Ġcur sos
vil le
Ġpa ul
ĠfÃŃs ica
ad ura
Ġconta to
Ġapresent ar
Ġga ro
Ġman u
Ġsofre u
ro me
Ġve ge
Ġl es
Ġno tÃŃ
Ġvia j
bliote ca
Ġver Ã£o
Ġu ltra
ĠV ar
Es ta
ĠprÃ³p rios
J o
Ġre vol
Ġsurg iu
Ġcontemp or
la ma
Ã© rea
ĠAnt Ã³nio
ĠTe atro
Ġres to
is ion
ven ida
ĠJ unho
Ġmater iais
Ġl at
Ã©ri as
R o
de ia
Ġinde pendÃªncia
iv el
Ġapresent ado
Ġforma r
en so
Ġfal e
ĠV o
Ġb el
y e
Ġprinc ÃŃpio
Ġrelig iÃ£o
Ġmem Ã³ria
Ġque da
res sÃ£o
Ġfam oso
Ġdig ital
Ġda n
Ġfo go
Ġcon vo
am p
gua i
ĠF el
ul ada
Ġno vela
Ġs ala
Ġfunda mental
Ġn essa
Ġm ÃŃn
Ġcl ima
Ġpropri et
Ġes sen
Ġmor to
ĠMar Ã§o
Ġfranc esa
ÃŃ dio
ĠLib er
Ġprofiss ionais
Ã´me tros
ĠconteÃº do
Ġind ÃŃg
olÃ³g icos
Ġri val
Ġres istÃªncia
Ġdefin i
ĠBa talha
Ġper gu
t Ã³ria
de res
Ġvol tar
ĠC ivil
Ġmunic ipal
Ġco nde
Ġamb as
Ġcr ise
Ġpassa g
la mento
ĠPr Ãªmio
ĠAward s
Ġre j
Ġade qu
Ġme nt
ĠComp anhia
ĠJ ustiÃ§a
Ġshow s
Ġsimples mente
ad eiro
ĠalemÃ£ es
t idos
Ġform ada
ig na
Ġimp la
ĠA maz
ĠindivÃŃdu os
Ġher d
ĠD i
Ġposs ibilidade
2 7
ĠCont udo
Ġtorn aram
ĠCatÃ³ lica
ĠEs tes
Des de
Ġconsegu ir
Ġescol ha
Ġcria nÃ§a
nt Ã£o
ĠAss embleia
Ġlev ar
Ġag ric
Ġre inado
Ġle is
cu nd
b es
m ico
Ġve ndas
Ġbase ada
po le
i ados
Ġpublic ada
ĠRoc k
Ġatu ou
Ġcomporta mento
r ista
Ġar ma
Ġleva ndo
ĠD VD
Ġcam p
ĠEs tad
Ġgra u
Ã§ ada
na is
Ġte rem
2 8
Ġ197 9
ĠNov embro
Ġper forma
co mp
Ġsex ual
es tru
ĠS Ã©rie
Ġop in
ist Ã£o
Ġfica ndo
Ġpla ntas
Ġsufici ente
ĠDiv isÃ£o
Ġobje to
Ġ3 5
ĠPa ÃŃs
Ġ197 4
Ġcandida to
ĠT our
lo gia
Ġsu ger
Ġadqu iri
ĠS ele
Ġv il
ĠIsa bel
B a
Ġsu ced
Ġris co
Ġqu estÃµes
Ġespe ciais
Ġtransm issÃ£o
Ġconstru ir
ĠOl ÃŃmp
Ġg estÃ£o
Ġ198 4
Ã© ticos
al h
Ġquar ta
ch os
Ġpl anos
Ġdi mens
Ġre almente
Ġmon ar
Ġtro no
ĠC er
ĠestÃ¡ dio
Ġpo t
Ġocas iÃ£o
n Ã£o
ĠEs tu
Ġcompos itor
Ġestuda ntes
2 6
Ġad ol
pon sa
ĠV as
Ġ198 3
ve ra
Ġganh ar
Ġco orden
Ġv iu
Ġmor tos
Ġ =
Ġportugu eses
c ola
ol is
T A
Ġjog ar
iz adas
Ġconsegu e
ĠEdu ardo
Ġv Ã£o
gre jas
Ġcond iÃ§Ã£o
olÃ³g icas
ĠRe voluÃ§Ã£o
Ġpar c
Ġaqu eles
Ġ ros
Ġcer to
ĠEdu caÃ§Ã£o
ĠM ul
pera Ã§Ã£o
Ġreconhe cimento
Ġna turais
Ġcom pa
Ġto po
Ġem o
l va
S u
Ġ197 5
Ġle mb
Ã´n imo
Ġcomer ciais
c adas
oc l
ĠAg osto
Ġt rilha
ĠAle gre
Ġcl ara
Ġcheg aram
Ġform ou
Ġex terior
Ġse cund
nam bu
Ġper da
Ġp atro
Ġco ber
ĠpÃºbl icos
Ġped ra
volu cion
r Ãµes
Ġservi u
Ġf esta
Ġimp le
ĠJos e
ĠCons tant
Ġre forma
pl as
Ã³ i
ÃŃ bl
aria m
Ã¢ ndia
ĠcatÃ³ l
te ra
Ġcomple xo
Ġf eitos
Ġma gn
ĠR ic
Ġdire ita
le x
Ġal u
Ġfaz ia
Ġme ios
ĠMar c
Å į
Ġcham ados
Ġd Ã©ci
Ġ194 0
Ġpropri edades
Ġating iu
Ġinte lig
M u
Ġex posiÃ§Ã£o
Ġil has
Ġcons erv
ĠDem oc
q Ã¼
ĠN ic
Ġsan gue
R a
Ġcomp on
c ara
ific ada
ioc ese
Ġson ora
Ġautor idades
m ith
Ġcomp u
Ġ5 00
nd imento
Ġcri tic
ito ral
Ġve nd
Ġcam pos
in ada
it Ã¡ria
ĠChar les
to dos
Ġencont rado
ĠPal Ã¡cio
Ġ y
Ġda nÃ§a
Ġplane ta
Ã¢ne o
Ġp ec
Ġso f
us sÃ£o
ĠPar que
Ġsa ber
x imo
Ġte nd
Ġde ntre
Ġar maz
ĠRo berto
Ġho m
E R
ĠPere ira
Ġv Ã¡l
Ġv ul
C O
Ġimp ress
Ġatu aÃ§Ã£o
ta in
ĠP rin
Ġf oss
Ġre n
Ġt u
Ġcheg ando
ĠPara nÃ¡
Ã¡ dio
Al gu
Ġac res
Ġmul ti
Ġpal co
Ġf ir
Ġ )
Ġap el
u nt
Ġpres o
ĠLu iz
ru p
ĠPro f
Ġamb ient
c tor
en cial
Ã§ ul
ca u
ĠIs rael
ĠT u
Ġ197 8
th er
Ġpop ulares
Ġsa iu
Ġha ver
Ġac idente
Ġid eias
Ġfil osofia
Ġfor tale
Ġpes o
ĠV an
bil idades
ĠConstitu iÃ§Ã£o
c ula
Ġdesenvol vido
Ġcons um
Ġre dor
Ġdesenvol ver
Ġcas telo
A meric
Ã³ f
ĠF in
Ġex pa
ĠM ich
Ãºl io
Ġpro ce
Ġcont ou
ĠSe us
a ix
ĠÃ¡ guas
ĠT ec
ĠCatar ina
ĠL ima
y l
ĠH am
ch er
ria m
b it
Ġf es
Ġen orme
ere m
Ġfor tes
ĠA fonso
ĠDis ney
Ġju ntos
Ġl iter
ci pl
ga Ã§Ãµes
Ġesc al
Ġcon v
ĠSal vador
Ã³p olis
ri tos
Ġpar que
Ġp un
do ra
Ġrealiz aÃ§Ã£o
Ġres ponsa
b an
ol os
ĠDez embro
Ġs ag
ter o
Ġpilo to
ĠC lub
ĠpÃºbl icas
Ġno bre
ag e
o re
ĠSo ciedade
7 0
Ġba ndas
19 6
Ġd ada
Ġcons ul
Ġquil Ã´metros
ĠS ÃŃ
ent re
Ġv Ãª
Ġvol ume
Ġn Ã³s
Ġaber to
Ġro m
Ġcoma ndante
2 9
Ġpote ncial
I A
Ġci Ãªncia
Ġpassag eiros
Ġve nda
ĠC ultura
g rÃ¡fica
ĠM iss
if e
Ġh idro
on na
ĠCa val
ĠF la
Ġass inou
Ġcap ela
Ġt ÃŃp
ĠH an
Ã³lo go
Ġnar ra
f Ã©
Ġconc orre
Ġsele cion
Ġ197 3
p est
iste nte
Ġla te
ios o
Ġcic lo
i mb
io ca
Ġnu cle
na val
tÃ© ria
cia Ã§Ãµes
ÃŃ mica
Ġreg ras
Ġsegu e
Ġeta pa
ĠAlexand re
Ġpode res
Ġabs ol
Ġhos pital
ĠRich ard
h Ã£
Ġex ped
ĠJe an
N Ã£o
Ġa us
Ġbre ve
igra ntes
Ġant igas
co nt
Ġ197 6
j i
Ġconse qu
ĠPortugu esa
ĠOu tros
Ġb e
Ġru as
ĠfÃ¡ br
Ġv iver
Ġt rou
Ġb eb
E u
Ġgrav adora
Ġcus to
Ġ196 4
Ġtradic ionais
c Ã£o
ur g
me m
Ġac ess
ĠO uro
pres idente
ft ware
Ġimedia tamente
her me
c or
Ġcham ou
F C
Ġab orda
Ġfic aram
ĠEstad ual
Ġing ress
Ġc ente
Ġ196 9
Ġa to
Ġsa ir
Ġdispos i
Ġlidera nÃ§a
Ġdesenvol veu
Ġutiliz ados
Ġminist ro
pres sÃ£o
t inho
ÃŃn as
Ġto ma
Ġentre tanto
Ġac eita
Ġ196 8
Ġsobre tudo
Ġfin an
ti mas
Ġho ra
ĠH os
Ġfoss em
Ġpl an
ivel mente
rin hos
ĠLe g
ash ington
ĠlÃŃ deres
ĠXV III
at h
ĠTho mas
w er
en vol
ec ido
Ġvari edade
Ã¢ mica
Ġmoder na
Ġcap itÃ£o
4 5
en Ã§as
p t
Ġrec Ã©m
ĠSele Ã§Ã£o
ĠDan iel
G ra
Ġ #
Ġconc ed
Ġecon Ã´mica
Ġdifere nÃ§a
Ã¡ cia
el iz
D a
Ġcient ÃŃfica
Ġme ta
ic s
Ġtent ar
Ġco ment
Ġm ÃŃdia
l icaÃ§Ã£o
Ġcons ci
Ġobs erva
Ġe voluÃ§Ã£o
Ġprote Ã§Ã£o
Ġencontra dos
Ġb izant
Ġan g
Ġcen Ã¡rio
p ion
Ġ Q
ĠV ale
us ta
Ġdocu ment
val ho
b ela
Ġp Ã©
Ġpor to
Ġreceb ido
Ġse xo
ĠCi Ãªncias
is tiu
Ġapresent am
ĠEs tra
Ġar que
er os
id or
Ã³rm ula
Ġdes lo
Ġsubstitu ÃŃdo
Ġpre do
ĠEg ito
Ġro manos
Ãªm ios
ĠÃģ sia
ton e
ĠS cho
ĠA qu
Es te
Ġcons ol
Ġ198 1
Ġev id
Ġaspec tos
Ġinvas Ã£o
Ġarquite tura
Ġtrein ador
Ġca b
, "
Ġpossu ÃŃa
b io
Ġen via
Ġre l
u almente
ĠLe on
ĠA f
ĠAr t
Ġrela tivamente
Ġm Ãº
Ġdis cu
Ã³g ica
d ica
y d
Ġpa p
Ġf is
ĠP Ãºbl
it z
k et
americ ana
ĠC le
Ġba ndeira
Ġpro l
Ġestru turas
Ġparticular mente
Ġv ira
ce b
Ġinfer ior
Ġse nte
inal mente
v ados
te in
Ġto mou
Ġvo o
Ġterri tÃ³rios
Ġdescon hec
Ġtra ta
Ġnorma l
Ġto mar
Ġcer ta
Ġcomple ta
Ġd ista
us o
Ġequ ival
ĠSo viÃ©tica
Ġcole Ã§Ã£o
Ġpla nta
ĠMa c
c es
E n
ĠLo ve
j or
ar te
Ãº r
pe Ã£o
Ġex ti
x ic
Ġident idade
Ġd rama
ĠM ara
Ġna tal
ĠP S
Ġfrequ Ãªncia
Ġescolh ido
ist er
ib us
ĠIn f
ĠnÃºcle o
ĠAr m
Ġc ho
Ġcor o
Ġcorr ida
Ġmes mos
iro u
iste ma
Ġdesa f
ou co
v ou
le tas
Ġme c
ĠveÃŃ culos
As s
ha res
Ġtit ular
Ġacad Ãªm
ina mento
Ġre to
Ġpo vos
Ġcri min
ra va
ĠS em
mar ca
Ġdes f
P S
Ġutil izaÃ§Ã£o
icial mente
ar s
Ġreco me
< /
D B
ĠP ad
ĠCas telo
Ġsol uÃ§Ã£o
ĠM y
Ġtrabalh adores
ĠRo b
Ġdec orre
Ġrelacion amento
Ġtrou xe
Ġcolo cado
v adas
is o
Ġt Ã©r
Ġped iu
Ġgra Ã§as
Ġrealiz adas
ĠC ity
ĠL et
Ġela bo
Ġestre l
Ġes til
9 0
Ġnum er
Ġfund ador
ĠA tÃ©
Ġsi mb
ĠConstant ino
Ġc Ã³digo
g Ã£os
Ġdura Ã§Ã£o
Ġpri ma
i ti
ĠAr qu
Ġdeix a
is p
Âł Âł
3 5
E C
u to
p ass
Ġju deus
Ġgre go
ĠVit Ã³ria
Ġdesco berta
x os
C as
for mou
Ġexec uÃ§Ã£o
ĠMa ch
ĠB on
Ãª nd
Ġ197 7
Ġviol Ãªncia
Ġv ant
ha t
Ġadqu ir
ĠC el
Ġval e
al to
Ġest rada
T ra
c ad
ÃŃs ticos
Ġ197 2
Ġpra ticamente
Ġencont rou
Ġaf ric
L o
ĠV I
Ġtra duz
ĠHist Ã³ria
Ġpromo ver
Ġestabele ceu
Ġfranc eses
Ġlon ge
ĠCor po
Ġv es
ĠP es
Ġc Ã¢
Ġf ar
Ġ194 5
Ġedif ÃŃcios
ĠcarÃ¡ ter
Ġed iÃ§Ãµes
va is
ĠS Ã©r
Ġres s
Ġdefin iÃ§Ã£o
in ados
Ġpesquis as
Ġdocu mentos
ĠW ashington
ĠFund aÃ§Ã£o
Ġjur ÃŃd
Ġpa pa
Ġme can
Ġpos iÃ§Ãµes
Ġvit Ã³rias
Ġse di
ĠS co
ter n
Ġrec onstru
ĠAt lÃ¢nt
Ã³ veis
Ġencont ro
Ġconc lus
Ġ196 7
ĠDist rito
Ġfaz e
Ġmud ar
Ġpra ta
Ġau mentar
Ġbene f
Ġmo tivo
ogra fia
Ġmu seu
ĠBla ck
Ġestadunid ense
ĠC ul
ĠL ogo
Ġdes cend
Ġad vers
Ġ19 20
Ġar ran
Ġg ere
it ados
ĠG om
il ha
Ġar tilh
Ġad ic
Ġpoder iam
Ġgol pe
Ġmed idas
un es
Ġposs ibil
P o
Ġass ina
Ġdispon ÃŃvel
Ġd ro
ĠR us
ĠD on
Ġnas cimento
ĠO f
ĠC ri
ĠnegÃ³ cios
inas tia
Ġcultura is
ent ou
Ġtem plo
Ġconsidera dos
Ġres idÃªncia
ĠFer reira
Ã´n icos
Ġaudi Ãªncia
Ġoc idental
Ġcolo caÃ§Ã£o
ĠAr tes
Ġmon u
Ġdesen ho
Ġu r
ĠJo a
ĠCol Ã©gio
ĠGuil herme
Ġqu into
Ġf erra
ĠW est
) :
Ġc ima
us a
ĠI nc
Ġcar re
Ġinvesti gaÃ§Ã£o
Ġmu Ã§ul
A R
me tros
ut ador
Ġter mina
Ġfen Ã´me
Ã©s ar
Ġap licaÃ§Ã£o
ĠbritÃ¢n ica
ÃŃf icos
Ġrod ada
ĠF ar
Ġsu pera
O S
Ġinv ad
t ador
Ġquad ro
Ġ ras
Ġcic l
S ua
ĠR ed
Ġcateg orias
Ġpermi tiu
Ġrepresent aÃ§Ã£o
Ġaz ul
Ġde ns
ĠAugus to
ar das
Ġfuncion Ã¡rios
M o
ĠE con
ÃŃ na
Ġesta Ã§Ãµes
Ġsim ilar
ĠAnton io
Ġfund ado
Ġatu ais
Ġor g
Ġco isa
Ġc em
ĠXV I
Ġgrav ado
Ġins cri
Ġqu es
k in
r Ã©s
ĠS t
ĠT ar
A n
Ġtrop ical
ĠF I
em os
Ġm ad
Ġdificul dades
ma no
Ġ rios
Ġusu Ã¡rios
Ġesp iri
ĠDe f
ĠS ara
re y
ĠCas tro
Ġaqu i
se x
now iki
ĠQu e
Ġarti gos
ĠFe vereiro
Ġde n
Ãª nt
Ġme dia
Ġd in
id ar
Ġplane j
Ġcaracter ÃŃstica
tor ia
Ġorganiz aÃ§Ãµes
Ġan ual
ÃŃ am
Ġmic ro
po p
ĠN et
ou se
ĠCh rist
Ã ¤
ĠReg iÃ£o
Ġexib ido
Ġinf Ã¢ncia
Ġproduz ida
Ã³n ia
ol f
ĠF lo
Ġsegu iu
ĠDe partamento
E mbora
Ġ197 1
Ã© ria
Ġocupa Ã§Ã£o
Ġroma no
ĠprÃ³p rias
ĠC ara
Ġpre m
Ġrevel ou
Ġpreoc upa
Ġreligios a
Ġs am
Ġten ham
ron ze
Ġele mento
ĠtrÃ¡ s
Ġtra tado
Ġprof und
Ġtempo radas
ch i
l ad
Ġjog ou
Ġpre fer
Ġescrav os
Ġter Ã¡
Ġi grejas
Ġautor idade
ĠCo nde
Ã©ri es
Ġ196 6
Ġorig inais
Ġconc elho
Ġinstru mentos
ĠmÃ© todos
Ġpode ndo
ĠA ir
ĠR Ã¡dio
estru tura
Ġextrema mente
iv is
Ġcele b
Ġro teiro
ĠAr te
Ġfa tores
ĠG er
Ġconc urso
ific ados
t te
Ġpaul ista
os e
ĠBan co
Ġven cer
Ġcur ta
Ġol hos
Ġsu j
Ġestu dou
nter tain
Ġeurope us
3 7
Ġesc ul
Ã¡s tica
Ġg Ã¡s
Ġto m
Ġ20 20
Ġconse cu
Ġpo nte
ĠA z
b us
ĠC O
Ġrece ntemente
an n
T e
Ġtrans form
Ġpre ju
Ġtex tos
G u
M e
ÃŃ zes
Ã³r ico
ĠmÃ¡ ximo
Ġ4 5
ĠprÃ© dio
in ga
Ġan im
ĠCam po
Ġdesta ca
ou l
Ġf ran
Ġdes tas
ĠGom es
ĠAd minist
ific ou
Ġating ir
Ãª x
Ġat mos
Ġpro pa
Ġestu dar
ĠSa Ãºde
B ill
ia go
I S
Ġsu por
Ġesti ma
4 8
Ġv on
ntertain ment
ĠÃģ ustria
ĠclÃ¡ss ico
ĠFil ho
Ġmed alha
Ġinten Ã§Ã£o
Ġb ater
ĠA ntes
Ġso vi
Ġconhec idas
w ell
Ġal titude
Ġmu ita
h al
ĠM ira
ĠTo dos
d este
ina to
Ġcrist Ã£os
Ġequipa mentos
Ġban co
tro n
m Ã¡tica
Ġinf ra
nt am
ĠS mith
Ġdescre veu
Ġdes tino
ch u
Ġprinc ÃŃpios
Ġconc ord
Ġan uncia
Ã³ tes
ĠNa tal
mina nte
Ġma tÃ©ria
g or
ĠNa Ã§Ãµes
c t
la nda
Ġ196 2
ou ro
Ġens a
Ġmes tre
ÃŃ de
i res
ĠB lo
Ġid io
Ġgu arda
Ġinte lec
Ġsat Ã©l
ĠBar b
Ġil ustra
Ġfund ou
ĠC ro
P ar
Ġmer c
it Ãª
Ġco raÃ§Ã£o
ted ral
cul as
Ġcomun idades
Ġterre no
ĠW a
ĠrÃ¡p ido
Ġper der
ros so
t Ã¢ncias
it ch
Ġ196 5
ustra lia
Ġc ro
Ġle tra
pend entes
Ġcorre nte
Ġverd adeira
Ġtem pest
Ġamea Ã§a
Ġcar ga
Ġant i
ĠLe a
ĠMar inha
Ġro do
Ġpro jec
Ġaju d
ĠC orre
Ġem erg
ĠIl ha
ti ram
Ġcomp ra
ĠPer nambu
Ġva ga
ĠEs pe
Ġex por
Ġdispu tou
ĠF am
Ġ $
Ġed itor
ĠScho ol
Ġf ins
ĠH all
Ġ15 0
ce p
el h
era r
i um
Ġtal vez
rÃ© cia
ĠSuper ior
ros o
R A
ĠOr gan
Ġvence dor
Ġoportun idade
ĠCar valho
ĠC ir
ĠB os
Ġmil hÃ£o
ĠCa rol
ĠC Ã©sar
Ã©l io
Se u
n ci
Ġcont udo
ĠeconÃ´m ico
Ãº m
Ġreun iÃ£o
Ġaju dou
ĠInter na
ĠR am
Ġassum ir
fica mente
4 7
Ġe volu
ĠS how
Ġfigu ras
ch as
te is
ĠA la
an y
Ġcri me
Ġta le
Ġef ici
ĠAnd rÃ©
Ġferro vi
Ġb rin
Ġb ru
Ġpra tic
Ġperce be
ĠB lu
Ġfa cto
t ela
Ġtri p
Ġenvi ou
Ġp ul
ter iores
ĠsÃŃmb olo
Ġmu da
Ġac um
ĠC ada
Ġis ol
Ġas segu
Ġpr Ãªmios
Ġqu inta
Ġme ia
tÃ¡ veis
Ġtor re
Ġcomple to
ĠSen ado
Ġpos sa
ĠMes mo
Ġcontinu ar
ĠI nde
Ġperte nce
U n
ĠLe e
ĠRodri gues
Ãªn ia
Ġap aix
Ġinc ent
Ã© cia
Ġimpa cto
Ġo ita
Ã§ u
ul t
Ġcomp utador
Ġma g
Ġimp erial
Ġ17 9
Ġres erva
ĠGon Ã§
ĠEs tas
ÃŃ ba
ma to
Ġso ci
n ibus
tan ha
nt ando
Ġfil ma
Ġcostu ma
Ãºs ica
Ġameric anos
Ġparticipa ntes
3 8
ĠK ar
ĠV el
Ġpermit indo
Ġmos trou
u ndo
Ġg osta
ĠCo me
B o
Ġm ito
Ġus adas
ic ina
ĠP ic
Ġdo ze
ĠB ul
ĠB ritÃ¢n
Ã¢ m
ĠCham pion
Ġb ens
ÃŃ ns
âĢ ľ
Ġre aÃ§Ã£o
ÃŃf icas
ĠRoma no
E l
y al
Ġn or
T P
5 5
Ġacomp anha
Ġmant Ã©m
ĠFer na
ĠÃ ´
Ġsol ic
Ġmil hares
B S
Ġ196 3
ter s
Ġanima l
Ġj or
ĠCo reia
Ġequ il
Ġg an
ru pÃ§Ã£o
h u
Ġag rÃŃ
d iÃ§Ãµes
ĠN u
3 6
ĠPol ÃŃcia
Ġfemin ino
Ġutiliz a
Ġcidad Ã£os
Ġ Âł
Ġj an
ifica Ã§Ãµes
Ġintegra ntes
B T
Ġman hÃ£
Ġconqu ist
Ġglo bal
ĠHos pital
ca nte
ĠD ias
Ġofere ce
le iro
de al
Ġ( )
Ġdispon ÃŃveis
nd ado
vo res
Ġaqu ele
Ġfal ar
Ġalgu Ã©m
ĠDe vido
Ġtes tes
ĠHo t
g rou
ĠOc idental
ĠD ie
h ns
I D
ĠFre der
Ġagric ultura
ĠPla y
ĠG ol
ĠAl i
gra fo
te nte
ĠFe deraÃ§Ã£o
Ġdou tr
Ġunivers idade
Ġju ntou
Ġord ens
Ġres tri
Ġregist ro
Ġinv Ã©s
rÃ¡f icos
Ġ rit
Ġv io
Ġjo ga
Ġcla ro
ĠSe bas
ÃŃns ula
ĠÃ³r gÃ£o
Ġutiliz ando
Ġes tr
ĠJ un
P A
Ġderro tado
ĠÃ¢ mb
Ġse res
ios a
ĠPh il
ĠAl me
Ġf ix
Ġre per
Ġna mo
Ġfro ta
ĠBras ÃŃlia
ĠL ar
ga is
e da
Ġasso ciaÃ§Ã£o
Ġestabelec er
t rem
ĠOri ente
Ġed itora
ilia res
lo go
w in
e k
Ġex cel
lÃ¢ ndia
Ġplata forma
ĠCam pos
Ġcar b
ont ade
Ã³ qu
Ġvir ia
Ġve ndeu
an ia
Ġtiv esse
un as
ica go
Ġse g
Ġi rÃ¡
ĠPar k
" :
iz onte
Ġdetermin ado
ĠR ad
Ġpat rim
ĠCl ar
Ġcar ros
Ġal fa
cul aÃ§Ã£o
Ġinterpre taÃ§Ã£o
Ġinim igos
ĠJack son
il y
g ico
z inho
ĠR og
Ġp ion
Ġfra g
3 3
Ġco re
Ġprinc esa
Ġser Ã£o
Ġd Ãº
ĠEs tre
Ġla go
Ã³ vel
Ġter ror
I C
se qu
mer os
Ġrealiz ados
p i
ĠG oi
Ġvive u
Ġjapon Ãªs
ĠPos teriormente
Ġmanu tenÃ§Ã£o
ĠE nc
ĠG rÃ©cia
ĠAl berto
ĠC ur
Ãª me
Ġconvid ado
Ġjor nais
as te
Ġpensa mento
oro este
Ġcolabo raÃ§Ã£o
Ġdefe nder
ĠZ a
ÃŃ tica
Ġcent ros
Ġver de
Ġgrav ou
ĠIr landa
H Ã¡
ivers Ã¡rio
Ġo x
Ġconhe ceu
ĠSou sa
Ġproduz iu
Ġdesenvol ve
Ġadap taÃ§Ã£o
ĠU ru
Ġins er
o f
ĠLat ina
ti po
iss ion
Ã©ri to
Ġmo radores
Ġexplo raÃ§Ã£o
Ġderro tou
Ġ196 1
nt aÃ§Ã£o
Ġforma ndo
Ġa tores
ĠAl l
Ġsu porte
Ġ195 8
Ġrus so
Ġdesco bre
Ġesfor Ã§os
Ġim igrantes
ĠSer vi
ĠMu itos
ĠDes envol
ei os
Ġpo ntu
Ġc Ã¡l
t n
ta ne
Ġ3 00
ti ons
ĠprÃ³x imos
Ġmar gem
Ġimp os
Ġale g
b ral
Ġser vir
Ġinter ro
Ã© ticas
nc es
cer do
t z
re r
Ġcon ec
L u
Ġingles a
d el
ĠK ing
Ġexiste ntes
Ġc ura
res a
Ġrespons Ã¡veis
Ġcompar til
in Ã¡ria
vis ion
Ġinstala Ã§Ã£o
S A
ce ano
Ġta bela
Ġverd adeiro
Ġreg ional
Ġempres Ã¡rio
ria n
Ġenvi ado
Ġpo eta
Ġcont ÃŃn
Ġmo ral
que te
Ġa gu
Ġprof unda
Ġhon ra
t ram
Ġresul tou
Ġsemelha ntes
an Ã§o
ĠJ im
Ġd it
Ġre duÃ§Ã£o
ĠBranc o
Ġcar tas
ĠFor Ã§a
Ġrece nte
Ġ3 6
Ġp Ã©s
Ġdis cos
ĠDu que
Ġbil hÃµes
Ġgra vaÃ§Ãµes
Ġun iverso
Ġpou cas
Ġtrabalha ndo
H o
ĠÃ´ nibus
Ġde ma
nta mento
is sa
ĠE ntÃ£o
Ġpatro c
Ġapo ia
Ġpro vas
el hos
Ġra p
Ã´n icas
ĠmÃºs icos
ĠS ar
cia m
Ġto car
f ield
Ġc ivis
Ġforma l
ĠCh ris
3 9
Ġconte ndo
m ul
ĠFil ipe
ĠcrÃŃ tico
Ġal deia
Ġs Ã©ries
ĠalcanÃ§ ar
ĠhistÃ³r ica
olog ias
ÃŃ Ã§a
Ġpara da
Ġconse quÃªncia
l iga
t he
3 4
Ġver melho
Ġapre nd
7 5
Ġvide ocl
ĠV a
Ġus ou
j us
Ġlim ite
Ġescri tos
Ġconsegu iram
Ġcons umo
Ġtra je
Ġsem if
Ġcontra tado
vi e
Ġ3 2
ĠGen eral
Ġgarant ir
at es
ĠF ri
ĠVer de
Ġinicia tiva
Ġev entu
Ġinteress es
ĠG reg
ra ram
Ġex tin
ĠPra Ã§a
Ġdo enÃ§as
Ġatu a
Ġfam osa
Ġhistori ador
d Ã£o
Ġhip Ã³tes
Ġv ontade
Ġsa b
Ġcor pos
Ġinf ec
re al
Ġco o
ila res
ĠAlgu mas
Ġcons elho
Ġescol he
ĠMa x
Ġexp ul
Ġtur no
i tu
min o
al idades
Ġaconte ce
ĠN esta
Ġca iu
Ġdec reto
ĠBro wn
ĠEstÃ¡ dio
f os
ĠE v
ĠÃ³r gÃ£os
Ġindivid ual
ĠS w
Ġcres ceu
Ġvio le
Ġpres erv
ja mento
ĠF al
ĠA venida
Ġqu ÃŃm
ĠLe Ã£o
m s
Ġquad rinhos
Ġsecre tÃ¡rio
d in
Ġal vo
Ġclass es
Ġele vado
ĠL y
T ambÃ©m
z as
Ġcres cente
Ġanal is
ĠMar y
Ġinter net
Ġelo gi
8 5
ĠBer lim
ĠAlme ida
Ġdis cipl
Ġmo mentos
ĠC ra
Ġmoder n
i nter
es ia
mb ia
Ġro mana
Ã¡s tico
Ġexem plos
Ġso ftware
Ġre nda
Ġpres idÃªncia
Ġpad rÃµes
cia r
Ġan iversÃ¡rio
Ġv ere
Ġpap Ã©is
Ġassass inato
Ġampla mente
menta res
Ġba tal
nt aram
Ġres erv
Ġf estival
Ġabri u
ĠPop ular
ĠRib eiro
p in
Ġre public
Ġprodu tores
ĠH ill
r ich
ĠSen hor
ca pa
Bill board
ĠÃ¢mb ito
S S
Ġve ndido
Ġestrang eiros
ĠJo hns
Ġo nda
Ġsegu indo
ĠfÃŃs ico
Ġigu almente
ĠM ou
ĠindÃŃg enas
atÃ³ rio
A inda
Ġcr Ã©d
ĠA v
Ġb ronze
Ġprofesso res
Ġlocaliz aÃ§Ã£o
Ġrecus ou
ventu de
ĠG ir
b ul
Ġpel e
Ã³s ito
ĠEsp ÃŃrito
ĠSu b
Ġdifere nÃ§as
Ġadvo gado
Ã¡ n
tif icaÃ§Ã£o
Ġna quela
Ġali mentos
Ġdemo cra
ran ge
Ġca bo
Ġa la
ade ia
Ġau t
ĠMar k
Ġinte ira
Ġpra zo
mo nd
ĠSu Ã©cia
i Ã¡rio
ÃŃn cias
Ġcons ag
Ġdec ide
Ġpermi tir
ĠJoa quim
t to
Ġpos terior
Ġforte mente
Ġsub me
ĠB us
Ġaber ta
ĠT orn
Ġexpl os
ĠE ntertainment
sh ip
A tualmente
Ġim pe
ig raÃ§Ã£o
Ġun iÃ£o
ĠÃ Ģ
Ġhum or
3 1
g adas
Ġutiliz ar
ÃŃs mo
Ġcont ras
tor ial
ĠE p
qu ad
Ġcha mar
Ġassu ntos
Ġme dic
pos iÃ§Ãµes
S ta
Ġresponsa bilidade
i mbra
Ġinfant il
Ġcandida tos
ĠRic ardo
Ġl ados
minist ro
I B
ĠHen ry
Ġexce Ã§Ã£o
tra l
Ġdenomin ado
Ġguitar ra
ĠC inema
Ġi le
Ġafirma ndo
indo ws
des se
ĠD al
ĠlanÃ§ ar
p to
B re
ĠL inha
Ġmostra r
ĠGr Ã£
ido res
Ġmo tivos
Ġreg ula
ĠTr Ãªs
aliz a
Ġrev istas
ĠMad onna
Ġfa ntas
Ġestr Ã©ia
Ġexer c
ĠOs car
Ġenfre ntar
ix Ã£o
Ġimp Ã©rio
Ġrelacion ados
Ġpart ÃŃ
Ġlim ites
Ġd ito
pre e
ĠFo ram
Ã§a mento
Ġque bra
ru m
ĠD esta
Ġabs or
Ġinstala Ã§Ãµes
ĠBo b
Ġle gal
no me
Ġconfl itos
M S
ĠindivÃŃdu o
qu ista
ent ro
Ġdisc urso
ur go
s em
Ġf Ã©
ĠHol ly
e p
Ġlev ado
o dos
ĠR osa
ant as
tre et
ĠSa int
ĠM ur
Ġma tar
ba ck
ĠSu as
Ġdom Ã©s
Ġpro xim
Ġpr ision
Ġpo bre
Ġfa ch
Ġama re
Ġatu ar
Ġ195 9
g s
Ġpo e
Ġent erra
Ġdese jo
ĠS ho
ĠvÃŃ timas
Ġpr Ã¡ticas
Ġexpa nd
ĠSa nd
Ġexped iÃ§Ã£o
Ã§ ados
Ġpopular idade
% .
9 9
Ġpra Ã§a
g el
ĠGa bri
Ġass ist
t Ãµes
Ġsign ificado
Ġital iana
t ta
Ã³ cia
lo me
Ġacres cent
Ġconf igu
Ġc red
19 5
Ġsi nto
Ġdu rou
Ġprotagon ista
Ġem baix
g rÃ¡fico
ĠXV II
Ġsob era
Ġ194 4
or ro
Ġgra ve
i us
ĠI ra
Ġposs ÃŃveis
Ġs inais
Ġfacil mente
ĠbritÃ¢n icos
r inho
Ġimpress ion
Ġna z
ba ixo
ĠB elo
ĠJu an
Ġtre inamento
Ġder ru
Ġreconhec ido
Ġpropor cion
Ġro ub
Ġesp ÃŃrito
f es
Ġperforma nce
Ġma ta
ĠCu ri
ĠB et
Ġlev aram
ĠR y
Ġcan ais
Ġconclus Ã£o
Ġvocal ista
Ġcom Ã©dia
id entes
Ġdescre ve
Ġfale ceu
Ġesta ndo
Ġapar iÃ§Ã£o
ĠL Ã¡
Ġperson alidade
Ġpers pec
Ġg ar
Ġin do
Ġra mo
T a
Ġapresent aÃ§Ãµes
ĠAl ves
ĠF ra
p an
Ġcal or
ĠC os
Ġassu nto
ĠPernambu co
Ġpromo Ã§Ã£o
Ġforne ce
ingu Ã©m
Ġaerona ve
ĠEng enh
ol as
4 4
Ġ Î
Ġflu xo
Ġdes igna
Ġautor ia
Ġda nos
mo re
va nte
ĠCh ile
Ġavi Ã£o
Ġmoder no
Ġre form
ĠPa tr
Ġtransfer Ãªncia
Ġperde ndo
Ġrepresenta ntes
Ġdocu mento
it Ã¡rios
Ġespanh ola
Ġme xic
b Ã¡
Ġto p
up as
b ine
Ġcontin ente
Ġa nda
Ġapos ent
ĠJ us
ĠÃºlti mas
f al
Ġestu dios
il d
Ġ ram
ola nd
Ġdenomin aÃ§Ã£o
Ġj ustiÃ§a
Ġju da
ti ve
ci fe
ĠMar co
Ġqu in
Ġopin iÃ£o
Ġreg ra
Ġconcent raÃ§Ã£o
ĠDo is
ĠP C
Ġbar ra
ti ba
Ġag ente
Ġh ar
Ġali ados
F a
Ġesfor Ã§o
Ġbair ros
onal d
le za
Ġ193 9
ĠCo imbra
Ġru ral
ĠA no
ĠBar cel
Ġdes crito
Ġin o
d ado
Ġv indo
Ġtra duÃ§Ã£o
h ados
Ġcas ar
p Ã©
Ġvo cais
Ġpro me
ĠJ an
Ġa mos
ĠT im
en ciado
Ġpint uras
ĠLou is
Ġal tas
ĠP oss
ec k
Ġob jec
Ġrevol ta
ib e
Ġb ola
it Ã©rio
t ti
Ġexclus ivamente
Ġ195 4
4 6
Ġs ta
g eral
ĠfÃ¡br ica
ĠfÃ¡ cil
Ġre volucion
Ġun if
ĠLa go
ĠSco tt
4 9
ĠAt l
Ġp Ã´
Ġba ix
ĠDesenvol vimento
3 2
F il
Ġurb ana
c Ã³p
Ġdire ta
Ġpromo vido
Ġcerim Ã´nia
Ġin Ã©d
Ġro upas
ĠM em
ĠE qu
ĠW o
Ġdiss ol
l ie
Ġta n
ra d
Ġ194 8
Ġt ribu
un Ã§Ã£o
ta mbÃ©m
ĠF M
Ġb rilha
a e
nde ram
ĠBe at
v y
Ġ +
is on
Ġpas so
ĠrÃ¡ pida
Ġcom issÃ£o
Ġha bilidades
Ġdetal hes
ĠS to
ian ismo
Ġengenh eiro
Ġcober tura
ri ga
Ġrece p
ĠÃ¡r vores
Ġart ÃŃstico
Ġtra ma
Ġreg ress
Ġaus Ãªncia
ĠW indows
Ġc ad
f ar
ĠSu ÃŃÃ§a
Ġprog ress
ceb ispo
ma nd
ĠCh icago
ur u
ra dor
Ġent idade
Ġedu ca
Ġexpl ica
Ġa ulas
Ġexib iÃ§Ã£o
Ġcompon entes
Ġsitu ado
B e
Ġf ei
en ce
Ġempre go
Ġcria ndo
Ġdu que
Ġinim igo
Ġv ag
ĠmÃº lti
Ġauto m
Ġrec ol
ĠS el
ĠE P
Ġno tÃ¡vel
Ġm inha
ĠM TV
ĠI dade
ĠCol le
Ã´ no
mb o
Ġcar d
Ġ194 1
bur g
Ġdescobri u
tiz aÃ§Ã£o
ĠlÃŃ qu
ĠÃŃnd ios
g am
Ġca Ã§a
Ġpart idos
ĠOlÃŃmp icos
u da
ĠP ass
Ġcha ve
Ġt ela
Ġdivid ido
Ġadol esc
i j
Ġfa ce
Ġcur to
Ġfic Ã§Ã£o
Ġri qu
ĠDo min
Ġalte raÃ§Ãµes
il le
ura l
Ġv an
or gan
ĠperÃŃ odos
En quanto
âĢ ĭ
Ġraz Ãµes
k h
Ġdenomin ada
ĠT y
Ġla bora
ĠmÃ¡qu ina
Ġdens idade
ĠÃ¡ra be
8 6
c tos
ĠLeg isla
Ġanima Ã§Ã£o
Ġinterpre tou
Ġge og
Ġtrans iÃ§Ã£o
Ġencont rada
Ġapro vaÃ§Ã£o
Ġreligios as
mo nt
ĠLe o
tropolita na
Ġmar cado
ite d
Ġtempest ade
Ġpe da
ist os
ell i
Ġtel eno
Ġa eroporto
ĠBe nto
Ġsitu ada
ĠUn idas
ĠInter net
re z
Ġre por
ĠS he
Ġm issÃµes
Ġp ista
Ġrec entes
tÃ¡ culo
ĠR om
trÃ³ leo
Ġa vis
ess Ãµes
lo w
t idas
ĠlanÃ§ ados
ĠOri ental
Ġmens agem
qu Ãªs
Ġen redo
Ġenfre ntou
Ġf usÃ£o
Ġexib ida
Ġimp oss
rÃ¡ tico
ĠelÃ©tr ica
Ġfuncion amento
Ġs ou
Ġag entes
Ġpa gar
Ġsu ce
Ġd inastia
Ġres tante
Ġusu Ã¡rio
Ġespa cial
era nte
Ġsa cerdo
Ġla tim
ĠmÃ¡ xima
Ġaerona ves
ĠLea gue
ĠÃ ĵ
le i
ĠS on
bal l
Ġlu tar
n al
Ġcham adas
Ġso ma
Ġcompeti Ã§Ãµes
w w
Ġlib era
Ġg iga
Ġ193 8
Ġpor tas
Ġ194 6
Ġcar naval
Ġsucess or
Ġcolo cou
Ġas tro
orta leza
Ġexperi Ãªncias
Ġc Ã´
Ġdispon ibil
ĠEs ses
Ġrevel a
ca nt
Ġan ex
Ġforma m
Ġrela tÃ³rio
Ġba ixas
Ġac el
Ġdescend entes
Ġpad re
Ġz onas
ĠP ref
Ġro te
Ġlo jas
Ġresta ntes
Ġfo co
to c
Ġal tos
rÃ¡f icas
ĠTra tado
Ġ194 3
Ġes que
Ġdef ens
Ġeventu almente
Ġmed ie
Ġinc Ãªnd
ĠMad rid
Ġnas cido
j ar
p ra
Ġter iam
ĠcomeÃ§ ar
Ġ194 7
p enh
Ġinaugu rado
Ġesta tu
ĠT w
ĠB ig
um es
k es
Ã©s ia
Ġcri mes
Ġest ran
Ġar co
Ġcr ista
ĠGa me
ÃŃb rio
ĠEs sas
8 9
u ri
Ġrec orre
Ġse pul
v ens
Ġcri t
Ġjapon esa
ĠPa c
G E
Ġsol u
Ġespa Ã§os
m m
Ġfo tos
Ġdestru iÃ§Ã£o
a nte
Ġre iv
Ġme u
ĠCe arÃ¡
ĠH uman
Ġ194 2
Ġintro duÃ§Ã£o
Ġpref eitura
me ras
Ġpre Ã§o
er tos
Ġmatem Ã¡tica
ĠT imes
Ġespiri tual
ha ndo
Ġtele f
Ġobje tivos
M as
nd on
J Ã¡
it ro
or ra
ĠI b
ĠnotÃŃ cias
Ġsem i
Ġproteg er
Ġapresent ando
Ġconquista r
ic es
ĠHor izonte
Ass im
Ġbil he
al Ã©m
iz ade
Ġrecebe ram
Ġinflu enci
umin ense
ĠEurope ia
Ãº p
Ġb ic
Ġtri nta
Ġamp lia
Ġhomena ge
Ġpodem os
ĠM ill
ĠJose ph
Ġ195 6
I N
Ġar ro
ĠMa to
Ġsegu ndos
= "
Ġcan cel
ĠSu pre
ĠS port
Ġrealiz a
Ġvant agem
Ġinver no
Ġapare l
Ġsen hor
Ġapaix on
) "
Ġe g
ĠHo mem
Ġguitar rista
Ġproce di
ĠF igu
ĠPr ÃŃncipe
Ġdro gas
ra mente
Ġnos sa
Ġsex ta
Ġcolo car
Ġasso ciado
Ġa ves
il i
Ġcump ri
Ġdes car
Ġcap ÃŃtulo
Ġev ang
ros s
Ġdispu tar
Ġpara das
Ġc Ã¢me
Ã³ so
quis iÃ§Ã£o
4 2
it ido
ĠMinist ro
ĠO n
J a
Ġt ido
Ġreligios os
ĠY a
ĠM Ãºsica
ĠD am
ĠVic ente
]] ,
7 6
Ġpopula Ã§Ãµes
Ġpar la
Ġpermane ce
Ġprov ÃŃncias
Ġapar Ãªncia
ĠW W
Ġcas ado
w ork
Ġcapa zes
Ġhor Ã¡rio
ĠL oc
R E
Ġex ist
Ġru mo
Ġpint or
Ġda ÃŃ
Ġ195 5
h en
Ġinter val
Ġenvol vendo
C l
Ġpos teriores
Ġrecebe ndo
ĠS in
Ġpu desse
ĠComp any
Ã ģ
ÃŃa co
ima r
is es
Ġle ve
Ġaspec to
ĠHolly wood
Ġbranc a
m ira
Ġcrist Ã£
z inha
ĠN essa
r ico
Ġposs ivelmente
Ġsu ic
Ġlocal idade
Ġf la
Ġindic ado
Ġ195 3
Ġrepresenta nte
Ġcon ex
Ġdist ingu
Ġde ram
Ġregist ros
ing er
bor ou
Ġdefin ido
Ġexecu tivo
4 1
f und
ĠLu is
Ġpot Ãªncia
Ġcaus ou
ĠF lores
Ġas c
Ġcente nas
pl ic
Ġdiv er
ĠBo w
americ anos
Ġne u
Ġeurope u
Ġfol has
I s
Ãª u
Ġ195 7
ĠS istema
Ġocorr ido
ĠI B
Ġtem os
ĠJo e
ĠB ou
ĠR en
Ġnecess Ã¡ria
ĠT i
Ġal tamente
nc er
co re
F L
c entes
Ġ :
Ġcompara Ã§Ã£o
ĠAl to
Ġmo tores
Ġmar gens
ĠMa ur
do este
ĠmÃºs ico
Ġconfir mou
Ġsal as
Ġinter venÃ§Ã£o
Ġele vada
Ġatrav ess
Ġcomb ust
Ġb en
Ġref u
Ġesp orte
C ons
d on
Ġpres s
ĠmÃ©d icos
ĠP elo
ĠCar l
Ġsu pri
Ġencontra das
ĠA te
Ġex trem
ĠD ina
ĠTer c
Ġpos icion
Ġnos so
Ġempa te
ĠOu tro
Ã´n ias
el s
Ġna Ã§Ã£o
Ġenvol ve
Ġse nador
Ġcan ad
Ġjul gamento
Ġd ÃŃ
A C
mer o
ĠJ ardim
7 8
f in
la Ã§Ã£o
Ġ4 00
Ġdire to
Algu ns
ĠMartin s
am pa
ur gia
nd Ã¡rio
Ġretorn ar
Ã§ Ãº
se is
Ġc adeia
Ġs il
c idas
Ġpare des
Ġbas es
Ġcul to
Ã©r ico
ĠclÃ¡ss ica
Ġdesen hos
Ġmoder nos
Ġorden ou
ĠAtlÃ¢nt ico
Ġpas se
ĠAnd re
Ġdesem bar
Ġadquiri u
Ã ł
Ġdes per
Ġrepresent ando
Ġer ro
ĠRe cife
ĠFo x
ĠR ol
Ġneg ros
qu i
ĠM Ã¡rio
Ġcolo ca
Ġrej ei
. )
Ġpertenc ente
g ador
Ġpri mo
ing os
Ã¢n icos
ĠinÃº meras
aliz ado
Ġvo taÃ§Ã£o
Ġfinanc eira
Ġentre v
an i
F or
6 5
s t
ĠChampion ship
Ġro ta
Ġdivid ida
Ġre voluÃ§Ã£o
Ġto mada
Ġ â
se t
c r
Ã³ tico
g Ãªnio
Ġencontra va
Ġadul tos
in k
Ġju iz
ment ado
Ġsuper iores
Ġp ena
Ġequival ente
Ġ 000
ĠC E
Ġmante ndo
Ġvol unt
Ġat ras
ĠâĢ ĭ
Ġapare ntemente
Ã¡ via
Ġecon om
c ons
Ġde vo
t id
ĠZ el
Ġn ordeste
ĠO este
4 3
Ġ193 4
Ġproduz idos
Ġdesta cam
Ġexce to
ĠF ortaleza
ĠS pe
Ġintit ulada
Ġsitu aÃ§Ãµes
Ġconhe ce
Ġorient aÃ§Ã£o
Ġmes mas
Ġide al
Ġres ga
ĠAm or
n ing
f eira
ĠU s
Ġdesem penh
Ġpesso ais
Ġinstru mento
Ġvideocl ipe
Ġin capa
ĠU N
be th
tria r
Ġar tif
H a
Ġflores ta
Ġgrav ar
ĠC ho
ĠJ ones
y r
Ġcri ados
re gado
Ġrec ru
_ _
M E
on ia
Ġengenh aria
ga nda
Ġ Ãªx
Ġdist in
Ġp iano
Ġt iro
Ã¢n io
Ġreti rada
un k
Ãºn ior
Ġa ti
Ġtenta tivas
Ġno tas
Ġ7 5
Ġus am
ita m
tific ado
Ġ193 6
Ġestabele cimento
f u
f im
d iv
ir ia
pos tos
ĠAl fre
Ġcor oa
ĠH it
Ġ3 8
je to
Ġvis ual
Ġreligios o
Ġ193 3
Ġde p
Ġpa in
Ġpovo ado
Ġc ere
Ġinteres sa
D E
ĠS Ã©
ĠP ont
ei r
Ġocorre m
7 7
Ġlar ga
u be
Ġ193 7
Ġfil Ã³so
Ġse gre
Ġt io
ĠS ur
Ġvia gens
Ġ195 2
ĠT en
ĠPrime iro
ĠColle ge
Ġinde pendentes
ĠgÃªn eros
Ġc ÃŃr
Ġtend Ãªncia
Ġl og
ĠEsc Ã³cia
Ġcl ientes
ĠpÃ¡g ina
ĠR ena
ĠG ram
ĠLo pes
Ã³lo gos
a vi
ĠD re
Ġcus tos
Ġpre vis
ĠN ordeste
ĠMas sa
Ġdivul gaÃ§Ã£o
ĠBra ga
Ġinflu Ãªncias
Ġvel ha
Ġultra pass
b lo
Ġbat eria
Ġrepresent ar
Ġalc anÃ§a
vel as
Ġinclu iu
Ġb ordo
Ġconc eitos
Ġmascul ino
Ġ mente
ĠJ ornal
Ġsam ba
ĠC orte
Ġindivid uais
Ġfach ada
% ,
Ã©l gica
9 5
ĠJ on
ge u
Ġt imes
mo bil
gu ra
se y
Ġocorre r
Ġpe trÃ³leo
cre d
Ġfas es
Ġof ens
ĠveÃŃ culo
Ġf ator
Ġgra tu
ĠB ÃŃbl
1 00
in ando
th ur
ec u
N U
ã ĥ
Ġt onel
el son
ĠH on
ĠCam pe
Ġsim ul
ĠhistÃ³r icos
Ġb on
Ġmelho rar
es cente
Ġcomp il
ĠSecre taria
t rias
Ġpro ven
Ġdificul dade
ĠW ill
Ġtent ando
M an
ĠS tan
ĠFI FA
Ġper i
Ġde partamento
il ton
ĠF ro
Ġpo esia
rÃ¡ tica
ĠFa ze
ĠMach ado
g no
ĠTec n
te ira
ĠA ires
ĠH al
Ġcont ar
ĠP s
ĠCa bo
ĠÃ¡r vore
Ġpaci entes
ĠNa tional
f ei
ĠsÃ³ l
ĠCul tural
aria mente
Ġrevel ado
ĠestratÃ© gia
Ġfaze nda
ĠUnivers al
Ġdirig iu
or g
w an
ĠBa ndeira
ĠM aran
ĠMar cos
ĠK u
ĠâĢĭ âĢĭ
ĠSou za
ĠP ia
Ġreno me
osa mente
Ġma triz
ĠsÃŃ tio
id i
tra do
v Ã©r
ĠAtl Ã©tico
ĠPÃºbl ico
bine te
a ta
z i
Ġutiliz adas
ro p
Ġcomp rome
Ġa tiva
re fa
M ais
ei rÃ£o
ĠZ e
P e
ment as
Ġital ianos
Ġre pu
ĠOu tras
Ġpres os
ĠN ick
Ġfe de
ĠI t
te ndo
Ġaborda gem
ĠJ r
Ġva z
Ġmu ral
Ã©m io
Ġbrasile iras
ĠAd am
ĠSebas ti
g Ãªn
min al
Ġ194 9
ĠPol Ã´nia
Ġlo ja
Ġrit mo
ĠS tra
Ġha bilidade
it adas
Ġconclu iu
Ġconc erto
A d
Ġaqu ela
Ġbi blioteca
ĠBarcel ona
Ġaval iaÃ§Ã£o
ipa is
Ġmedic ina
Ġra Ã§a
Ġl Ã³gica
ĠPro grama
Ġu ns
w al
Ġcol una
orr Ãªncia
Ġhistori adores
Ġapresent ada
Ġconstitu iÃ§Ã£o
m ir
Ġvo to
ĠRa inha
Ġl hes
Ġcu jos
mel h
Ġdetermin ar
Ġte orias
6 6
Ġal ianÃ§a
Ġca fÃ©
Ġcola bora
Ġse qu
bo x
Ġb is
dic al
ĠRe is
ĠMich el
Ġperman ente
Ġorient al
ĠT ru
Ġco b
ĠC re
Ã³ quia
Ġatmos fera
ĠE mp
t idÃ£o
Ġganha ndo
ĠAmeric an
ĠSo ci
Ġrom Ã¢nt
u de
Ġor questra
Ġcircu ns
Ġo per
Ġevid Ãªncias
ĠL an
ĠEd ward
ur y
Ġecon Ã³
Ãº ncia
Ġan Ãºn
Ġarqu ivos
Bre tanha
Ġse Ã§Ã£o
Ġconsci Ãªncia
ĠP esso
qu esa
ĠO ne
Ġdefin ida
Ġconstru iu
Ġfemin ina
Ġin se
Ġsucess os
Ġl ist
Ġenc ome
Ġv ie
in Ã¡rio
ind ica
Ġart ÃŃstica
Ġesta ria
ĠfenÃ´me no
ed as
ĠÃŃnd ice
ĠReg ional
ĠEv ang
O r
ĠM elo
G a
Ġa nc
ĠÃ¡ cido
Ġ19 18
ĠMarc elo
Ġan ar
ĠP ira
Ġex terna
Ġnecess idades
Ġpa gamento
Ġt ensÃ£o
ĠMe ndes
ĠFreder ico
es to
Ġl ine
Ġbo as
tiz ado
ĠdÃ©ci mo
Ġ193 2
Ġperte ncia
8 8
M el
Ġrecupera r
ĠGre en
Ġab re
i tir
ÃŃt ulos
Ġre el
Ġqu ÃŃmica
ĠB Ã©lgica
Ġh el
ĠIm perador
Ġblo co
va ndo
ĠA Ã©rea
ĠBat ista
Ġrelacion adas
at as
ĠS r
Ġ195 1
las h
ĠLu cas
A nt
on atos
Ġlig ado
Ġsepara Ã§Ã£o
Ġ3 3
Ġsol ar
ĠDec reto
Ã§Ãº car
[ [
qu il
Ġme do
0 5
Ġpre to
Ġc Ã¢mara
ĠÃį nd
Ġpri mi
pe u
Âł Ċ
u ela
Ġde bate
Ġexiste nte
' ,
Ġat os
ĠS ong
ĠWh ite
ĠN ight
Ãµ em
ĠDe pu
Ġr Ã©
ĠS Ã³
ĠU E
Ġbel eza
ik a
Ġespeci ficamente
nc h
Ġconsidera das
Ġdesco ber
ns ul
Ġviv em
Ġestabelec ido
Ġg l
ĠG et
P er
Ġass ume
Ġcar ne
Ġinv est
Ġpou ca
L A
Ġinv ent
Ġmont anhas
pres s
Ġdes ce
Ġcar gos
ĠG as
Ġapare cem
Ġdescobri r
ĠSant iago
Ġcolon ial
0 9
ĠGabri el
c ura
Ġpublic ados
Ġespanh Ã³is
Ġacei tou
Ġat letas
Ġconta va
Ġteste mun
da Ã§Ã£o
a p
ĠN orma
Ġcinema to
Ġdeclara Ã§Ã£o
ad y
ĠG rosso
Ġcient istas
Ġpri vada
Ġsur pree
Ġalterna tiva
ĠPaÃŃs es
ag os
C am
Ġnome ou
ĠImp erial
ĠFranc o
Ġ <
ĠV illa
ĠMed icina
ĠGu arda
ĠLu a
Ġsuced ido
di re
Ġconsider ou
Ġinicia is
Ġdiplo ma
g ias
ĠsatÃ©l ite
if ere
vi te
Ġrefor mas
ĠW at
Ġs orte
Ġ3 7
Ġi b
C ont
Ġocorre ram
Ġnego ciaÃ§Ãµes
Ġcamp anhas
at Ã³ria
d is
Ġfabr ica
Ã© lia
Ġques tion
Ġpro ba
ri ta
Ġfilma gens
Ġcom unic
Ġes tiv
ĠR ub
Ġau ton
Ġretor na
Ġinte ra
Ġn inguÃ©m
ita Ã§Ãµes
Ġunivers idades
ĠvÃŃde os
Ġfran quia
Ġ193 5
k ins
Ġmol Ã©c
Ġgre ga
Ġaplica Ã§Ãµes
ĠpÃ¡g inas
Ġpro emin
Ġeg ÃŃp
Ġata car
Ġra dio
Ġmo da
ĠmÃŃn imo
Ġac ha
ĠLu z
ung ria
j ado
ell y
ĠCom ics
Ä ģ
Ġlocaliz a
eix es
te za
ĠP into
Ġtre cho
Ġpro cu
Ġpass am
Ġrefer Ãªncias
Ex istem
Ã³ tica
ess as
% ),
Ġ19 10
ĠL Ãº
Ġles Ã£o
Ġre quer
te or
Ġassoci ados
i i
Ġperi Ã³d
Ġre ver
Ġliv res
Ġdetermin ada
Ġres tos
Ġasc ensÃ£o
Ġar gent
Ġfabr ic
or y
lo v
Ġpodia m
Ġele tro
Ġto ca
men go
Ãº ne
cia no
P E
ĠJohns on
re i
Ġl itoral
Ġdedic ado
Ġurb ano
Ã¢me tro
T C
ÃŃn ios
Ġequil ÃŃbrio
ĠH igh
Ġcl ÃŃn
ident ais
Ġfa ma
tra gem
mos sex
ĠBa nd
ĠR oss
Ġcole gas
ĠRa y
ĠR el
% )
Ġrecupera Ã§Ã£o
ĠPer u
Ġcompos tos
Ġtransforma Ã§Ã£o
ĠEx istem
Ġgover nos
ĠDef esa
are n
ĠG l
Ġcons ta
ca p
Ġperd ido
Ġser ve
Ġna Ã§Ãµes
Ġsat isf
Ġavi Ãµes
Ã¡ x
k ov
c Ã¡
Ġcompe t
ĠHo je
Ġon ze
Ġau mentou
Ġsinto mas
Ġclassific ou
ĠvÃŃ tima
ĠTo p
ĠUru guai
Ġpol icial
Ġjapon eses
Ġimped ir
Ġtempera turas
Ġestil os
Ġp ere
ĠS tone
Ġpare de
Ġdimens Ãµes
n ie
Ġse xto
Ġe nd
ĠF ran
ĠJer us
es p
A tÃ©
Ġap er
Ġposs am
Ġtonel adas
Ġpra ia
ĠP reto
nt ados
Ġfam iliar
me ira
Ġcer tos
Ġj ura
ĠS treet
gu eira
Ġ19 17
ĠPra ia
Ġdi Ã¡
Ġcam isa
Ġa ustralia
Ġfund os
Ġch Ã£o
Ġinspira Ã§Ã£o
P R
Ġand ar
ar n
Ġcul turas
ĠBar ra
ĠEspe cial
ĠTe xas
Ġdec is
ĠA gu
Ġra dia
Ġma ng
Ġof erta
A ntes
Ġsu deste
Ġreg ionais
tÃ¡ culos
ĠV ida
Ġintelig Ãªncia
ĠW ay
ĠprÃ³x imas
Ã©tr ica
ĠD en
Ãº rb
âĢ ¦
m Ã©
Ġcorrespo nde
Ġinterro mp
res sa
ĠT an
ĠEs taÃ§Ã£o
ĠConstantino pla
ĠC at
ĠPa z
ĠK im
ĠSÃŃ ria
ĠNor ue
Ġfa culdade
ĠP ier
Ġesta t
Ġn oroeste
Ġ rig
Ġinter no
Ġcontinu aram
ĠGoi Ã¡s
Ġderro tar
Ġdever iam
Ġda quela
ĠOu tra
ĠOrgan izaÃ§Ã£o
Ġcaus as
ĠmÃ¡qu inas
R io
ĠM un
Ġn erv
Ġcontrol ar
Ġfa vore
Ġdist ritos
ĠTa Ã§a
Ġcant ar
Ġcuid ados
Ġacredita va
Ġav anÃ§o
ĠAsso cia
i tiu
Ġtri bos
5 00
d ig
Ġel ite
ra tion
Ġcomer cia
ĠLet ras
Ġho mossex
ndes es
Ġcircu ito
Ġt ip
Ã³ t
Ġdescri Ã§Ã£o
N T
ĠV ia
Ġpropriet Ã¡rio
im p
E la
Ġre is
ga va
Ġfam iliares
ĠWilliam s
Ġperspec tiva
8 7
to rado
Ġmostra ndo
Ġer gu
ĠMÃ© dio
Ġser vido
gor it
Ġestad uais
Ġcont am
6 7
Ġinte iro
ĠTo da
ola nda
Ġass istÃªncia
ĠcÃ¢ ncer
ĠhipÃ³tes e
ĠEs pa
Ġfil has
Ġfes tas
Ġil um
ĠnegÃ³ cio
Ġdete c
Ġinflu encia
ĠInterna tional
Ġm ass
Ġvia ja
Ġaconte cimentos
Ġcomb inaÃ§Ã£o
ĠPo nte
Ġpra tica
co te
u f
Ġtra diÃ§Ãµes
Ġgra n
Ġneg ro
ce be
Ġh id
Ġco mentou
ĠBo a
Ġcir culaÃ§Ã£o
i rem
ĠNa pole
res tre
Ġquin ze
Ġre ta
Ġcorrespo nd
o nde
Ġorganiz ado
Ġrela tos
ĠcatÃ³l icos
ĠM Ã¡
Ġm orta
ĠF C
ca b
Ġreduz ir
Ġinte nsa
Ġforn ecer
ĠF ol
ĠCom itÃª
Ġfug ir
h y
Ġparticip aram
ĠP Ãºblica
Ġg Ã©n
ĠCol o
Ã¢ne os
u par
ĠCap itÃ£o
ĠPara ÃŃba
Ġcon fer
ĠPar Ã¡
ia nas
r ica
Ġconhec er
al i
Ġass inado
Ġvie ram
Ġlei tura
Ġam izade
ĠJerus alÃ©m
Ġdocument Ã¡rio
Ġsur ge
Ġmar ÃŃ
Ã¢n g
Ġfra se
Ġab ol
Ġcar reg
Ġpoder Ã¡
! "
s ter
Ġdiv isÃµes
Ġdifere ncia
Ġcons ervaÃ§Ã£o
ĠWil son
ra de
ĠG old
rou p
ĠP lan
ĠA Ã§o
Ġ1 20
Ġtur ismo
Ġa Ã©re
tu res
Ġar tic
Ġcol Ã´nia
ĠS Ã¡
0 8
Ġse melh
Ġnome adamente
ĠCar ta
ĠW ood
' t
vo ra
Ġconc re
ĠÃ© tn
Ġfund adores
Ġadministra tiva
ĠA eroporto
ider ou
col as
Ġpre cip
Ġ192 9
Ġdisc ussÃ£o
Ġp i
am o
ita mente
Ġsub sequ
Ġemp rÃ©s
v indo
Ġgu ard
O L
Ġextin Ã§Ã£o
Ġresol ver
po t
Ġteleno vela
ze ndo
Ġpol Ãªm
Ġprov Ã¡vel
nt ada
Ġsurg iram
Ġf lo
Ġcer tas
Ġtermin ando
e v
Ġpro n
Ġinclu ÃŃa
ĠS ala
Ġdec isÃµes
la ndo
Ġartilh aria
a tual
Ã¢ ns
Ġop Ã§Ã£o
Ġm ission
al ves
ĠT el
ĠHit ler
Ġc Ã©u
et y
Ġtermin ar
ĠS us
Ġinaugu rada
Ġorig ens
Ġresol uÃ§Ã£o
Ġde pressÃ£o
Ġmos tram
Ġv ing
Ġcon vite
Ã¢n icas
Ġequ aÃ§Ã£o
ĠPar lamento
ĠpartÃŃ culas
Ġ3 9
Ġestudios os
Ġass istente
ĠCon fe
Ġvol umes
ĠVar gas
ĠinÃº meros
6 8
ĠC in
Ġlar gura
Ġpontu aÃ§Ã£o
ĠDina marca
ĠSo ares
Ġ192 2
Ġcomu mente
Ġprojec to
0 7
Ġg ram
Ġconc ertos
Ã©rci tos
go ver
ÃŃ tico
ĠT orre
ĠFl uminense
ĠSÃ©r gio
ĠI ndia
/ /
Ġs Ã¡b
Ġresul tando
Ġpubl icaÃ§Ãµes
ĠPro du
es pera
k ing
lama Ã§Ã£o
Ġsubstitu ir
Ġgre gos
ĠCarol ina
ĠJ Ãºlio
ca Ã§Ãµes
ĠStu dios
Ġes go
Ġprog ram
Ġdefini tivamente
Ġab aste
Ġpe de
Ġinspira do
Ġin dia
id ge
Ġcompos iÃ§Ãµes
ti Ã§Ã£o
Ġapare cer
c te
Ġa tivo
Ġ19 14
ĠPara guai
est ina
Ġsal var
ĠD C
Ġca ixa
Ġsurg imento
Ġdesco berto
l ado
Ġl ou
ĠB l
Ġmo bil
Ġlu tas
Ġbranc os
ĠVas co
ĠA os
Ġcam inh
Ã´n ios
Ġe ixo
ĠB BC
Ġimp ro
Ġcam ada
ĠVic tor
ĠTa y
Ġescrito res
com un
Ġs ingles
Ġinclu ir
0 1
pec ta
Ġsignifica tiva
Ġtransfer ido
ĠcatÃ³ lica
Ġdoutr ina
ĠJ ord
ĠGra nd
Ġarquite to
Ġimpos tos
Ġv ias
Ġt ub
Ġqu is
Ġi tens
Ġhuman idade
sa nd
mer ica
m it
Ġaprov eita
ce ae
Ãªn cio
P C
Ġ19 19
Ġg elo
ĠGonÃ§ alves
ĠDa y
Ġrec urso
Ġta refa
Ġapo iar
ĠAdminist raÃ§Ã£o
Ġdema nda
ĠSant ana
Ġ5 5
Ġmorre r
Ġrodo vi
ven il
ĠSo b
ol i
Ġmo de
Ġalfa be
on i
Ġce do
ĠSebasti Ã£o
ÃŃ fer
ĠC y
Ġdeus es
esta mento
Ġlig ada
ib er
Ġ4 8
Ġvend idos
me iras
fa ce
ĠEstu dos
Ġnucle ar
Ġdesign ado
Ġmor tes
Ġpar cialmente
Ġman us
Ġci Ãªncias
Ġinaugu raÃ§Ã£o
Ġsug ere
Ġf atos
Ġconvid ados
Ġespec ÃŃfico
Su per
Ġ6 5
ĠMo vimento
Ġ4 9
Ġvisita ntes
Ġchin Ãªs
ĠT ime
Ġpol on
ĠBa ixos
le to
Ġclass ificado
Ġcaus ar
Ġpar tiu
Ġdescri ta
ĠPortugu Ãªs
ĠBÃŃbl ia
ĠPes quis
Ġw eb
Ġassina tura
Ġf ib
ĠBill board
Ġcompu tadores
ĠRe public
ĠNorue ga
ff s
oc Ãª
Ġ3 4
k en
Ġtra tar
ĠFaze nda
6 4
Ġs essÃ£o
Ġg os
ĠPro v
Ġeleito ral
Ġor Ã§amento
fa el
ĠJ Ãºnior
Ġa ÃŃ
Ġlib eral
Ġim pera
Ġou vi
Ġra ÃŃzes
ĠAng ola
Ġcorrespo ndente
lti ma
Ġt rem
Ġsu doeste
Ġfun cional
Ġenvol vidos
un e
Ġal gorit
ci pa
inc lu
ĠRo yal
land Ãªs
Ġdedic ada
ĠWal ter
Ġambient al
B ar
Ġconstitu ÃŃdo
ÃŃ qu
ec em
Ġha b
Ġa mar
ĠPar tic
Ġsitu a
Ġtele vis
Ġherd eiro
H e
ĠB R
tane amente
ĠCuri tiba
Ġpro postas
Ġher Ã³i
Ġmarca ndo
ĠM ano
Ġesti m
ĠRodri go
Ã©r icas
Ġh em
ĠSegu ranÃ§a
Ġcaval o
ĠJ as
Ġsa cri
Ġpros segu
Ġpor te
Ġcar deal
ri e
7 9
u tas
Ġtra zer
Ġocup ou
Ġexa tamente
Ġf eliz
s ar
f ogo
ke y
ĠSil v
Ġconsider Ã¡vel
u dio
ton o
Ġsim pl
ĠG io
Ġadm ira
for mas
Ġb anc
ĠM ike
do wn
ĠG usta
Ġfuncion a
Ġesca par
ĠNe gro
ĠWW E
ĠSte ph
Ġconfro nto
z y
ĠAnd rade
A M
ĠGu er
ou t
Ġescol her
Ġpo bres
anc he
0 3
Ġdese ja
Ġdefe ndeu
ĠRoc ha
Ġrebel des
ĠD ig
ĠCo le
Ġpol iciais
Ġre quis
Ġcomp re
Ġsur pres
Ġrepresent am
Ġal ma
ĠvÃŃ rus
Ġsubstitu indo
Ġvig or
me d
ei xe
Ġag Ãªncia
Ġin com
rest ling
Ġc Ã©
p so
ĠBu enos
eta no
Ġa Ã©rea
po ndo
ĠMÃ© dia
ĠZel Ã¢ndia
tÃ¡ ria
Ġped ras
Ġdan Ã§ar
ific adas
ĠTrabal h
Ġmar cas
ĠFerna ndes
Ġir reg
ĠB om
Ġestuda nte
qu eles
S tar
ĠJo han
ĠMar vel
Ġho tel
Ġsubstitu iÃ§Ã£o
Ġtra n
6 9
Ġdisposi tivos
Ġintegra Ã§Ã£o
l l
Ġreun iu
me di
Ġt ril
it ter
h r
re iros
ĠV II
Ġimp lica
par ta
ĠMa ta
Ġguer ras
ĠBi blioteca
Ġt eles
ĠH ay
Ġescri tÃ³rio
Ġvaria Ã§Ã£o
Ġp Ã³
Ġne uro
Ġlig ados
am i
ÃŃs ica
pres enta
re t
ĠG ro
ĠL este
Ġfas c
Ġsucess Ã£o
Ġbra Ã§o
Ġ19 12
Ġabri r
Ġassoci ada
Ġreconhec ida
ul l
pos tamente
Ġma t
Ġeurope ia
Ġfronte iras
Ġr ica
Ġingles es
Ġgera is
Ġ ia
ĠU FC
ĠT Ã©cn
Ġcarb ono
ĠH ouse
Ġf ura
id al
ĠmuÃ§ul manos
ĠPac ÃŃfico
ÃŃl ica
ĠDie go
ida Ã§Ã£o
Ġman ip
Ġcontro vÃ©r
Ġba nd
ĠUn ited
Ġcient ÃŃfico
ĠGover nador
Ã§ am
inte ndo
ĠZ ona
r Ã¢neo
ha mento
s ta
Ġespera nÃ§a
A P
Ġdesenvol vida
ĠConc eiÃ§Ã£o
ĠN elson
ad ia
D u
a mentos
Ġorganiz ada
Ġte at
ena mento
Ġ Ð
ĠS un
Ġprofesso ra
Ġprision eiros
Ġju ntar
ra y
ĠU rb
Ġexc lu
: //
Ġadic ionais
Ġeuro p
Ġdepe nde
Ġintegra r
or mes
Ġj ardas
ĠAr thur
Ġt era
Ġaprov ei
Ġhist or
Ġcer co
ĠTe resa
Ġgrav ada
ĠTur quia
Ġfam osos
ĠâĢ ĺ
Ġv ar
nde re
ĠP ouco
Ġele itos
H ist
Ġconstru ÃŃdos
Ġint u
ĠVen ez
ĠÃ³r bita
t ing
Ġl iderou
Ġan ualmente
unci ou
Ġre ci
Ġra d
ifica ndo
ĠO pera
ĠMaran hÃ£o
ĠEngenh aria
Ġol ÃŃmp
Ġcombust ÃŃvel
es co
ro co
Ġesqu ad
7 2
Ä ĩ
ĠestÃ¡ tua
ĠlanÃ§ aram
f eito
Ġque b
Ġacompanh ado
C E
Ġfor Ã§ado
âĢ ¢
ĠY u
ĠB ir
ĠBel Ã©m
ĠIra que
6 2
dos o
Ġven cendo
Ġf Ã³rmula
ĠB rit
Ġcu jas
ĠCa tedral
ĠtÃ©cn icos
Ġpesquis adores
ĠincÃªnd io
ĠX III
h ei
Ġdo no
âĢ Ķ
ĠFla mengo
h el
Ġf Ã³s
Ġcaus ando
Ġprop Ã³sito
Ġdem ol
Ġse lva
les i
Ġdef ici
Ġsimb ol
Ġferra mentas
tra Ã§Ã£o
Ġcomp rom
Ġconsidera r
J u
Ġsa i
id el
Ġva por
5 9
Ġp ior
Ġ193 1
ĠMos cou
Ġpossu ir
Ġriqu eza
ĠComun ista
Ġque nte
Ġt ou
... ]
ĠB r
ĠÃ¢ ng
Ġle nda
Ġdefin ir
ter ia
h adas
ĠH ungria
ic ano
Ġfoto graf
ĠUnivers ity
roso ft
Ġe man
5 8
Ã³n ica
t Ã©m
Ġp ico
Ġc ens
Ġacus ado
Ġdestru ir
Ġlate ral
Ġtri un
ÃŃ metros
iz aÃ§Ãµes
Ġent idades
Ġentra ram
Ġco inc
ĠIl has
ĠrÃ¡ dios
Ġre vis
ĠmÃ¡ r
Ġd ra
Ġpre Ã§os
bro u
Ġconju ntos
ĠC P
int hia
Ġdepe ndendo
Ġsta tus
Ġqu are
ĠVi ena
Ġali ment
Sta tion
ĠVi eira
Ġpermite m
Ġcap ÃŃtulos
Ã´ mbia
ĠH y
Ġdit adura
Ġfic am
ĠCan al
ĠDemoc ra
Ġauton omia
Ġtor ce
ĠE ns
ris e
Ġintegra nte
Ġocas iÃµes
Ġve nto
ĠnotÃŃ cia
Ġv entos
bo ok
Ġconf ianÃ§a
Ġl it
Ġc un
Ġban cos
Ã§ adas
Ġcont ando
Ġfra cas
en ciais
ĠVer Ã£o
Ġintens idade
ĠTay lor
ĠcomeÃ§ am
Ġconden ado
ĠF erra
Ġinicia r
Ġcaval aria
Ġente nder
M G
Ġcos tas
Ġacei tar
Ġve nder
Ġfinan cia
Ġpla car
Ġ192 6
Ġdez esse
Ġadvers Ã¡rio
Ġlim itada
Ġvari Ã¡veis
aliz ada
ĠMo der
ĠÃģ lva
an al
Ġatu ando
Ġca nta
Ġviz inhos
Ġmec Ã¢nica
Ġdisposi tivo
Ġexerc ÃŃcio
via m
Ġentre gue
Ġcen so
ĠU r
Ġens ina
ĠÃ¡ra bes
ĠServi Ã§o
inthia ns
Ã³s tico
Ġextre mo
Ġcomp rar
Ãªme as
if a
Ġacer vo
o dor
Ġad ia
Ġalc ance
Ġgra us
Ġvege taÃ§Ã£o
Ġprofund idade
Ġcul min
i en
Ġau menta
Ġ ...
Ġprodu Ã§Ãµes
Ġnome aÃ§Ã£o
t ismo
Ġmanifesta Ã§Ãµes
0 2
ĠS tor
ĠAu to
ado ras
Ġju d
g ress
ĠSte ve
ĠcomeÃ§a ndo
Ġviaj ou
Ġrefer ido
Ġinvesti mento
Ġrus sa
Ġp eixes
ĠFranc is
orn ada
Ġmunic ipais
Ġrecome nd
Ġo ndas
ĠI ma
Ġme tÃ¡
ent ura
Ġfu ga
Ġv inha
Ġel Ã©
0 6
ĠV in
ĠB rig
Ġch ance
Ġlegisla Ã§Ã£o
Ġma jor
Ġimpla ntaÃ§Ã£o
Ġinvesti mentos
Ġcolo cada
Ġind icaÃ§Ã£o
Ġp se
Ġcons elh
ju nto
ĠMo ra
ĠFranc esa
Ġcontribu iu
Ġca tal
O R
co ol
Ġmos teiro
Ġespec tadores
Ġpri or
Ã´m ico
rank ing
Ġpilo tos
t Ãº
I ns
Ġpo nta
ĠÃ³ leo
Ġrespo ndeu
ĠirmÃ£ s
Ġcel ular
du ra
ĠgÃ©n ero
Ġmar cada
Ġe fica
Ġdesta cou
ur t
T em
ĠD io
Ġno bres
ĠNew s
Ġarmaz en
Ġta xas
ĠH olanda
ĠM estre
Ġex istia
Ġdepu tados
Ġpatrim Ã´nio
ĠclÃ¡ss icos
Ġest radas
ĠPad re
Ġr ico
c esa
ĠS BT
de nte
Ġso fr
Ġcolo cados
ĠL ive
Ġc ron
Ġ192 8
Ġag ress
Ġpor tal
ula Ã§Ãµes
Ġp an
ĠE ric
ch al
ra tiva
ĠCol umb
b ara
Ġconfir ma
ket ing
9 8
Ġ192 4
ĠLiv ro
Ġima g
ĠN intendo
Ġdecl ÃŃnio
Ġex Ã©rcitos
ĠA merica
via Ã§Ã£o
pa ce
Ġpoe ma
ĠcÃ´ nsul
Ġ19 11
pa rou
ĠBarb osa
l hes
Ġtor cida
Ġpre en
ĠMu itas
Ġse tores
ĠS ag
Ġaprend iz
0 4
ĠCl Ã¡u
Ġident ificaÃ§Ã£o
m il
ĠSecre tÃ¡rio
ĠNapole Ã£o
ĠC unha
Ġnecess Ã¡rios
Ġa ge
ch es
Ġenvol vido
ĠMic rosoft
ĠIn icialmente
m Ã¡tico
Ġofere cer
ĠK ir
to d
." "
Ġingress ou
Ġi gno
Ġtrans formou
Ġacab aram
Ġno tÃ¡veis
ĠVer melho
Ġamp li
Ġdecid iram
ĠLe w
ĠÂł ĠÂł
er rou
Ġposi tiva
Ġconfir mado
Ġc adeira
Ġse ca
Ġb ur
Ġprepara Ã§Ã£o
Ġin a
in es
tr Ã´
Ġdig itais
Ġn ele
Ġcomp ro
tro ns
Ġde gra
Ã³ b
ĠO rig
Ġconf und
Ġentre ga
ip s
Ġpopula cional
Ġtransmit ido
Ġvir tude
ĠL as
Ġb ud
Ã¢ nd
ĠSe ndo
Ġa quisiÃ§Ã£o
Ġcar ioca
Ġtrip ulaÃ§Ã£o
ĠF ou
ĠA us
cion ado
Ġcontinu idade
Ġex pecta
Ġbase ados
Ġcomple tar
Ġse lo
Ġou vir
ĠK ong
Ġunivers al
Ġfinanc eiro
Ġmes a
ĠJe ff
Ġmecan ismo
Ġrepresent ado
A N
ĠT ony
ĠMa y
Ġp ira
in Ã©
ti za
ĠBern ardo
Ġgen e
Ġfica va
Ġsu postamente
Ġsu e
Ġpartic ulares
Ġam iga
Ġparticipa Ã§Ãµes
ĠCent er
titu des
forma Ã§Ã£o
20 11
Ġlic enÃ§a
Ġav entu
Ġate nder
ĠÃ¡ to
Ġpredo mina
Ġinici ado
Ġdedic ou
Ġinteira mente
da mente
ĠGu a
Ġreco mp
Ġat leta
i Ã¡
Ġessen cialmente
u x
es tes
Ġt ese
tiz ada
b is
Ġg ri
ĠEstra da
ĠsÃŃmb olos
ĠBos ton
ord es
ĠCi Ãªncia
Ġab ord
de ram
I V
ĠBo y
Ġdesigna Ã§Ã£o
ĠLeo pol
Ġsub ord
ÃŃn ia
Ġvaria Ã§Ãµes
7 1
Ġin form
Ġfaz iam
ĠEl iza
Ġpa ga
Ġs ig
Ġrelacion ado
Ġlidera da
5 4
ĠCo o
ĠK en
Ġanc estra
Ġac tual
ĠP T
ĠP io
ĠPoss ui
Ġz ero
Ġcont er
Ġpoder oso
Ġcol unas
Ġmo eda
Ġ192 7
Ġfrequ ent
ĠS y
P ri
f el
ĠPlay Station
Ġan ime
Ġdu bl
Ġar cebispo
Ġinterpre tar
Ġrece pÃ§Ã£o
Ġcol or
es uÃŃ
ĠPo de
Ġintelec tual
Ġmedie val
id ez
ĠP ala
Ġson ho
ĠAmaz onas
Ġperman ecer
Ġcorr idas
gu eiro
Ġcontribu iÃ§Ã£o
it tle
Ġat raÃ§Ã£o
ch ester
Ġeta pas
ĠAssocia tion
ita n
Ġro b
ce is
Ġquad ros
Ġconstitu ÃŃda
Ġros to
Ġfil os
Ġquad rados
dic e
Ġcomp rou
j ou
Ġex istir
Ġaf ro
ĠCor inthians
F o
Ġorganiz ar
Ġo to
ĠT eix
ĠEsp anh
Ġcoment Ã¡rios
Ġesp al
Ġpro vis
Ġinte raÃ§Ã£o
qu istÃ£o
Ġconstitu i
ĠL en
Ġalu no
8 3
Ġc Ã©re
ĠCol Ã´mbia
Ġliga Ã§Ãµes
orre u
Ġprecis o
v Ã©s
Ġt Ãºm
ĠFam ÃŃlia
T S
ĠC orn
Ġespor tes
Ġb rig
Ġis lÃ¢
Ġprote ÃŃnas
ĠhÃ¡ b
ĠindÃºs trias
Ġconstitu cional
se ca
Ġj ardim
m ados
Ġc ed
Ġc anh
Ġinici ada
6 3
p us
ĠA ta
Ġbatal has
Ġon line
c ade
ĠL ife
or th
ar os
Ã³r ica
Ġ" ",
Ġconc eb
Ġpreocupa Ã§Ã£o
lo ad
Ġna tivos
ĠL es
Ġcri adas
ndia is
Ġdimens Ã£o
Ġmont anha
Ġger ou
Ġcur va
Ġestabelec ida
Ð °
Ġcons pira
ĠU p
Ã³r cio
Ġamb ientes
ph y
ĠL ÃŃb
Ġcas tel
Ġsimul taneamente
Ġprop Ã´s
Ġata cante
ĠPa ula
Ġali mentaÃ§Ã£o
c Ã§Ãµes
Ġcont os
Ġopera cional
ĠA M
Ġmedia nte
iss em
Ġ6 4
7 4
Ġor iu
Ġbater ista
De vido
co nd
ĠCon ferÃªncia
Ġtri bunal
Ġconsidera ndo
Ġcrist ianismo
ÃŃ ne
Ġes to
Ġfu tura
ĠS i
Ġme lo
Ġidio ma
Ġ19 00
Ġpre via
Ġlat ino
6 1
Ġ4 2
8 4
Ġpo emas
ĠF Ã³rmula
Ġacus aÃ§Ãµes
in adas
Ġmed al
Ġintegra l
y on
ĠF inal
Ġox ig
c ulares
ic io
Ġle ite
Ġsubstitu ÃŃda
Ġcontras te
pl ica
Ġdivers idade
Ġen fer
Ġorgan ismos
Ġna val
Ġab range
u c
ga ro
Ġp Ãªn
Ġen fa
Ġcompanh ias
ĠDou tor
Mel hor
Ġj esuÃŃ
Ġdeix aram
a k
cion ar
Ġflores tas
u o
f Ã©u
Ġco d
Ġsim ilares
ĠFil ip
al dade
Ãº va
Ġcor rupÃ§Ã£o
Ġg ira
Ġderi va
Ġcele bra
Ġaux iliar
por tivo
ĠRa fael
ĠG ri
Ġtecn ologias
ĠHar ris
Ġnor mas
5 3
Ġav Ã´
Ġc ale
Ġexcel ente
Ġre visÃ£o
ĠJa co
Ġd ram
Ġpa tr
Ġinstal ado
ĠCampe Ãµes
Ġd Ã£o
Ġre man
Ãº ria
Ġrepro duz
Ġfre qÃ¼
b en
ĠÃ ļ
Ġinf in
ĠZ o
Co mp
ar y
ti mos
ĠÃº til
ĠBro ad
ĠF is
Ġoc upar
Ġfoto grafia
Ġco ra
ĠXI V
Ġident ificar
Ġvis ando
ĠEd itora
Ġtem por
Ġpar lamento
ĠCa x
Ġter restre
Ġencontra ram
up i
Ġescri tas
Ġlim itado
ĠMira nda
ĠX II
ide ram
Ġ192 3
Ġdirig ida
Ġa ustr
ĠB ad
ĠdÃ©ci ma
Ġchin esa
mira nte
Ġpara r
Ġconc essÃ£o
Ġcor onel
Ġconstru Ã§Ãµes
Ġespec ÃŃficos
Ġcompanh eiros
ĠEs porte
Ã³qu io
Ġp erante
Ġ192 5
ĠCu ba
d ie
gre gaÃ§Ã£o
Ġlidera do
ĠBranc a
ĠNic ola
Ġespecial istas
Ġabandon ou
T h
Ġclara mente
Ġ25 0
ĠAÃ§o res
g il
g ram
ĠS ir
ria no
Ġlate rais
Ġar ras
ĠU F
Ã³g ico
Ġce nto
Ġpre d
ĠsÃ© timo
ĠR ick
Ġexer ceu
ĠPic tures
Ġsolu Ã§Ãµes
pla res
Ġdirig ir
Ġnarra tiva
Ġco bre
Ġdisti ntas
Ġg r
G eral
ĠestÃº dios
Ġrefer ir
Ġcl iente
ĠWar ner
Ġcampe Ã£
Ġdescre ver
C ol
r ido
ĠYou ng
Ġcre nÃ§a
en ho
ĠLa w
Ġcol Ã©gio
ta gem
Ġex posiÃ§Ãµes
cam peÃ£o
Ġderru b
Ġfinal idade
Ġdispu tada
Ġm im
Ġb ons
en sa
Ġarre cad
Ġre ndeu
Ġinterval o
ĠFor Ã§as
at han
Ġar isto
ĠCh art
Ġurb an
ĠPo der
Ġsal va
Ġelim inado
Ġsu f
ĠTeix eira
S h
T E
ĠP it
Ġequipa mento
Ġcanad ense
ĠClar k
Ġme re
Ġale gando
ida e
ĠH ard
Ġseguido res
A c
Ġtorn am
ĠProf essor
Ġresp ira
ĠVenez uela
D A
Ġcomp or
Ġexpres sa
Ġcant ou
Ġproba bilidade
Ġg ado
Ġl idar
Ġescre vendo
Ġposi tivas
Ġpresid encial
ver y
Ã³l io
8 1
ĠO x
in aram
imar Ã£es
Ġinc idente
ĠCas tela
Ġabandon ar
ĠDou g
ĠFlo re
Ġenc a
Ġapro vado
Ġprotes tos
ĠHar ry
ĠBru no
ĠI tal
Ġser iado
Ġoc identais
Ġtorn ado
Ġer ros
ĠÃ³ pera
Ġ( ),
Ġconquista ndo
Ġpare cia
iz am
tic al
ĠK n
Ġba cia
Ġvis u
Ġs ar
Ã¡s io
or s
tu na
Ġobserv ou
Ġlon gas
Ne w
8 2
ĠV il
r ing
in n
Ġcam adas
Ġcon ferÃªncia
Ġconstante mente
5 6
Ġan f
Ġexem plares
Ġsofre r
Ġcaval os
Ġc ine
Ġcandida tura
Ġfabr icaÃ§Ã£o
Ġdisp ers
Ġnobre za
ĠJa c
Ġrig or
Ġv idas
Ġesti mada
Ġrele vo
Ġacer ca
Ġmorre ram
Ġind ustria
ĠPat rim
Ġmonar ca
Ġapel ido
ĠSupre mo
Ġconex Ã£o
Ġa ero
ĠAn na
9 7
Ġprodu tora
ĠÃªx ito
Ġcir urgia
Ġatribu ÃŃdo
Ġten ente
Ġpo nt
5 2
ĠmÃ©d ica
ador ia
ĠAmb os
Ġresp ei
Ġcom ida
Ġdeix ado
Ġcole ga
ĠVi et
B ras
Ġa titude
Ġe ndere
ĠF ord
Ġdi Ã¢metro
Ġesquer do
Ġple na
Ġorganiz ou
Ġpla ca
Ġch anc
Ġpla cas
ch t
Ġplata formas
A F
Ġdo minante
Ġmant ido
Ġpare ntes
Ġrela to
Ã¢ne as
Ġpropriet Ã¡rios
ĠBar ros
Ġreti rar
ĠPor tanto
Ġa na
ĠC Ã³digo
at Ã³rias
f as
ĠEx ecu
Ġescolhe u
9 2
T ube
ĠEurope u
Ġincent iv
Ġca ma
Ġpa res
Ġto cou
Ġconce pÃ§Ã£o
ĠPref eitura
Ġa jus
Ġsob rinho
ĠCar lo
ĠAmeric ana
Ġradia Ã§Ã£o
Ġtri bo
tr ic
ĠHist Ã³rico
Ġen fra
Ġinclu ÃŃdo
Ġinc ons
Ġpre v
ĠS ony
Ġpes ca
ĠCar doso
Ġsobreviv entes
Ġesque ma
ĠagrÃŃ cola
g g
ip ou
Ġtermin al
Ġm ister
Ġsignifica tivo
Ġ189 0
p ado
ĠV elho
Ġa Ã§o
Ġdez enas
Ġfortale za
Ġdia gn
Ġinterpre tado
ĠK enn
Ã± a
d s
Ġelogi ou
J os
ura Ã§Ã£o
ĠHen ri
Ġdec re
ĠB ase
g icos
Ġunif orme
U S
le m
ĠP Ã¡
Ã³s itos
Ġal ar
Ġ192 1
ĠK at
por tes
ĠFil osofia
Ġabri ga
ĠR ela
Ġju ventude
es tar
Ġcolon os
tu rb
ĠT oro
Ġ19 13
ĠY e
Ġchu va
Ġamp lo
ĠeconÃ´m icas
pres ent
Ġimp uls
ck s
Ġprog resso
Ġru rais
ĠpÃ´ de
Ġro chas
Ġbo ca
Ġtransforma r
es tas
Ġm Ã¡s
ĠG ene
Ġesp alh
Ġquare nta
ĠTerc eira
Ġsa bia
Ġapresent ava
f icaÃ§Ã£o
Ġcompanh eiro
z u
Ġo pon
b in
ncia is
Ġma nc
Ġex cess
igu idade
Ġescol ar
Ġo vos
ĠGar cia
Ġocup ado
Ġgo leiro
Ġress al
g r
p ou
ta res
Ġenvol vimento
Ġex ÃŃlio
ntes e
ĠestÃ¡ gio
ĠLiv re
ral mente
ĠGu imarÃ£es
A L
Ġp lu
ĠD er
Ġper fil
Ġexplic ar
e nde
o le
Ġofere ceu
Ġdo ura
Ġev idÃªncia
Ġmen ina
ĠO b
Ġw ith
Ġcolon izaÃ§Ã£o
ĠV III
Ġc Ã¡
Ġh oland
ĠcÃ©re bro
Ġ ;
tra ns
ĠRos e
Ġjog ando
ĠH ero
ĠCap ital
Ġmonu mento
Ġg ente
Ġimp ressÃ£o
Ġado tou
Ġid Ãªnt
r ÃŃvel
ĠP IB
Ġgaro ta
Ġad iÃ§Ã£o
Ġresol veu
ĠHel ena
5 1
Ġeletr Ã´nica
Ã³r gia
Ġcrist Ã£o
Ġrecus a
Ġrepu taÃ§Ã£o
Ġjan elas
Ġc ra
Ġobs ervaÃ§Ã£o
Ġtrabalha va
Ġcond ado
f ase
Ã©r pre
Ġterri torial
Ġdu plo
Ġra ramente
Ġpal est
Ġind ire
ĠT rin
Ġcrit Ã©rios
ĠS P
Ġper igo
Ġc il
te ntes
ĠD NA
Ġauto ma
ĠProv ÃŃncia
ĠD ol
ĠAt la
tra vÃ©s
ĠMar io
Ġre nas
Ġespecial izada
ver sa
Ġpaci ente
Ġb ÃŃbl
Ġsent imentos
Ġvari Ã¡vel
Ġvend idas
Ġresul ta
Ġacredita m
Ġcul tiv
Ġenc errou
Ġdes fil
Ġver melha
ĠInf ant
ĠCon f
Ġre pÃºblica
ig i
em o
Ġpubl ica
Ġoportun idades
Ġinscri Ã§Ã£o
Ġmostra do
c m
ĠHu go
ĠB ell
Ġtec ido
ess es
Ġmod alidade
Ġcor tes
ma nte
Ġmo ra
Ġcri ador
Ġhar mon
ck er
Ġin ov
ĠF red
v ard
ĠCap ela
Ġ19 15
d it
Ã³r ida
7 3
Ġeleito res
Ġhi per
Ġforma ram
til idade
Ġviv os
ĠPen ÃŃnsula
Ġque im
Ġespera do
h on
ide o
Ġblo cos
ĠC B
ol fo
ĠM us
ĠGio van
Ġca ir
ĠK id
Ã¡ gua
ĠTorn eio
ĠAlexand er
9 6
Ġac ol
rÃ¡ s
Ġrepro duÃ§Ã£o
ad i
ĠV is
Ġespec ÃŃfica
g adores
Ġ[ ...]
j Ã¡
ara s
ĠB all
Ġconsegu indo
Ġentrev istas
Ġprimeira mente
ĠL ong
Ġperc urso
Ġbrilha nte
Ġgra ves
M DB
us ias
inh eiros
ĠJun ior
ys tem
ĠTem po
ĠanÃºn cio
teg oria
Ġgradu aÃ§Ã£o
Ġac ampa
qu ita
ĠAl ice
Ġregist rou
Ġhos ped
Ġtale ntos
ĠG ran
Ġ6 00
Ġl er
ĠM i
res se
ĠJa ime
ive u
Ġescre ve
Ġ hec
Ġinter medi
h l
pe z
ĠCruz eiro
ĠBern ard
Ġconstru ÃŃdas
ĠPro jeto
te c
ĠF ic
ĠE las
og le
ĠMa cau
Ġne gra
ĠYou Tube
M I
ÃŃa ca
Ġmens agens
Ã§ amb
E T
Ġde vol
nd s
re o
Ġs ons
P r
Ġcons ideram
Ġde dica
du aÃ§Ã£o
Ġb anh
ĠW eb
Ġinclu ÃŃda
Ġnumer osos
A nd
la gem
ip Ã©
Ġfal ha
Ġcampe onatos
Ġre bo
ĠNe g
Ġpri vado
Ġinfant aria
ĠA BC
Ġf lex
Ġmo nte
Ġhi po
Ġprima vera
ĠF antas
Ġadic ional
Ġobserv ar
Ġcompre ensÃ£o
me ntes
ĠUn iverso
Ġtre ze
ĠFri ed
b on
t Ãª
s ki
ib a
Ġe uros
Ġquar tas
es tro
Ġru ÃŃnas
Ġmand ou
Ġtale nto
R J
Ġre m
c Ã©
ÃŃ via
ic on
M aria
ĠB rian
Ġsa ud
ĠPe tro
tem po
Ġpres ervaÃ§Ã£o
er on
tiva is
Ġlabora tÃ³rio
ment ada
tur no
Ġemisso ras
ĠMano el
Ġg rÃ¡fico
Ġescolh ida
Ġprevis to
ĠBar Ã£o
ĠM ess
5 7
ic lo
Ġha bi
Ġcap ita
pol is
Ġa que
Ġexecu tado
Ġs essÃµes
Ġpos tos
Ġvis itou
Ġdesaf io
fe go
ĠAp enas
che fe
c ass
Ġessen cial
pp ing
R O
Ġ ranking
Ġlig eira
Ġapro pri
Ġviv ia
Ġimposs ÃŃvel
Ġv istos
Ġmar car
Ġh ou
Ġcin emas
Ġpreju dic
Ġdistin Ã§Ã£o
ĠTe am
S al
Ġdemo c
pa ro
Ġba ixos
Ġenvol veu
i edade
Ã¼ r
rig ht
Ġa x
ou ros
Ġma pa
do m
Ġespe tÃ¡culo
ÃŃss imo
Ġsent iu
Ġpens ar
Ġsuic ÃŃdio
Ġnome ada
ĠcrÃ©d ito
Ġmen ino
el la
ĠS um
Ġdeslo ca
ĠNet work
Ġgera r
ĠR amos
Ġol ho
Ġrelacion ada
ec ida
ĠF on
id ado
ĠS om
ĠO peraÃ§Ã£o
essa mento
C I
Ġp ater
ĠH ong
ĠSam uel
Ġrus sos
aliz ar
ĠtÃ©r mino
ÃŃci es
Ġreun iÃµes
Ġparc eiro
ĠPesso a
Ġblo que
ĠcÃŃr culo
Ġperde ram
Ãº jo
Ġmar inha
ĠLew is
ĠEliza beth
ĠO bs
Ġchu vas
Ġrival idade
ĠN BA
ĠO pen
Ġav entura
ĠAs h
ĠSim on
Ġdes as
Ġreti rou
ĠFl Ã³rida
Ã©c ulo
Ã¡s ia
ĠRad io
Ġc itado
Ġha ja
ĠfÃŃs icas
su ced
Ġpreoc up
Ġcru za
Ġcem itÃ©rio
Ġg osto
Ġan el
Ġz o
ref as
ĠGram my
ĠM ana
Ġfru to
Ġdecorre r
Ġn ela
ĠCor oa
ĠcÃ¢me ra
Ġa ce
Ġpropa ganda
Ġutiliz am
Ġpart id
Ġmo edas
ĠK an
Ã³x ido
ĠV ice
Ġmed ica
ĠB is
ĠCamp inas
m icos
ten imento
ĠFl or
Ġ19 16
Ġtec idos
Ġfunda mentais
ĠY our
ga z
Ġra io
Ġespec ÃŃficas
ĠMunic ÃŃpio
Ġsemif inal
t ista
Ġcorre ntes
ĠdÃº vida
ĠP el
Ġintu ito
ĠcÃ©l ula
Ġmonar quia
t ter
Ġaf il
Ġpublic adas
Ġpa tente
cional mente
Ġaconte cer
Ġpais agem
ĠF Ã¡
ve re
Ġ190 8
s al
ta fogo
ĠA bra
Ġ5 2
Ġpu d
Ġro und
P G
ĠalcanÃ§a ndo
j ada
Ġm ons
Ġplane jamento
Ġtra se
20 10
. <
Ġcons tantes
Ġac tividade
se a
Ġre ba
Ġdeter mina
Ġprec isÃ£o
Ġintroduz ido
ma c
ve ja
ru d
ĠCom Ã©rcio
Ġprocura r
ĠGu ar
ĠDu arte
200 9
Ġviv iam
Ġadol escente
ib ol
ĠAra Ãºjo
ĠAte nas
ĠC ria
Ġor todo
Ġdesenvol vidos
ik o
Ã©l ica
Ġab or
Ġfinanc eiros
Ġocorr Ãªncia
Ġtraje tÃ³ria
ist Ã©rio
Ġseg mento
ĠCa rey
Ġgradu almente
Ġdiscipl ina
mo to
ve do
Ġtorn aria
Ġdispu tado
ĠL i
Ġargent ino
Ġsu p
Ġmer cados
tre am
Ġtransfer iu
Ġbomb ard
ĠTrabal ho
Ġconsequ Ãªncias
d am
ĠMa te
cred ita
Ġpr Ã³
ba ma
Ġpassa va
ĠD iocese
ar l
Ġcumpri r
Ġma m
la go
ĠBa y
ĠK elly
Ġsuger iu
E d
Ġmor tal
Ġm Ã³d
Ġobte ndo
ĠTor res
Ġexplos Ã£o
ĠB ut
ĠL im
Ġorgan ismo
Ġcomb ater
Ġpersegu iÃ§Ã£o
ĠAl bert
Ġ4 4
Ġdef ine
Ġas as
Ġrep Ã³r
Ġfec hado
ĠAl ta
ĠS ic
E ra
Ġal tar
Ġtr ic
ĠlÃŃqu ido
c adores
ĠDom ingos
200 8
Ġob tido
Ġp ne
Ġg in
Ġesta cion
alh Ã£es
Ġsurpres a
Ġta refas
Ġpla tina
ĠSo bre
Ġint Ã©rpre
to p
Ġproje tado
ĠTecn ologia
Ġcant ando
Ġilum inaÃ§Ã£o
Ġde pend
Ġas i
ĠFel ipe
Ġsegu iram
Ġexecu tar
me tragem
Ġali en
Ġposi tivo
Ġargu mento
ĠM Ã¡r
Ġl Ã¢
re la
Ġne o
Ġaval ia
ÃŃfer os
Ġs ing
Ġf Ã©r
ĠI d
ĠLiber tadores
ĠMa ia
ĠFo ot
le tos
ĠFre nte
ĠV at
Ġexti nta
ĠRob in
9 4
n Ã¡rio
Ġnecess Ã¡rias
la re
iam i
Ġindustria is
ĠDa vis
Ġrote ir
Ġsent imento
Ã Ģ
ĠMo re
l ico
Ġapresent ador
Ġcompa t
re chal
in ental
Ġt ens
Ġconsequ entemente
Ġobrig ado
Ġrestaura Ã§Ã£o
it Ã¡rias
ren se
Ġfinancia mento
Ġra ios
Ã¢ns ito
qu enta
Ġlu tou
Ġsu ple
ĠTo das
Ġtorce dores
ĠG ib
Ġmor f
ã Ĥ
Ġcontempor Ã¢nea
ĠIr Ã£
ĠG od
ĠW all
ĠB ispo
Ġent usias
Ġtor res
cipa Ã§Ã£o
ĠVol ta
Ġestatu to
Ġre ag
Ġda tas
Ġrelig iÃµes
Ġeste ja
Ġeletr Ã´nicos
Ġhe ranÃ§a
te nt
Ġh ard
ie ta
Ġestrang eiro
ĠA nos
Ġja mais
Ġcer tificado
ĠPl ano
et te
Ġpare cem
Ġdiz ia
ĠGe Ã³rgia
Ġdista nte
Ġma no
fica Ã§Ãµes
Ġaument ando
D S
Ġne to
Ġfal ecido
ad er
gu arda
Ġteste m
ĠR ou
Ġ4 1
Ġcale ndÃ¡rio
Ġpor Ã§Ã£o
ard ins
or no
Ġl as
Ġdeco raÃ§Ã£o
Ġd ita
Ġag ro
Ġbas icamente
G e
Ġassass inado
V er
Ġma tou
Ġcola pso
Ġliter Ã¡ria
ĠM ol
Ġsubstitu iu
Ġinfra estrutura
ĠMe tal
ĠMc C
ĠA pare
Ġam ist
l ar
ĠÃºn icos
ĠMag alhÃ£es
ĠDepu tados
m icas
era do
Ġforma lmente
Ġa der
ĠagrÃŃ colas
Ġemerg Ãªncia
ĠR ita
la ck
Ġtor tura
Ġregist rada
ĠEns ino
Ġp ura
Ġpro to
Ġf i
Ġj ornada
Ġefe tu
Ġirreg ular
Ġdi Ã¡rio
Ġcur tas
Ġquant idades
ĠCa tal
Ġvo os
Ġcheg am
Ġcal cul
ĠVir g
ĠJ ud
g na
ĠM adeira
Ġargu ment
Ġa tivos
Ġmencion ado
Ġins u
Ġb u
me iro
Ġin ex
om Ã©
ĠPal meiras
ol or
Ġmon o
Ġconhe cimentos
ĠD or
ĠMe tropolitana
Ġju nta
Ġsecund Ã¡rio
ĠBo tafogo
Ġchin eses
Ġinterpre ta
z zo
Ġo ceano
Ġmar co
se us
Ġcomple x
Ġnos sos
Ġreper tÃ³rio
Ġle mbra
Ġenvia r
Ġgere ncia
ĠtrÃ¡ fego
Ġbenef ÃŃcios
cr Ã¢nia
one y
ren Ã§o
ĠFil m
Ġvaria m
Ġment al
ĠfilÃ³so fo
Ġfracas so
ĠInd ustrial
Ġcoo peraÃ§Ã£o
ĠcÃ© le
Ġcostu mes
Ġas ce
Ġaux ÃŃlio
Ġimple mentaÃ§Ã£o
us to
Ġsa que
ĠFa ce
Ġser vindo
No va
ĠGo od
Ġdesce ndente
Ġenvi ados
Ġfede rais
m pa
ĠDire tor
Ġcom bo
Ġcons enso
Ġconver sa
Ġating indo
ĠGal es
Ġdestin ado
Ġconqu istas
Ġcontribu iÃ§Ãµes
Ġele ita
Ġcor das
Ġmen inas
rest res
f i
Ġf Ãªmeas
Ġor na
Ġcol Ã´nias
z an
ĠF orte
Ġme teor
Ġexa me
Ġe va
ĠN ar
Ġga binete
ĠindÃŃg ena
Ġde bat
ĠPra ta
Ġv idro
Ġesc udo
Ġocup ada
Ġregular mente
Ġec lesi
ĠO to
ĠIs land
Ġcomb ates
Ġmer g
ĠPara na
Ġpen ÃŃnsula
Ġaproxima Ã§Ã£o
C an
l io
ĠB elas
no mia
Ġproxim idades
Ġperm issÃ£o
Ġf el
Ġquais quer
Ġprete ndia
Ġho mo
Ġsent ir
Ġcomple tou
ĠLegisla tiva
Ġda va
Ġme mor
Ġimpuls ion
Ġcrista l
Ġf rus
Ġser ra
Ġpri va
ĠX avi
ĠNe to
Ġmedal has
on ha
ĠMil Ã£o
Ġdedic ar
Ġbis pos
Ġre baix
Ġ4 3
Ġlon gos
Ġca Ã§
Ġtra zendo
Ġsignifica tivamente
Ġso mb
Ġra pa
Ġ8 00
ĠaÃ©re o
ÃŃ dios
ĠEle itoral
Ġtent aram
200 6
ĠVen eza
Ġto cando
or ial
v ana
Ġse man
Ġhec tares
Ġeurop eias
cri Ã§Ã£o
ĠAl b
Ġdiz em
ĠcatÃ³l ico
Ã¡ rb
ĠL in
ĠMa ior
Ġhuman as
Ã³ ticos
ell er
Ġadolesc entes
Ġo ce
Ã³r icos
Ġconvo cado
a f
Ġf rio
Ġanunci ada
Ġating ido
Ġacab ar
ĠF ez
... )
Ġalte raÃ§Ã£o
ĠG ard
Jo Ã£o
Ġdiminu iÃ§Ã£o
Ġso zinho
ra mento
Ġin formou
Ġexer cer
ĠDre am
Ġesp ada
ĠA ze
Ġapro vada
Ġdemocra cia
2 000
Fil ho
or ou
Ġhos p
us h
ĠZ Ã©
Ġroma nces
ĠpÃªn al
ana to
n ar
s el
ĠJ am
cri tos
Ġprim Ã¡ria
Ġdescober tas
ĠCa etano
Ġinflu enciado
ĠCo ndado
ag ar
Ġprof issÃ£o
Ġproduz idas
Ġconver sÃ£o
y u
Ġarqu ivo
Ġreun ir
Ġ1 000
ĠO ceano
Ġcont as
Ġapre nder
9 1
if f
ĠU crÃ¢nia
Ġrepresent ou
Ġestiv esse
ĠR an
Ġprovo cou
Ġesc ultura
Ġdiv erg
Ġped ir
Ġorganiz a
aliz aÃ§Ãµes
Ġbra Ã§os
ĠChrist ian
Ġrela tiva
Ġmud aram
Ġre organ
ter min
iste ntes
Ġcomple xos
Ġp iso
Ġvis ÃŃvel
Ġreserv as
Ġconfigu raÃ§Ã£o
ĠC ass
Ġcontinu am
e to
ch el
Ġtradic ionalmente
Ġeletr Ã´nico
Ġb ara
me mb
Ġb er
Ġen z
Ġsi nt
Ġpertenc entes
ĠCl ara
Ġpobre za
ĠT Ã³quio
cebe u
le ibol
Ġgera Ã§Ãµes
Ġhor iz
Ġis rael
Ġdeclara do
Ġfaz Ãª
c lo
ios os
c ta
ĠB ag
ĠRog er
ĠD oc
is ti
9 3
Ġpergu nta
Ġvag as
land esa
fon ia
ra tivo
Ġm Ã³veis
Ġsepara dos
Ġem it
Ġcam inhos
Ġperson alidades
Ġlo como
Ġpud essem
Ġc Ã£es
Ġdefe nde
ter os
anÃ§ ado
ĠCa mar
k an
ĠCo elho
ĠMar te
uss Ãµes
ĠMar ques
Ġop Ã§Ãµes
ur re
Ġopin iÃµes
Ġrefu gi
ĠGo ogle
Ġnumer osas
ĠUE FA
ĠConfe deraÃ§Ã£o
Ġdis posiÃ§Ã£o
Ġama nte
ĠVir gem
ti os
ru pa
Jos Ã©
ĠD y
ĠMo reira
Ġdivid idos
Ã¡s ticas
Ġ Ãªn
nt al
da y
Ġtra tados
Ã© reas
tu m
ĠD E
Ġal o
Ġcl im
Ġapo iou
enso res
Ġline ar
Ġrepresent ada
Ġfes tivais
ĠGir l
Ġcompos itores
Ġcomp ens
ĠCh u
ÃŃg ios
Ġextra ord
ĠBo t
Ġbar co
Ġsuj eito
ĠRo do
Ġpress ion
Ġpro fe
D on
Ġ idos
Ġconstitu em
P res
j es
Ġv inho
Ġb or
in er
po ol
ĠD J
Ġlon gi
Ġsoci edades
Ġcom pare
ran ha
Ġelabo raÃ§Ã£o
ĠM is
tra to
ol ar
ĠPo vo
Ġinterpre tada
Ġterre nos
Ġparla mentar
l Ã©
Ġsi nte
Ġpermane cendo
ĠDes sa
? "
ĠmolÃ©c ulas
Es sa
Ð ¾
' .
ĠI X
Ġtip icamente
ĠSam pa
Ġram os
Ġmang Ã¡
c ran
ĠD entre
ĠMar t
Ġbizant ino
Ġimedia to
p her
Ġlocaliz ados
iter rÃ¢neo
Ġdes pre
Ġdesta cando
Ġpre mi
ĠI S
ĠAnd erson
200 7
Ġcircuns tÃ¢ncias
I T
g ir
ul ados
Ġef ec
ĠXavi er
il has
per ou
Ġbus car
orre g
Ġga Ãº
Ġex il
Ġsex uais
Ġes po
ĠF inalmente
ĠcontÃŃn ua
h ony
ĠmÃ©d ias
Ġma chos
ĠR uss
Ġpa ixÃ£o
Ġaprov ou
du Ã§Ãµes
Ġgiga ntes
ĠA gos
ĠBan k
inclu indo
ore ma
tÃŃ gio
Ġdiagn Ã³stico
Ġde vas
ĠS ky
Ġentre tenimento
ĠGa ma
Ġensa ios
cess or
Ġconce deu
la u
ĠN AS
Ġac lam
Ġcria ram
ĠLou renÃ§o
Ġmar cha
Ġresid entes
a vy
c ano
ĠV ista
Ġvin cul
Ġexti nto
U C
Ġmo tiv
cre veu
Ou tro
ĠIB GE
Ġreg ulares
ly n
ras se
Ġman eiras
tro p
Ġestrel ado
ĠA k
ĠT ib
Ġsubs tÃ¢ncia
re iras
Ġpass os
Ġc m
Ġportugu esas
ĠM ons
ĠSocial ista
Ġbaix ista
Ġdif und
Ġdesconhec ido
Ġganh aram
ĠPier re
ĠÃªn fase
ra riamente
ĠS emin
ed y
ĠfÃŃs icos
Ġb ura
Ġ" (
Ġ ),
Ã¢ng ulo
Ġmul tidÃ£o
Ġfo gue
Ġdo ce
Ġautor izaÃ§Ã£o
ĠhistÃ³r icas
Ġreduz ido
Ġinclus Ã£o
r inha
Ġtur istas
c c
u gos
Ġali ado
ic l
P T
Ã³ lica
Ġ4 7
Ġre nd
Ġps ico
Ġdisc ÃŃp
Ġtra Ã§os
Ġdis to
Ġjud icial
Ġconsegu ido
Ġo ra
ĠP rem
ĠAn ima
Ġindic am
Ġsecre ta
ĠsÃ© tima
Ġco p
ĠRo mana
Ġcompon ente
ĠsÃ³ cio
Ġp ene
Ġparal elo
ĠA po
Ġdom ÃŃnios
ÃŃss ima
Ġafirma m
tr ing
Ġdis para
ĠCir cu
Ġpublic idade
Ġgo le
Ġofens iva
ÃŃ sa
ĠAl an
Ġ190 5
ch en
as ta
ul ou
ĠM iami
ici ou
s k
Ġbo mba
ĠM et
Ġprofunda mente
Ġameric anas
Ġtransm itir
Ġintelec tuais
Ġmo lec
ĠM ir
Ġdeno mina
Ġestabele ce
gan Ã§a
Ġreconstru Ã§Ã£o
Ġcens ura
p ura
Ġrefle x
) ",
Ã³r dia
ĠTem plo
Ġapar iÃ§Ãµes
Ġlocal idades
ĠcÃ³p ia
Ġib ne
Ġefica z
b our
o ta
Ġdo na
Ġau ge
ĠPo nta
Ġinstru Ã§Ãµes
I nter
Ġali mentar
Ġinicia ram
Ġperce b
ĠN Ãº
ĠA rena
Ġex am
ĠCan Ã§Ã£o
Ġusa va
w ns
Ġv istas
Ġga ma
Ġempre end
Ġcanto res
ĠInde pendÃªncia
ĠSuper man
ivers idade
Ġfal ou
Ã³ grafo
Ġpres tÃŃgio
Ġpovo aÃ§Ã£o
P h
Ġcab elo
Ġpri vadas
ĠCor onel
Ġdisti ntos
Ġconcord ou
p ha
Ġconclu ÃŃdo
Ġenterra do
ĠGet Ãºlio
ĠW restling
Ġtira r
Ġtelef one
u le
ĠQu ar
gu ez
tiv idades
Ġconclu ÃŃda
Ġata ca
Ġata cou
ĠB ros
Ġqu Ã¢nt
Ã³g io
Ġcompu taÃ§Ã£o
Ð ¸
Ġd iocese
u tor
Ġclassific ados
Algu mas
Ġconde co
ÃŃde os
Ġprocu rou
Ġapare nte
Ġintroduz iu
Ġeste nde
Ġper nas
Ġmu ndiais
Ġado tado
t indo
ves se
200 5
ĠBo ok
Ġev idente
Ġprecis am
ĠMonte iro
Ġsemif inais
ĠemprÃ©s timo
lo ck
Ġcir cular
Ã³ rum
fa nte
ĠJ ane
ĠO k
Ġger m
ĠB ang
Ġvis itar
Ġgu arn
ĠToro nto
ĠO h
ĠColumb ia
Ġtem plos
Ġab rig
Ġsubs tÃ¢ncias
ĠcÃ¡l culo
Ġ190 6
h ist
de ndo
Ġamos tra
Ġjur is
ĠbÃ¡s ico
en z
ga nte
ĠjurÃŃd ica
Ġre aÃ§Ãµes
ĠU l
ĠOr questra
Ġcoma nda
ĠCl ass
g rÃ¡ficas
w o
ĠÃ¡ udio
Ġcon for
ĠCo mer
Ġcaus ada
Ou tra
Ġper if
Ġenc ora
Ġdou torado
or f
in ense
Ġsu ÃŃ
ĠEs cri
Ġpa triar
ĠS ci
Ã¡b io
L ei
te iros
ĠHam ilton
Ġmoder nas
va ntes
Ġr icos
Ġjornal istas
F ranc
Ġgen Ã©tica
Ġcon vento
ĠCou nt
Ġconf usÃ£o
Ġb ei
ĠCh ico
te ma
ĠMar gar
r indo
s ite
Ġlig adas
Ġdin Ã¢mica
R S
Ġreduz ida
Ġcomplex idade
ĠM P
Ġcent rais
qu ed
ro cos
Ġja zz
Ġrestri Ã§Ãµes
Ġfo me
Ġregist rado
ĠBro ok
Ġcontin ental
Ġro mp
ĠSer g
ĠAlfre do
ĠClÃ¡u dio
d al
ĠF emin
Ġvit or
Ġexist iam
ĠCo nte
nde z
br idge
ĠDire itos
Ġnecess ariamente
Ġpassa gens
ĠSoci ety
t ten
tas se
Ġ4 6
fe ras
Ġdesf ile
Ġsovi Ã©tico
Ġir re
Ġimp ul
Ġ190 9
Ġind icaÃ§Ãµes
cÃ³p io
ĠFl oria
ĠG roup
Ġprov in
ĠRy an
" (
m Ã¡ticas
ncia lmente
ĠInte gra
ĠM id
Ġra iz
ĠCax ias
Ġapar tamento
Ġhi erar
Ġpare cer
ĠP ens
Ġcont inha
Ġ5 1
Co me
ĠPr Ãºssia
Ġfavor Ã¡vel
Ġnave gaÃ§Ã£o
Ġprecip itaÃ§Ã£o
Ġm m
Ġc int
Ġcin quenta
Ġg rÃ¡ficos
Ġinte grou
M y
Ġte ologia
Ġcolo cando
L ogo
Ġestabele ceram
Ġ187 0
Ġliber taÃ§Ã£o
Ġinteressa nte
Ġcl ipe
ĠPed ra
me tro
Ġorden ado
Ġno tic
Ġpar Ã³quia
ip es
Ġobjec tivo
ĠC up
pla y
T er
Å «
cri min
Ġasso ciaÃ§Ãµes
Ġdiminu ir
ir ro
Ġcam pon
ĠJus tin
ĠDu as
Ġsal Ã£o
Ġ190 7
ĠA re
Ġamare lo
j og
qu ina
nd rome
Ġpro mul
ĠMer c
Ġesti veram
r Ã³
ĠAp ple
ĠAze vedo
ĠAss is
Ġlev ada
g at
Ġfru tos
ĠSampa io
Ġp eixe
ĠNe ves
Ġefici ente
ĠR on
Ġlu cra
Ġcontinu aÃ§Ã£o
Ġexplic ou
me no
ar ch
Ġsub iu
Ġvolta ram
vol ta
Ġcres cer
Ġvere ador
Ġmil ho
Ġem issÃ£o
it ri
ĠRa p
Ġcomprom isso
Ġre Ãºne
Ã¡r qu
P la
Ã£ e
Ġson o
Ġbranc as
200 4
Ġca ta
anc ho
Ġse mentes
Ġa cion
Ġigu ais
Ġaplic ada
Ġmem Ã³rias
fei Ã§o
en ha
Ġsegu ro
Ġfinanc eiras
Ġesta bilidade
ĠC em
Ã©n io
Ġdire cÃ§Ã£o
l iv
Ġprecisa mente
Ġsegre do
Ġfer idos
Ġse min
oc k
isco pal
ĠcontrovÃ©r sia
ĠB ry
Ġintegra do
Ġconvid ada
Ġinstal ada
Ġele c
imp ÃŃ
e de
Ġ( ;
ĠX box
Ġarquite t
ra ria
Ġfra cass
ĠBru ce
Ġparticipa ndo
Ġhomossex ual
Ġt rio
Ġad es
Ġher Ã³is
Ġalgorit mo
nd i
Ġdomin go
Ġrebel iÃ£o
c ros
ĠFigu ei
N este
vi le
ĠBra ganÃ§a
Ġencerra mento
Ġ za
ĠL am
ĠT ig
ec h
Ġha vendo
Ġreceb em
ws ki
ĠSteph en
ĠelÃ© trons
Ġin qu
ĠAl c
Ã§amb ique
lo g
ĠAg Ãªncia
ĠHo tel
Ġa ra
ĠA C
Ġis ola
ĠF orma
Ġefici Ãªncia
Ġaut Ã´no
ipÃ© lago
Ã³ metros
ĠComun icaÃ§Ã£o
Ġesc lare
ĠCar ioca
Ġes fera
Ġca uda
Ġelim in
as a
Ca tegoria
Ġile gal
Ġembaix ador
Ġvi Ãºva
ĠN unes
Ġpermane ceram
Ġmecan ismos
ĠCor r
Ġate ndimento
f inal
Ġjan ela
ĠVat icano
Ġindica ndo
ĠMun ique
Ġco z
Ġtorn eios
Ġaparel ho
Ġab rang
ĠRena to
Ġle vam
Ġgarant iu
ĠD il
Ġcre nÃ§as
ci Ã³n
ĠP Ã©r
ĠD in
ĠL P
Ġno Ã§Ã£o
ĠAng el
las se
iz aram
Ġexplo rar
ĠGr Ãªmio
g Ã¡ria
ĠMed ia
Ġol har
ĠBe au
Ġme tod
bo y
Ã¡s ticos
Ġcient ista
yo ffs
ec on
Ġblo qu
ĠKe vin
Ġsobreviv Ãªncia
d eias
Ġcivil izaÃ§Ã£o
Ġtr Ã¢nsito
Nas cido
Ġprocedi mento
ul ha
iste mas
k g
per o
Ġsubs ta
Ġcomb ina
ist ic
Ou tros
A D
vid or
Ġcompe tir
ĠNor th
qu in
is i
Ġdo mina
ĠN Ã¡
Ġac ons
ĠW olf
Ġlib erais
ĠGu inÃ©
rin os
Ġa Ã§Ãºcar
Ġsub ter
ĠGiovan ni
Ġatribu ÃŃda
Ġr ÃŃg
20 12
ar de
Ġopera r
z il
ĠCon venÃ§Ã£o
Ġnega tiva
Ġartif icial
se ram
Ġdu plas
Ġvers os
Ã³ via
Ġca i
Ġresul tante
Ġcer teza
ĠQu atro
Ġpoder osa
Ġarm adas
Ġbol sa
A T
ĠV lad
ĠConc ÃŃlio
Ġacampa mento
Ġfranc esas
ĠV Ã¡rios
ĠIr mÃ£
ĠL Ã©
Ġca ver
cer o
Ġdetermin aÃ§Ã£o
Ġre inos
Ġinc l
ĠSa b
Ġpubl icamente
ĠJas on
t res
Ġinvesti gaÃ§Ãµes
ĠMill er
on ial
Ġjornal ismo
ĠCh ann
Ġprete nde
ĠC Ã³r
Ġm inas
ĠÃ¡l cool
Ġcomun ista
Ġcontro la
Ġespera va
Ġcul tivo
por tiva
Ġproxim idade
Ġab unda
Ã³n imo
Ġambient ais
w orth
Ġtransmit ida
Ġle gais
ĠJa y
ĠFon seca
S er
ĠBo mb
Ġadquiri r
no va
erva tÃ³rio
y le
Ġpol u
Ã© gios
Ġcara cte
ĠOu t
Ġgera ndo
ĠT ais
Ġper das
por ts
par te
ĠanÃ¡l ises
Ġmerc ador
ĠPhil ip
ĠCorpo ration
c idades
ĠelÃ©tr ico
Ġgaro to
Ġmass as
Ġum as
ĠG ia
ti e
ĠAl ianÃ§a
ĠOc idente
Ġperc orre
ĠO NU
ĠL ight
ĠRe y
Ġac tualmente
Ġexp uls
ĠNicola u
Ġconced ido
Y ou
Ġconsegu em
ĠI P
Ġcontempor Ã¢neos
ĠG P
mb io
Ġmo rar
ĠN ik
ĠN FL
Ġproduz indo
Ġcaptura do
Ġarre dores
Ġviaj ar
Ġassegu rar
D ia
Ã³ rios
ĠlanÃ§ adas
C or
ros a
cam peonato
ĠAra gÃ£o
ti go
ho p
ĠP ela
Ġvas ta
Ġf iel
Ġla va
Ġa reia
graf os
con c
Ġdesta car
hou se
A B
Ġobserva Ã§Ãµes
s ou
Ġquer iam
Ġmin iss
Ġhon or
s er
Ġal ter
Ġac entu
Ġsub div
cha rel
A m
ĠeconÃ´m icos
ĠRus so
ro w
Ġsens aÃ§Ã£o
ĠC N
ĠLÃº cio
ĠH art
S C
Ġproc essamento
Ġju dic
ĠC Ã¢
Ġma tando
ĠM eio
Ġcinemato grÃ¡fica
Ġsal Ã¡rio
Ġcampe Ãµes
ĠdÃŃ vida
Ġs Ã©r
Ġclassific ada
Ġsem estre
Ġvil Ã£o
cion ou
Ġass istir
Ġferra menta
im ir
Ġpad ro
es tado
ĠTe ve
Ġt h
Ġapo iado
ĠHo ward
Ġreconhe ceu
Ġacei taÃ§Ã£o
Ġigual dade
Ġreno vaÃ§Ã£o
Ġfir me
Ġfil mado
ĠdifÃŃ ceis
il v
20 13
Ġbas quete
Ġenfre nta
ĠalemÃ£ s
Ġestrel ou
Ġf ita
Ġb y
Ġefe tivamente
ÃŃl ios
Ġ188 0
Ġinspira da
Ġinter nas
Ġfavor Ã¡veis
Ġabandon ado
ĠChe fe
Ġbilhe teria
Ġhoriz ont
Ġdiv ide
ĠcrÃ©d itos
ur b
Ġreconhec er
Ġped indo
g ht
Ġgeog rÃ¡fica
w art
Ġas cend
Ġper turb
ĠMed iterrÃ¢neo
o b
nt s
Ġb ril
Ġg rÃ¡
ĠMo Ã§ambique
Ġf ixa
ĠG ord
Ġaqu elas
Ġexter no
Ġpossu ÃŃam
Ġbase adas
Ġali mento
Ġ190 4
Ġinterpre tando
ĠS her
Ġassum indo
d ico
Ġte ndem
Ġfer ido
ĠÃ¢ng ulo
g aram
Ġf on
ĠMul her
S E
Ġac Ãºs
tido res
Ġpre ced
Ġpres a
Ġsovi Ã©ticos
Ġve ndida
Ġconsidera va
ĠL ittle
Ġle gado
ĠNa tural
Ġderro tas
ĠMate us
Ġd ina
ĠSÃ©r via
or dos
Ġin duz
Ġapresent ados
ĠMat t
Ġsu pre
Ġexperi mental
Ġfuncion ar
Ġson or
Ġvive ndo
Ġsusp ensÃ£o
m ida
Ġs anto
Ġcons igo
Ġinter face
Ġro da
ci ente
con hec
ĠLu c
Ġelim inaÃ§Ã£o
o ito
ĠR enas
ĠVal ent
Ġselecion ado
Ġ190 3
ĠDoug las
me dia
ĠAlexand ria
Ġprotes tantes
Ġreper c
Ġpri vil
Ġdesa fia
Ġre para
ion e
200 3
Ġocas ionalmente
Ġpropor Ã§Ã£o
ĠCh risto
Ġating e
ĠCo raÃ§Ã£o
Ġinter nos
iv idade
ĠAl bu
Ġpas tor
Ġarro z
set ts
Ġro taÃ§Ã£o
por tos
Ġsal to
Ġar bit
ĠBen jam
R es
Ãª mea
Ġcer tamente
Ġsente nÃ§a
Ġproven ientes
m ad
Ġm un
Ġcons istia
. âĢĿ
Ġcolo raÃ§Ã£o
c Ãµes
Ġmod el
Ġide ais
ĠAndre w
Ġperforma nces
ĠEs pera
iri m
ĠT on
200 2
Ġcoo pera
u er
w ar
z ia
ĠAn n
Ġidio mas
ĠDig ital
Ġchama ndo
ĠRe vista
ĠBul gÃ¡ria
Ġferrovi Ã¡ria
Ġsub mar
nes to
Ġcas ada
Ġesp ÃŃ
Ġleg ÃŃ
Ġcomun istas
qu istas
Ġsemelh anÃ§a
ĠS k
ĠMar cel
ĠtÃŃp ico
Ġb l
Ġproc lam
Ã©tr icas
Ġretra to
ĠCer ca
c in
Ġapare ceram
Ġde ntes
is fa
Ġsa ntu
Ġrela ta
Ġpublic ar
bre u
ĠbÃ¡s ica
ĠAmaz Ã´nia
Ġou tono
ht t
Sa nta
ĠAz ul
ĠS tal
Ġindependente mente
oc h
ĠMan chester
ci to
Ġdis cre
Ġenvi ada
Ġmad ru
ĠBlu e
ĠKar l
ĠD ona
Ġembar caÃ§Ãµes
chu setts
ven Ã§Ãµes
Ġespecial ista
Ġcole t
Ġoc ul
Ġoxig Ãªnio
% ).
Ġpro m
Ġca tedral
Ġfrequ entes
Ġassoci adas
Ġdisp ens
Ġjuda ica
ĠR and
Ġsol dado
i Ãªncia
s ingles
M es
ĠTa i
ĠFre itas
Ġconclu ir
Ġ188 9
quer que
Ġdispu tas
Ġarmaz enamento
fici ente
re nce
va ÃŃ
Ġdecid ir
ĠâĢľ "
Ġsegu em
ion s
Ġtou ch
Ġt um
ĠS ystem
ĠL ula
if t
Ġfotograf ias
Ġass inar
Ġ Å
ola res
Ġintelig ente
Ġcritic ou
Ġaprendiz agem
p ton
ĠNe gra
t ÃŃtulo
ĠR TP
mes sa
200 1
T al
Ġrealiz ando
ts u
a z
ĠestÃ¡ vel
ÃŃ so
Ġcaptura r
l ins
Ġa ns
Ġfantas ia
Ġ ida
rem os
ĠalcanÃ§ ado
ti as
ĠJ enn
ĠCar n
Ġempre gados
Ġha bil
Ġver mel
Ġutiliz ou
inte gra
g icas
is tiram
Ġdestru ÃŃda
Ġfi Ã©is
Ġca bel
S em
qu ias
ĠCrist ina
Ġmod ificaÃ§Ãµes
Jo hn
ĠV isco
ĠAp ol
Ġespeci fic
ĠBritÃ¢n ica
m adas
Ġro upa
Ġcuid ado
mu ndo
ma il
ĠfenÃ´me nos
Ġf aria
Ġte or
ck y
ĠÃŃ d
Ġverd ad
re za
ÂłÂł ÂłÂł
Ġple no
ÃŃ o
Ġafir mar
ĠmÃŃn ima
ĠH ip
ĠJo vem
ĠMos teiro
P I
Ġa venida
Ġre en
Ġgen es
n Ã£
ĠR ang
Ġar mada
o ff
Ġter restres
ĠPa re
ÃŃn gua
ĠU R
Ġro de
Ġgrav idade
ĠjurÃŃd ico
Ġcomercia ntes
Ġaventu ras
nd iam
ĠE ner
Ġcontra tos
gen eral
Ġligeira mente
Ġc ess
Ġvide o
me na
ĠI no
Ġ8 5
Ãºrb ios
Ġaplic ado
Ġbase ia
ĠTw itter
ĠpolÃªm ica
ĠL ite
Ġad mi
and er
Ġderi vado
Ġmito logia
Ġde pos
tr ica
Ġperce pÃ§Ã£o
ĠConstitu cional
Ġvest ÃŃgios
Ġh ero
ĠDar k
ent ais
Ġescrav idÃ£o
Ġmar keting
ĠMel lo
Ġprof undo
ĠMe ta
ĠPol ÃŃtica
Ġobserv ado
Ġ Ã³p
ĠEnc ont
h aram
Ã¡ quia
Ġrec eita
Ġdistribu ÃŃdos
ĠFin lÃ¢ndia
ĠComp le
ĠLeon ardo
Ġconc ei
tÃ© is
Ġpsic ologia
ĠCorre ia
ime ns
ĠT estamento
Ġs ites
ita va
ri ado
Ġcapa ci
ĠL ady
Ġlu tador
Ġexpl icaÃ§Ã£o
gaz ine
Ġb ro
Ġesta tal
ific am
Ġvence dores
Ġb Ãºl
Ġent rando
Ġestabele cimentos
W e
me nda
u Ã¡rio
Ġpro tÃ³
Ġad ver
ar Ã£o
tu rou
Ġpromo veu
ĠBra nd
ĠTe ndo
Ġminist ros
ĠPl ane
Ġbizant inos
ĠC ec
Ġper ig
ĠCa bral
ĠEcon omia
ĠFilip inas
tu as
Ġequip as
Å Ĥ
Ġf lor
ĠW ol
Ġenc en
er n
ĠA bu
Ġto mando
ĠIn ver
ĠnÃºcle os
ĠBow l
Ġcomp Ã´s
ran os
Ġres postas
Ġsol id
Ġapo nta
Ġlib ras
Ġescrito ra
Ġadul to
c ana
ĠGusta vo
l is
Ġdef ensores
Ġri vais
ĠPesquis a
Ġ5 4
Ġurb anos
p per
ct Ã©rias
Ġsacerdo te
Ġpro posto
Ġafirma Ã§Ã£o
Ġpol it
Ġpesso almente
ĠA ri
Ġpara s
nd ra
ing ham
ĠMin eiro
tic s
th y
Ġprem iaÃ§Ã£o
Ġteat ral
P ol
s ky
Ġal deias
Ġadequ ado
Î ±
ĠRa im
Ġprecisa va
ĠDi Ã¡rio
ĠB io
tiz ar
cau te
toc olo
Ġem itiu
ĠPi res
Ġvel hos
Ġle gi
Ġatra ir
ĠrepÃ³r ter
Ġdina mar
Ġcient ÃŃficos
Ġmanifesta Ã§Ã£o
Ġta x
Ġab us
C al
b iter
Ġc ana
Ġpre val
Ġdestru ÃŃdo
Ġven cido
Ġ190 2
Ġag lome
Ġdestin ada
Ġves ti
ĠComun idade
s i
ĠP R
ba ch
ĠAn gra
Ġintens o
Ġp las
ĠZ u
ĠChann el
ĠCo ntro
Ġmo dos
ĠP inheiro
Ġtrop icais
Ã¨ re
Ġdire tores
est ino
Ġbo t
S an
Ġco bri
ĠJim my
Ġco nto
i tude
ag on
Ġne ve
H z
Ġv ent
ĠPor t
ĠSo fia
Ġcaus ado
ĠSemin Ã¡rio
l Ã¡via
Ġp ale
Ġv ib
Ġpar cial
Ġsepul tado
z en
Ġresta urante
ĠSou nd
Ġsacri f
I M
ĠV ocÃª
Ġcompil aÃ§Ã£o
C ha
Ġtr iste
Ġtre ns
Ġauto ra
Ġextens a
Ġente ndimento
ĠFoot ball
c ador
Ġsim pa
ĠMaur ÃŃcio
Ġrefer ida
ĠReg imento
Ġbi bliote
d il
Ġgas es
A os
ĠNa z
ĠBritÃ¢n ico
ci r
Ġcompara do
To dos
Ġpot Ãªncias
le ne
ur ch
tÃ³ n
Al l
ĠFre e
ĠMou ra
Ġ190 1
Ġ189 1
Ġfura cÃ£o
Ġdo wn
ĠF ora
Ġra dical
Ġprim Ã¡rio
Ġmont agem
ĠInd Ãºs
Ġinicia ndo
Ġreti rado
Ġabaste cimento
ĠMana us
ĠBandeira ntes
Ã´ lei
ĠMassa chusetts
Ġrebo tes
Mu itos
Ġma tr
Ã©r icos
ĠBo nd
as co
ĠÃ³ b
Ġconquist ado
ĠCol Ã´nia
Ġpros titu
N E
ĠA rÃ¡
ĠN ig
ĠdiÃ¡ logo
ĠMargar ida
ĠC ard
Ġapresent adora
Ġim igraÃ§Ã£o
Ġseg mentos
Ã¡ c
Ġve nde
ĠsÃŃ ntese
he ad
Ġma ns
Ġacompanh ar
Ġadvers Ã¡rios
ĠAr ist
Ã©tr ico
Ġartilh eiro
F er
ĠS S
ĠK ra
bur y
Ġpain Ã©is
Ġmam ÃŃferos
a ntes
ĠS qu
ĠNo ite
Ġcar tÃ£o
Ġvis uais
Ġcul pa
Ġima gin
ĠExecu tivo
to l
Ġv irou
ĠDe ad
Å ¡
Ġes tou
Ġhum il
Ġcap it
a o
w en
nt adas
Ġreel eito
Ġna me
s ch
t ona
Ġpo le
g ri
p irou
tu ros
Ġro das
Ã¡ss ico
pl icaÃ§Ã£o
Ġven ez
Ġch ar
Ġnucle ares
Ġdisc ussÃµes
ĠGreg Ã³rio
f an
Ġb eira
Ġdes erto
Ġdiretor ia
b ais
ta vam
Ġac ord
Ġreg ente
Ġfug iu
ĠtÃºm ulo
ĠMaria na
Ġperce ber
ĠN um
ĠbritÃ¢n icas
Ġles Ãµes
ĠSara h
Ġab ra
Ġmont anh
Ġdemons trou
ĠB ara
Ġdel ib
ĠRu i
Ġj ardins
Ġcient ÃŃficas
ww w
Ġin ves
Ġinclu ÃŃam
Ġvir tual
Ġoita vo
Ġaf lu
Ġa ten
ĠI van
20 14
ĠEle c
Ġgoverna nte
ilv Ã¢nia
Ġplane tas
Ġelo gia
ĠW ell
Ġcontra tou
Ġvest ido
Ãº ri
Ġviz inho
Ġcheg ado
i po
Ġdo ente
rÃ¡ ria
Ġtransform ada
Ġfrequ ente
M in
tÃ³ rias
Ġvo zes
Ġfilos Ã³f
C he
Ġdever Ã¡
ho res
Ġle ge
Ġexce p
ĠCircu ito
ig an
du tor
Ġcomp lic
ĠHa w
ĠRib eirÃ£o
Ġi ra
Ġsuper vision
il Ã¢ndia
Ġma u
Ġte to
ĠSal Ã£o
ĠBol ÃŃvia
ĠAla go
Ġprocedi mentos
Ġimpro vis
ĠH ouve
Ġfala ntes
Ġteles pec
Ra w
ĠJo an
ĠQu ad
el er
tiva Ã§Ã£o
Ġapresent aram
Ġg ay
Ġb ela
ĠK al
Ġv iram
ĠO ff
Ġdetermin ados
Â» .
ĠE di
Ġquad ra
k ar
Ġsepara do
ĠDan ce
Ġ5 3
Ġma gia
Ġant rop
Ġbras Ã£o
Ã «
Ġtra g
ĠP om
id ou
Ġtan ques
Ġcar vÃ£o
Ġaper feiÃ§o
ĠE c
Ġc ita
Ġliter Ã¡rio
nd idos
ĠAnt igo
Ho je
Ġc Ã£o
Ġca tÃ¡
Ġrepres sÃ£o
Ġdel im
Ġme tais
Ġtransfer ida
Ġm ig
ĠRo ad
Ġespera r
Ġresga te
ti pos
Ġmar ch
ĠN uma
ĠI gua
Ġcer Ã¢mica
ĠPe qu
ĠKenn edy
ĠMar x
Ġau se
ng ular
Ġadolesc Ãªncia
Ġco mentar
ĠA R
T F
Ġso nda
ĠCont ra
Ġele vaÃ§Ã£o
" >
u gu
ĠT udo
Ġdesenvol veram
Ġesco c
ĠPia uÃŃ
Ġal tern
Ġimp osto
ile y
Ġindic ada
Ġma ca
Ð µ
ĠF un
at tle
con cel
Ġco tid
ic Ã³p
Ġas pira
ĠViet nÃ£
a ma
c en
ĠBra d
ĠfÃ¡br icas
i adas
ro qu
Ġlocaliz adas
Ġcicl one
g nos
Ġmundial mente
Ġela bora
Ġcidad Ã£o
ĠBa nda
Ġident ificado
Ġprepara r
esc entes
ĠPos t
fa to
Ġfacil idade
P os
Ġcaracter iza
Ġtiv essem
ĠMar ie
odor o
ĠS erv
Ġvolta ndo
Ġalte rado
Ġtrabalh ado
ĠÃŃnd ices
Ġhidro gÃªnio
n Ã³polis
ous ton
Ġcompree nde
ĠOl impÃŃ
ĠPrin cesa
Ġca re
Ġpossibil idades
Ġpar til
Ġr in
Ġsat isfa
ĠLiber dade
d ina
Ġa re
Ġag Ãªncias
Ġdesconhec ida
B ra
Ġprov ar
Ġrumo res
te iras
Ġele geu
ĠGir ls
Ġsequ Ãªncias
ĠP ou
Ġle itores
il er
ĠA fe
Ġfal has
ĠBat man
Ġresid Ãªncias
Ġrepresenta Ã§Ãµes
Ġlidera dos
Americ ana
ĠC r
ĠF ir
Ġestabele cendo
in dic
Ġro tas
Ġv ital
Ġos sos
ida mente
Ġafric anos
en g
Ġper igos
Ġcon g
vil ha
inu x
ĠprÃ© dios
gn i
Ġac hou
Ġsedi ada
Ġnor ue
Ġp ic
ta na
Qu e
Ġdiv or
ĠMo ore
ĠÃ¡to mos
ĠV era
Ġminist Ã©rio
ÃŃ vio
na Ã§Ã£o
ĠV ideo
tic e
g by
nd ar
em bl
ĠmÃ¡r more
ĠF ire
tor iais
Ġro u
ĠAgos tinho
Ġf Ã©rias
ĠR ese
Ġvence dora
Ġcaracter izado
Ġpermit ia
ĠEr nesto
Ġconcorre ntes
ĠBa tal
ĠLu ÃŃsa
ise u
à ¤
ill er
Ġunivers itÃ¡rio
ĠArqu ite
Ġceleb raÃ§Ã£o
ĠCar naval
Ġamp l
Ġcaval eiros
Ġsug erem
b ile
Ġ" ".
ĠH uma
Ã§a ndo
ĠV ers
nter ior
Ġestre ita
Ġla zer
Ġiria m
Ġfo tÃ³
Ġac tu
Ġcar idade
Ġjus tific
v ira
qu eira
ĠTra ta
Ġgere nte
Ġado Ã§Ã£o
ĠLa u
Ġarquite c
Ġpredomina ntemente
cion ada
vie w
Ġsepara das
Ġdeus a
h eiros
ol s
Ġencontra vam
Ġensa io
Ġp eito
ĠC ru
Ġrealiz aram
Ġgrav adas
Ġsan gu
cra cia
ĠMat riz
Ġfaze ndas
Ġfal ando
Ġvis itas
g ara
ĠAl bum
Ġtempo rariamente
ĠJu nta
V ia
ĠC ÃŃ
gon ha
Ġb its
Ġest Ã©tica
ĠTer ri
Ġfrag mentos
Ġp is
ĠÃ¡ rb
ĠOf icial
Ġesc Ã¢nd
Ġep id
Ġespor tivo
Ġautom Ã³veis
ĠM ik
ĠCa io
ĠSu deste
Ġ7 00
Ġnu tri
Ġdecid ido
ĠtÃŃp ica
Ġmat Ã©rias
H ar
e y
Ġinfer iores
ĠvÃ¡l idos
ti ona
Ġtra v
Ġpos tura
Ġass inal
ĠJohn ny
Ġdes ma
Ġdes igu
Ġsol os
Ġcontro lo
ĠWe ek
Ġprem iado
Ġmercador ias
Ġv iva
ĠM ei
Ġpra ias
ĠlanÃ§a mentos
]] .
Ġsobera nia
P P
ĠmÃ¡s cara
Ġmadru gada
R ei
ĠMa jor
ĠJaco b
g rÃ¡ficos
Ġac ident
Ġcola borou
Ġelim inar
Ġpri vile
Ġcar gas
ĠV ig
ag ner
Ġminu to
Ġrespo nder
ĠSilv eira
j Ã£o
w ei
el le
ĠAl len
ĠAlbu querque
to wn
ĠN i
ĠF ÃŃsica
Ġfor tuna
Ġ5 6
ela mento
ĠintÃ©rpre te
f l
ĠVas concel
ro mo
Ġrecol h
p pe
ne gro
Ġexig e
Ġdemonstra r
v idade
ĠP et
ed ro
Ã©s imo
ĠVel ha
ĠS id
ÃŃs io
Ġrodo via
ar ial
ria na
Ġvol tado
ĠRa ul
Ġescri tÃ³rios
S te
Ġin ib
gra duaÃ§Ã£o
ĠGonÃ§ alo
B u
t Ã¡rios
lo gos
Ġso viÃ©tica
ĠMar quÃªs
Ġva c
Ġm istas
ĠE ast
if ÃŃcio
ĠpÃ¡ tio
Ġgoverna mentais
M ad
h ard
ĠBe ach
Ġmostra ram
Ġacus aÃ§Ã£o
ĠBor ges
Ġminiss Ã©rie
Ġcontra taÃ§Ã£o
Ġadquir ido
Ġmedica mentos
Ġpre visÃ£o
Ġfec hada
ĠFlore nÃ§a
ĠE nt
Ġconf ia
Ġfacil itar
ĠTom Ã¡s
ad ju
ip se
Ġar cos
Ġtri bun
Ġdes can
ĠCons tru
ĠDemoc rÃ¡tico
os h
ĠM og
Ġpor tos
te ca
ĠF eira
Ġac as
20 15
Ġmag ist
M en
f oi
Ġop tou
ĠCas o
Ġagric ul
ĠAf ric
Ġpla yoffs
Ġmelhor ia
Ġmin erais
our t
ĠJu ventude
Ġcostu me
Ġabsol uta
ĠacadÃªm icos
ci ada
Ġsusp eita
Ġv Ãªm
ĠCo nta
ĠRela Ã§Ãµes
Ġtur cos
Ġroteir ista
br indo
Ġma ci
Ġsuste nta
Ġamplia Ã§Ã£o
ĠAr n
Ġdem issÃ£o
Ġ189 5
ci ou
Ġoita va
Ġconselh eiro
D C
x em
Ġes ma
ĠOr le
Ġrele vante
Ãº rio
Ġche fes
L is
ti me
ĠR iver
ve y
Ġsobrev iver
ol n
ĠJo ana
ĠW in
Ġinflu ente
Ġpain el
p rin
Ġper sa
olog icamente
Ġpion eiro
ĠE van
Ġ9 5
Ġs Ãº
ĠPa quistÃ£o
Ġform ados
ĠMa omÃ©
Ġdesign ar
m Ã¢nia
n ga
va res
ĠCo nd
Ġlar go
Ġdivul gado
Ġhom Ã´nimo
ĠD ick
Ġempre gado
ra c
Ġp ano
Ġc Ã³r
ĠCo mando
Ġgan ho
Ġdezesse is
ĠjesuÃŃ tas
em y
Ġad ja
Ġalfabe to
g Ãªncia
Ġincapa z
Ġla Ã§os
Ġla titude
Ġferro via
Ġpec u
ĠChar lie
Ġreg resso
Ġdistribu ÃŃdo
Ġhe bra
Ġrem ix
ĠH umb
Ġsegu ra
id iocese
Es se
Ġprol on
ĠacadÃªm ico
Ġbenef icia
mb urgo
ĠH amb
Ġinternacional mente
Ġt iros
ĠMar sh
ĠX u
rea k
Ġrestaura ntes
let ismo
le do
ch am
ĠÃŃ con
Ġo posto
ma ck
ĠCo ma
Ġem bri
el lo
Ġcomple xa
Ġprotes to
Ġescul turas
Ġpse ud
Ġc Ãºp
Ġv Ã©r
Â» ,
Ġvira da
ĠT enn
pen sa
Ã³l ico
Ġaposent adoria
ĠA travÃ©s
Ġpa c
ĠquÃŃm icos
Ġestrang eiras
Ġconsidera velmente
Ġinstru Ã§Ã£o
Ġeman cipaÃ§Ã£o
Ġvis a
Ġcen Ã¡rios
gu ar
Ġtre inar
Ġ" .
Ġcomemo raÃ§Ã£o
Ġto mb
Ġocupa ndo
Ġin vo
Ġderro tando
Ġrej eita
iver pool
Ġmant ida
Ġpec ul
Ġd ign
ri mo
Ġcomun icaÃ§Ãµes
p tos
Ġsuced ida
vi era
ĠPa i
Ġconfro ntos
ĠPatrim Ã´nio
Ġconc orda
ant ar
ĠmÃºlti plas
fel d
h Ã¡
te to
Ġdesen cade
ĠÃºn icas
s ub
Ġtoma ram
Ġensina mentos
Ð ½
s how
Ġmar x
Ġtend Ãªncias
Ġde pendÃªncia
ir Ã£o
z io
Ġra cional
Ġremo nta
Ġ186 0
ĠV iana
ĠMar rocos
ĠAnt iga
Ġren unciou
Ġplane ja
ĠR ico
ĠG ames
Ġav Ã³
Ġencar reg
Americ an
G o
ro ck
Ġdem itido
Ġat raÃ§Ãµes
ĠBar ry
ĠSou th
Ġj usti
Ġlic encia
Ġre me
Ġme tropolitana
Ġpes ado
w ick
Ġp istas
nd ro
ar re
ĠIn Ã¡cio
ĠcÃ©le bre
ĠL ine
ĠMa u
ĠSte ven
ĠGil berto
Ġat er
Ġdesenvol vidas
Ġving anÃ§a
ĠR i
ĠT hor
Ġpres ti
Ġrela tou
Ġaqu ilo
Ġener g
ĠS Ã©culo
Ġres tring
Ġexperi mentos
Ġdom ic
Ġtent am
I P
Ġtur co
Ġpre vista
Ġaf und
Ġtransm issÃµes
Ġ Ï
ĠÃ Ĥ
Ġproduz em
ĠM G
Ġtrans tor
Ġbar cos
Ãª a
m und
r ina
on Ã©sia
ou nt
ib al
Ġmelhor ias
m issÃ£o
Ġc ass
Ġo tim
199 9
Ġproib iÃ§Ã£o
ĠbÃ¡s icos
Ġgiga nte
ere nte
ĠOr todo
ĠMa gazine
Ġhosp itais
Ġen quad
ĠHo me
Ġaber tas
Ġreiv ind
Ġarqu ipÃ©lago
ĠT anto
Ġdes cul
. ),
Ġlu tadores
Gra nde
T unes
ĠH il
Ãªn is
Ġcaracte res
f Ã´nica
Ġpol ar
et s
Ġempres tado
ĠPatr ick
ĠÃģlva ro
Ġfuncion Ã¡rio
Ġajuda ndo
Ġa Ã©reas
ĠPeter s
f ir
gover nador
ĠfÃ³s seis
Ġag rem
Ġderro tados
ĠGe or
aran ja
Ġacons el
Ġesta bil
Ġve ndendo
Ġprop riamente
ĠPr Ã©mio
Ġde via
ĠE va
Ġconvid ou
eliz mente
ĠEspanh ola
Ġcu b
Ġprocura ndo
Ġviz inha
Ġan uais
ĠInter ior
Ġacab am
Ġconfir mada
Ġar ru
ĠSer ies
Ġanda res
Ġrequis itos
s ol
Ġo ral
F re
J e
M P
Ġto mado
Ġl istas
Ġmural has
Ġ189 6
ĠavanÃ§ ou
Ġassass ino
Ġtransform ado
co Ã§o
ĠestÃ¡ gios
Ġexem pl
ĠRuss ell
Ġac eito
ĠPo wer
ĠLond on
Ġparc eiros
Ġris cos
F e
Ã¡ vio
Ġser vidor
ĠK ara
Ġass alto
Ġins pirou
ice u
tor s
pol es
Ġadequ ada
Ġreperc ussÃ£o
i jo
ĠL ic
nd idas
Ġcomp Ãµem
Ġlev ados
Ġchama va
Ġsuce deu
ĠDio go
Ġob tidos
Ġmonu mentos
Ġou vido
Ġvant agens
ris ion
Ġsal Ã¡rios
Ġreconhe ce
v ial
ĠN am
ĠT am
ĠCar mo
ĠAr g
Ġav anÃ§a
Ġm ix
ĠVer melha
ĠTrabalh adores
Ġte orema
Ġconsidera Ã§Ã£o
Ġquil Ã³metros
Ġp into
Ġtem Ã¡tica
f one
Ġtre chos
Ġ189 8
a b
pe cu
ty le
ÃŃdu os
tro ng
Ġpad res
I G
ĠCon n
gues ias
ĠFace book
ti mento
ĠEstre la
gu ia
ĠR at
ĠBa viera
Ġemp ur
ĠS E
ĠL ord
Ġservido res
H er
Ãª ne
at isf
ĠsatÃ©l ites
Ġf res
ĠL inc
ĠMed alha
Ġhel icÃ³p
ĠN ico
in idade
Ġcole tiva
Ca p
Ġespo nt
L iv
Ġd Ã©
Ã´n us
Ġacompanh ada
ĠJac ques
ĠU nder
Ġrela tado
Ġdesempenh ou
G en
gu erra
ho je
ĠOx ford
Ġi mobil
ĠPa y
ĠBen ed
Ġco berta
Ġcole Ã§Ãµes
ĠBeat les
Ġvari ados
Ġcap itais
Ġdo aÃ§Ã£o
Ġpre ta
Ġfrequ entou
Ġdefini tiva
Bras il
U N
it t
Ġle ntamente
Ġcri tica
nas cido
vid ez
Ġpa go
Ġfaz end
ta gens
Ġque ntes
il es
Ġju ÃŃzes
Ġdez oito
pe ram
Ġpossu indo
Ġencar regado
Ġpro vid
Ġpro messa
ĠSong s
Ġnorue gu
I L
ĠA gora
it Ã©
Ġprote ÃŃna
G er
va nt
ĠK h
Ġau tÃ³
Ġespec tro
I l
ĠLei te
Ġacred itar
gan istÃ£o
Ġbio grafia
Ġg es
ur Ã£o
rel l
Ġelo gios
] ,
Ġu cran
ĠH ans
Ġpopular mente
ĠAma ral
Ġc ÃŃ
ĠLa ura
Ġinvesti gar
Ġju ntaram
Ġindic ar
Entre tanto
J ornal
Ġale gou
Ġsing ular
pe ras
Ġnega tivo
O N
ĠHa via
Ġge om
Ġra dic
Ġpop ul
Ġparal is
Lo ve
ĠLago a
ĠSic ÃŃlia
Ġh ino
Ġen gra
Ġcol h
ios as
Ġsupera r
Ġi ran
co pa
Ġascend Ãªncia
Ġex cesso
Ġastro na
Ġre du
Ġdis far
Ġac Ã§Ã£o
ĠIb Ã©rica
Ġinse tos
ES P
Mes mo
te x
f ri
ĠS yd
Ġexpand ir
comun icaÃ§Ãµes
l ino
ĠS ig
ĠH ouston
Ġpermit ido
So bre
pre feito
Ġesco nder
ĠG or
Do wn
d ir
eria is
Ġsecund Ã¡ria
Ġadap tado
Ġren uncia
ĠGord on
Ġent radas
Ġcompos tas
Americ ano
Ġpercebe u
Ġmar cados
Ġcole ta
Ġaber tos
ĠBenjam in
Ġ5 7
ĠGu ara
Ġtraduz ido
Ġancestra l
olog y
Ġjus tamente
qu eiro
ĠestÃ¡ tuas
Ġgu ia
Ġrele vantes
Ġque ima
Ġesc u
Ġmes tres
Ġ189 7
Ġcoinc id
Ġt ru
la ndeses
Ġdetermin adas
Ġir ri
ĠAfe ganistÃ£o
ĠF Ã¡bio
ita riamente
Ġgre ve
Ġagra de
Ġdebat es
Ġnas ce
Ġequ aÃ§Ãµes
ĠAnt hony
M L
Ġpara do
Ġentre gar
lig aÃ§Ã£o
Ġaparel hos
V ol
ĠT es
Ġregress ou
Ġsou be
ĠNAS A
nterior mente
ez as
Ġconc orrÃªncia
Ġtotal idade
tiv ismo
Ġfam osas
Ġnatural mente
Ġcil ind
Ġh ola
Ġlinha gem
ĠB izant
Ġinflu entes
ĠD onald
Ġen vel
Ġag regado
br ica
Ġadministra tivo
ĠArm adas
ma nt
ĠA breu
Ġcontempor Ã¢neo
Ġexpor taÃ§Ã£o
: "
M or
Ġvari edades
as so
il aÃ§Ã£o
vi Äĩ
Ġtrabal ham
ĠRo y
int on
an ge
ĠSe ver
Ġamea Ã§as
ma gem
Ġda queles
ĠA y
ĠA ga
Ġdes ped
v ich
Ġadministra dor
ĠVir gin
ĠE nd
Ġsofre ram
Ġo raÃ§Ã£o
Ġpreju ÃŃ
Ġdown load
Ġse vera
ĠA credita
ill y
Ġrespec tivos
Ġtom adas
Ġjusti fica
Ġco zinha
ĠB eira
Ġdes fa
Ġ- ,
tiz ou
Ġmand atos
ti ficaÃ§Ãµes
Ġab uso
Ġba ctÃ©rias
Ġno tur
Ġver so
Ġed itado
Ġcompree nder
Ġri tual
enci ou
Ġu ru
Ġexclus ivo
aliz ou
Ġen gan
Ġvol tada
Ġconven Ã§Ã£o
ĠMor ris
in Ã¡rios
ĠFe de
urre iÃ§Ã£o
a h
Ġag ir
Ġim un
ci tos
ÃŃs ta
ĠMa ced
Ġdetermin ou
Ġk g
Ã¢me tros
ĠP ho
Ġme mbra
ĠWal t
Ġf lan
do ras
ĠF ur
ĠAnd y
Ġeng lo
Ġconced ida
E nc
ĠC ord
Ġma Ã§
ĠO ce
ist ro
Ġfol ha
Ġgas tos
Ġe cos
Ġfa cul
Ġconc reto
Ġga me
Ġaplic ar
Ġinfec Ã§Ã£o
ome tria
Ġnaz ista
Ġs indica
ĠL iverpool
est res
Ġestu d
Ġvege tais
ĠEqu ador
Ġcaracter izada
Ġofere cido
Ġhierar quia
ad rez
at re
Ġfu turos
Ġbomb as
Re g
Ġassist Ãªncias
ĠRepublic ano
P al
ĠP ress
Ġpes coÃ§o
ĠFried rich
Ġ3 60
Ġcho que
Ġb riga
Ġcaval eiro
Ġisola mento
v ino
Ã© nia
Ġag reg
ĠFre i
tado ra
ĠInver no
Ġproemin ente
ĠA pos
H ome
Ġcri pto
Ġregist rados
ĠCon gregaÃ§Ã£o
Ġofere cendo
ĠNÃ¡ poles
Ġem ble
ĠQu inta
Ġcorre r
ĠBill y
Ġdif usÃ£o
ĠNew ton
Ġsobrev iveu
ĠOto mano
Ġde vida
Ġentre gou
ĠGu ana
Ġgara nte
Ġplanej ado
l icos
to lome
ĠT hat
ĠLa nd
Ġsignifica tivas
Ġinscri Ã§Ãµes
ĠIndia na
Ġid Ã©ia
C ada
Ġs or
ĠM ass
Ġapre ndeu
Ġag rupa
ĠE ri
Ġpa cote
ĠK er
Ġinter fer
g ie
ĠSuper liga
ĠGal eria
aran i
Ġvin dos
Ġbeb Ãª
Ġnamo rada
ĠS at
ĠNo bel
Ġro cha
Ġrespo nde
grou nd
Ġacrescent ou
Ġse co
Ġneg ou
Ġviol Ã£o
Ġcritic ado
Ġsobera no
Ġtelespec tadores
Ġma pas
Ġfic ado
Ġrevel ar
ĠFu ndo
Ġt ia
oc ra
ĠMu se
icia no
Ġparticip ado
atÃ³ rios
ĠCorr Ãªa
Ġmant iveram
ĠDa ve
Ġ189 2
Ġdi ri
for o
Ġmilita ntes
Ġexter nas
ĠmÃºlti plos
ĠL ind
Ã¡l ise
Ġperman ecem
ge nto
ĠCa b
Ġche ia
ĠGe ografia
Ġatra iu
Ġf us
ĠM orte
ĠM ala
ĠNa var
Ġino vaÃ§Ã£o
Ġ( ...)
Ġpar ques
Ġvaria nte
Ġprovo ca
Ġexpress Ãµes
Ġcere bral
A b
ÃŃ ticas
Ġna tiva
Ġmil ag
Ġholand Ãªs
qu al
ĠMa ca
Ġcorre dor
P ra
Ġamos tras
Ġavalia Ã§Ãµes
c us
ol er
Ġbreve mente
ĠD os
Ġda tada
ĠG rÃ£o
Ġ5 8
Ġaf et
Ġtransforma ndo
Ġre par
ĠB ei
Ġac ordos
Ġdire tora
ĠCa cho
ash i
Ġpreen ch
P oss
V o
is ma
Ġmascul ina
Ġconsecu tivas
Ġpreserv ar
Ġcolet Ã¢nea
d an
Ã§o is
Ġpro nto
ĠR ous
Ġal er
bel l
w ig
ĠB rito
ĠAr ch
Ġ188 8
ĠGon z
Ġimpul so
at her
ĠDo wn
Ġsurg ir
ma gn
ic ular
Ġmar g
Ġmant inha
gua ia
ĠF esta
ina mente
Ġata cado
ĠAg ric
ula ntes
Ġlu tando
z os
Ġse l
ul hos
Ġch eio
Ġdeclara Ã§Ãµes
ix on
ĠJord an
ã ģ
Ġta bel
ĠMa xim
Ġbus cando
r ida
in f
ĠMo d
ĠRus sa
Ñ Ģ
ĠP ie
Ġgra videz
Ġsobre nome
ĠsÃŃ tios
Ã© ns
ĠÃ© tica
ĠH D
ĠvÃ¡l ida
ĠGa Ãº
Ġmexic ana
Ġdis crimin
Ġdesaf ios
Ġri b
n ess
Ġdes p
ce ntemente
Ġsubstitu to
Ġe cl
ĠM ada
ĠAl gar
ĠCons idera
Ġlemb rar
C C
Ġmes trado
Ġsub ir
Ġdisp Ãµe
Ġdefens or
parta mentos
d icaÃ§Ã£o
Ġperf eita
ĠCh in
Ġme trÃ´
Lis boa
Ġar rem
Ġaco mo
v ina
ist indo
ec idos
ĠQu anto
ĠCaval eiro
ĠCle mente
Ġmanus critos
ĠCam peÃ£o
Ã³g icas
h ua
ĠD un
Ġtranspor tes
mÃ© dio
Ġremo Ã§Ã£o
ĠCrist Ã³
Ġp isc
Ã©m on
Ġri tuais
americ anas
ĠPres idÃªncia
e u
Ġf ras
Ġno caute
Ġac identes
Ġ18 50
ĠPu blic
lov Ã¡quia
Ġrec eitas
Ġmil has
Pa ulo
ĠComer cial
Ġoc or
Ġpere g
ĠLeopol do
Ġsa indo
Ġcont agem
Ġcele br
ĠBa ÃŃa
ĠC Ã¡
ĠAm Ã©ricas
B I
E D
ĠUn idade
ĠPe quim
Ġmuda ndo
L os
Ġa viaÃ§Ã£o
sen al
ĠG in
ĠFiguei redo
Ġt rÃ¡fico
en ne
yon cÃ©
Ġtermin aram
iter Ã³i
ÃŃde o
Ġalterna tivas
Ġprol ong
u ns
us tÃ£o
Ġju ntas
Ġapresent adas
Ġdefin idos
Ġi Tunes
Ġmis sa
Ġdivul gou
ĠVirg ÃŃnia
m ido
Ġpa rou
Ġpe nd
ĠLat ino
Ġaque cimento
ĠA th
Ġnas cida
ĠMusic al
p ta
ĠB it
Ġmu seus
ĠY o
Ġpas to
Ġcole tivo
ĠÃŃ nt
ĠJer ry
ÃŃ ticos
an ga
Ġenc am
Ġcolabo radores
ria Ã§Ã£o
triz es
Ġcamp us
Ġpos t
f ol
ia ng
Ġacompanh ou
Ġvil as
Ġopon ente
p r
ĠD og
Ġp ir
Ġno velas
Ġos te
ĠRe forma
ĠGu ad
as sa
Ġpre ferÃªncia
ĠSe x
Ġdire ctor
20 16
Ġint ra
Ġretor nando
Ġ |
Ġdes memb
Ġpri vados
ĠMora es
ĠCem itÃ©rio
l on
s ado
ĠA to
Ãºr gica
ĠToda via
ĠB est
ĠL us
Ġvir tu
Ġab und
Ġ189 3
Ġsepara da
Ġrepublic ano
Ġinter cep
Ġcont Ãªm
ĠLu d
Ġv inda
de ais
ĠCh al
ĠacadÃªm ica
me lo
Ġju venil
f s
Ġob ede
esse nta
ĠInstitu te
ĠTÃ©cn ico
Ġma estro
um i
ĠPro te
ĠAn ne
ĠG ru
ĠGa ga
Ġes s
Ġin espera
ĠB em
Ġcons elhos
Ġcolo cadas
ph ia
ĠBatal hÃ£o
W il
iz o
at oria
Ġdesenvol vendo
Ġ189 9
Ġpun k
ĠBus h
ĠN BC
ĠGeral do
Ġsag rou
ĠBroad way
B O
Ġdu ma
Ã³g icos
Ġesti mado
C har
ĠC urso
Ġre que
Ġne er
Ġargu mentos
Ġmagn Ã©tico
Ġsofr ido
Ġa tivamente
ĠCar ter
Ġs Ã©rio
Ġcond uta
ĠLib eral
Ġadul ta
Ã´m icas
Ġperf eito
E L
c tion
ĠInfant aria
Ġjuris diÃ§Ã£o
Ġmud ado
ĠmÃ³d ulo
Ġfale cimento
ĠcontÃŃn uo
ĠCa nd
Ġtotal izando
Ġacer tou
ĠE ar
ĠlanÃ§a ndo
lic ismo
Ġg rÃ£o
Ġex ames
Ġdec orrÃªncia
Ġderi vados
igh ts
t inha
Ġca ch
ĠÃģ ra
Ġ" âĢľ
D ra
ma g
tu ba
Ġgarant ia
Ġpla y
Ġped idos
ĠXX I
Ġfabrica nte
nta mentos
Ġnu me
Ġmon ges
Ġno ites
ĠL og
ĠPol it
ĠInd onÃ©sia
Ġin e
Ġra c
Ġ7 2
Ġ7 6
Ġmin eraÃ§Ã£o
Ġsens o
Ġsue co
ag an
ĠGra ndes
ĠIn vesti
Ġusa vam
ĠWh it
g ma
Ġlu xo
Ġclass ifica
ĠM r
ick s
eric Ã³rdia
Ġcos m
199 8
Ġmexic ano
Ġf Ã£
ĠA ber
Ġen f
Ġinstru mental
Ã¢ mico
Ġderi vada
ĠavanÃ§ os
me ndo
Ġg ale
Ġencont ros
T r
ĠV H
Ġen x
ĠCam bridge
Ġalterna tivo
Ġch Ã¡
Ġencome nd
Ġautoma ticamente
Ġide ologia
ĠIng lÃªs
Ġver tical
vil hÃ£o
n ou
Ġse questra
ur us
ĠRe b
Ġfund ar
ĠMe tropolita
Î ¿
ĠS ei
ĠR ud
ĠSa cra
Ġenvol ver
Ġdefici Ãªncia
Ġalien ÃŃg
Ġesc uro
Ġorient ais
L oc
Ġjog ado
Ġfra co
Ġmencion a
Ġmission Ã¡rios
Ġconven cional
ĠAlfre d
ĠD iz
Ġespe tÃ¡culos
ĠLinc oln
ĠP in
ĠHe art
Ġescolh idos
mar t
Ġfal sa
D N
R ol
Ġro manas
Ġgal Ã¡x
Ġanalis ar
ela mente
ĠMag n
A le
Ġdia gnos
rÃ¡ gio
v ÃŃ
Ã§ aram
Ġir Ã£o
ĠEsta t
Ġreiv indic
S im
Ġru p
Ġdesas tre
Ġre do
Ġh orr
Ġcl ero
Ġmer id
Ã´me tro
Ġrefugi ados
Ġde por
Ġf Ãªmea
B lack
Ġ188 5
ic ional
Ã©s ima
re nt
ĠL Ã³
lo tte
Ġsocial ista
al os
ĠNa quele
he cimento
Ġ6 6
Ġcon fe
an im
Ġaval iar
Ġco berto
ĠS oc
ĠMar ÃŃa
Ġg or
ĠHuman os
Ġa ula
Ġsur gem
ĠVic toria
Ġbic ic
Ġreman escentes
ĠArÃ¡ bia
id en
ĠO S
Ġdifere nci
Es tu
Ġinstal ou
Ġafric ana
ĠR esta
Ġpl Ã¡stico
ft wa
Ġjoga bilidade
Ġb Ã´nus
Do is
to licismo
ĠV ivo
our nal
Ġes la
Ġba teu
ĠDemoc rÃ¡tica
Ġconf ec
ĠLa bora
v iv
il Ã¢ncia
ĠCon vento
bras ile
Cas a
ĠAtla nta
Ġatrav essa
Ġsofre ndo
ĠCh er
Ġpou so
c ing
ĠPal estina
ĠRaim undo
Ġg el
Ġap rimo
ĠEs quad
Ġrec ord
ima mente
Ġlo te
Ġcabe Ã§as
ĠEstu da
Ġre b
Ġconsum idores
Ġins pe
ĠOr lando
p Ã¡
ou ra
ĠR eno
Ġprotagon istas
Ġco dice
ndes sa
ĠGo t
ÃŃnci pes
Ġante cessor
Ġvere adores
Ġre ndimento
ca ba
Ġof ic
ĠRos Ã¡rio
ĠEu g
. ).
L C
Ġp ian
Ġemo cional
cer ca
Ġpes ada
Ġnamo rado
Ġdese j
Ġdep Ã³sitos
Ġmorta is
Ġsantu Ã¡rio
ĠD entro
Ġurb anas
Ġcuid ar
h em
u k
Ġt ria
Ġter Ã§o
Ġpref ere
pes as
Ġarre cada
Ġmin i
Ġquar tel
ĠclÃŃn ica
ĠStor y
Ġse Ã§Ãµes
ĠS ingles
ĠI ugos
Ġdemonstra Ã§Ã£o
Ġmembra na
Ġac tividades
Ġ189 4
ĠSta te
man uel
Ã¢n ime
Ã© ias
ÃŃ cias
Ġestuda nt
Ġcostuma m
D T
Ġde po
ĠBo e
Ġint im
ĠRe ich
Ġeduca cional
ĠA ns
ĠR Ã©
Ġab rindo
ion Ã¡rio
ĠcomeÃ§ ado
Ġprop Ãµe
Ġsua ve
ĠAle mÃ£o
E P
Ġda no
Ġun ir
ĠÃģ gua
Ġeva cu
Ġsangu ÃŃne
qu el
f am
Ġp enas
Ġra ro
Ġcl Ã£
A ng
Ġmo ver
ĠK le
ĠbÃ¡s icas
ĠCamar go
ĠP MDB
Ġprevia mente
Ġpecu Ã¡ria
ed er
Ġcent ÃŃmetros
Ġreceb ida
Ġlat ina
orreg iÃ£o
Ġorig inou
Ġarm ad
Ġinclu ÃŃdos
Ġabsol uto
Hist Ã³ria
Ġcu ri
Ġessen ciais
Ġcanh Ãµes
Ġl agos
Ġest ÃŃm
Ġgra de
ĠBo ys
Ġnego ciaÃ§Ã£o
Ġadquir ida
Ġmod alidades
Ġocorre ndo
Ġviz inhas
Ġgal eria
ĠSyd ney
Ġfis cal
c Ãªncia
Ġb ale
ĠL ang
Ġsa ntos
ĠAmeric ano
ment ando
Ġpre ce
Ġfra ca
ĠHar vard
Ġm igraÃ§Ã£o
ĠM it
iz adores
Ġen ga
Ã³s io
ĠMa nd
Ġarran jos
h eira
Ã© e
Ġdivid idas
Ġconver teu
ĠC ry
Ġcu rios
Ġextra Ã§Ã£o
c ci
ĠM Ã£e
Ġfa una
Ġgoverna ntes
ĠS oro
Ġba ÃŃa
Ġinter c
Ġalte rar
ĠDil ma
Ġcabel os
a to
Ġin icio
Ġle nto
Ġbomb arde
Ã ¸
Ġre vo
ĠFranc e
Ġalgo dÃ£o
tera no
n ha
Ġcons oa
vi mentos
Ġnorma is
ĠMag no
Ġades Ã£o
ci ados
Ġimp lic
Ġdiv ina
ĠEd gar
Ġsufici entes
Ġvolunt Ã¡rios
s ur
Ġin comp
ĠJ ess
ĠCh urch
Ġpalest ras
ĠA ustralia
ĠUR SS
b ina
Ġforma Ã§Ãµes
- -
A u
Ġn ono
ĠPrin cip
ĠL inux
Ġrapa z
ĠF Ã©
h ire
Ġme di
Ġ6 8
tin ga
Ġde mas
me ia
Ġcon ve
oi nt
Ġfal ado
ĠavanÃ§ ar
Ġdesloca mento
> "
Ġco e
Ġbeb idas
to lo
ĠL ad
ĠestratÃ© gias
ĠMor ro
Ġcons erva
Ġdiv Ã³rcio
B R
ĠPu bl
Ġlongi tude
ĠHamb urgo
ĠK ei
Ġexpecta tiva
L ou
ĠO p
ĠCar ibe
Ġcir urg
ĠcÃºp ula
U F
Ġatu alizaÃ§Ã£o
ĠT it
ĠSo mente
Ġcontro ver
Ġanda mento
p ada
es is
era da
Ġengenh eiros
Ġbene fici
Ġestru tural
th ers
Ġado tada
ĠGre at
Ġque brou
ĠB ud
tens Ã£o
Ġsecre to
Ġpertenc em
Ġmelo dia
Ġo pos
ĠdÃº vidas
me tria
ĠJ ur
Ġob tida
Ġ7 8
ĠLo ren
Ġcorrespond Ãªncia
Ġc land
or t
Ġcom itÃª
Ġencontra ndo
Ġbar ro
Ġmatem Ã¡tico
Ġpergu ntas
x i
Ġa mo
ĠPrin ce
ĠLar go
Ġlib eraÃ§Ã£o
b ÃŃ
v ine
Ġj eito
ĠG am
tr ico
ĠH ei
ĠAr ts
Ġant ic
Ġmodern izaÃ§Ã£o
Â ´
Ġconspira Ã§Ã£o
gar os
ĠVasconcel os
Ġj Ãºri
ĠMar tinho
Ġexecu tivos
Par tic
Ġpesquis ador
cont ra
M ic
ĠB ri
ĠMa ce
Ġrefere m
lu es
ĠÃ©po cas
ric k
S ha
Ġme tro
Ġesti ver
Ġaux il
g y
N esse
ĠM Ã¼
ti veram
Ġt elas
em plos
Ġang lo
n u
Ġf io
ar ias
ĠB ia
Ġconsecu tivos
ĠGol fo
Ġs essenta
ĠD isco
ĠL G
ĠCa nt
Ġ(" "
sh ire
__ __
Ġob tenÃ§Ã£o
pe za
Ġespor tiva
ĠEvang elho
g ol
Ġra zo
Ġver ificar
ta ta
Ġcomp uta
Ġpoder osos
Ġexecu tada
Ġcompar tilh
if er
Ġmar ciais
Ġnome ados
ES CO
ĠBas ÃŃlica
ĠcÃ¢me ras
Ġrad icais
Ġn esses
ĠS tad
Ġser vem
Ġdesem pre
Ġexpand iu
199 5
u is
il lo
Ġado tar
Ġtens Ãµes
tra r
tÃŃ cias
ĠMor gan
ĠFerro vi
ale ceu
Ã¡u tica
il as
Ġdes pesas
Ġlingu agens
Ġdesapare cimento
ĠÃģ l
ĠBen fica
F und
Ã¡rb ara
P rin
Pa ul
N G
Ġvege tal
Ġchanc es
c orre
Ġil us
ĠC ient
Ġl ad
ĠU K
Ġconserv ador
Ġfro m
Ġdiscu tir
Ġatmos f
O C
ĠC ris
Ġempres Ã¡rios
Ġlite ralmente
in am
ĠBe yoncÃ©
Ġaplica tivo
Ġavis o
Ġv ola
Ġfutebol ista
Ġparla mentares
v Ã¢ncia
Ġno tar
Ġdefin iu
fici Ãªncia
mb erg
Ġor to
ĠB ona
Ġent ram
ĠMa ck
Ġintroduz ida
ĠC BS
Ġ9 8
Ġinicia tivas
F inal
Ġconf i
A na
Ġg Ã©
Ġintegra da
Ġmans Ã£o
Ġm Ã³vel
Ã³ cio
ĠFre ire
Ġabri gar
Ġche f
Ġcria turas
unci ado
ĠNas cimento
Ġren Ãºncia
Ġbloqu eio
D om
Ġmen Ã§Ã£o
199 7
ma ta
Ġre ve
Ġdefin idas
c la
p ers
ĠD ifere
ĠG aliza
Ġmelho ra
m ÃŃnio
ma ras
Ġv Ã¡
Ġcor rig
ĠEdu ca
ĠFlores ta
nt i
ĠIsa ac
ĠJohan n
ĠA P
il Ã£o
ĠG ala
Ġocorr ida
Ġcine asta
ĠCarn eiro
Ġbenef ÃŃcio
fre y
Ġdestin ados
f ere
Ġatu aÃ§Ãµes
In icialmente
le d
Ġdesign ada
ĠTrin dade
ic Ã¡cia
". "
P re
Ġter Ã£o
Ġven ceram
Ã©l ico
ĠsÃŃ ndrome
Ġmagn itude
l ara
Ġt Ãºn
gu Ã¡
ĠR ho
Ãªn ios
Ġhom ic
n ado
ed oria
Ġatu ava
Ġrefle te
M at
gra do
Ġatual idade
Ġcar tÃµes
dic ionalmente
Ġref rÃ£o
Ġefe tivo
Ġlegisla tivo
Ġpreocupa Ã§Ãµes
em bora
Ġcoorden aÃ§Ã£o
Ġem bal
Ġes bo
Ġin je
ĠDe an
ĠLo bo
cl ass
Ġcampon eses
Ġm ÃŃs
ĠT ed
ib i
ĠTur ismo
d ias
Ġpar Ã¢metros
ĠH ora
Ġacad emia
Ġdefini tivo
Ġextrem idade
ĠChristo pher
ga te
Ġdi eta
esta Ã§Ã£o
Ġfe bre
Ġsal vo
Ãºp iter
ro la
Ġsen hores
K a
ĠA Ã§Ã£o
ĠF aria
ĠPs ic
Ġauto bio
te ia
Ġsele Ã§Ãµes
Ġt ons
Ġens inar
Ġquad rado
ĠFl Ã¡vio
Ġrel Ã³gio
ĠA x
Ġte nde
Ġpes ados
Ġvi ola
ĠsÃ¡b ado
Ġpres as
ĠModer na
am Ã¡
ĠT os
ĠRe presenta
ĠPer ry
Ġinstitu to
Ġtribu to
ga ta
ĠTo ledo
Ġenvol vidas
ro d
Ġno iva
ĠD ur
embl Ã©ia
h ip
es pe
Ġv amp
Ġex ag
iss Ã¡rio
Ġdire c
Ġenvol vem
Ġcastel h
! ",
h ara
co le
Ġrap per
ul u
Ġvari adas
f fe
Ġpre co
Ġpe gar
Ġdefe ndendo
Ġdiagnos tic
ĠPor ta
Ġdu b
Ġqual idades
ĠPe tr
min as
ĠSa x
Ġju deu
Ġcidad ania
ĠRom Ãªnia
y mp
Ġd il
ĠS la
Ġ6 3
Ġopera cionais
Ġdesapare ceu
Ġcond icion
Ġassass in
Ġadicion ado
ĠF ei
g l
cri tic
ĠperiÃ³d ico
al gu
Ġdef esas
Ã©l ix
Ġcontribu ir
Ġecos s
b b
ĠNa val
ne u
Ġestabelec idos
ĠCou tinho
nt imento
Ġre in
ĠJu iz
Ġconven cer
P u
co a
Ġlu cro
th ing
ĠTo cant
Ġconcent ra
ĠGene bra
ĠU ltra
ĠW ho
Ġm igra
Ã³ cios
ĠÃ© p
M C
ens is
Ġ9 9
cent agem
Ġperd ida
ment adas
ez es
ĠAle mÃ£
ĠTa vares
Ġvaria ntes
Por Ã©m
Ġcrit Ã©rio
ĠC lubes
ĠMil ton
Ġgarant indo
Ġra Ã§as
Ġequil ib
Ġf ixo
ÃŃ odo
Ġpo ntes
ne to
dic i
Ġma rav
Ġadia nte
Ġpr Ã©mio
ĠLu xem
Ġpen al
Ġarm ados
Ġsurpree ndente
t tan
il hos
iz ava
Ġass al
ĠMar ga
ĠA h
ĠV inc
ĠS ports
de z
Ġre tro
idel idade
V al
ĠR iv
ĠT ito
Ġfa tal
Ġdivul gar
Ġargu menta
ĠvÃ¡l ido
to mia
Ġass embleia
Ġretra tos
ĠGeral mente
ĠBizant ino
Ġde partamentos
ei xo
ĠT Ã¡
Ġmen inos
Ġ Â°
Ġma us
ĠW right
Ġnerv oso
Ġhistor icamente
u til
vo z
Ġsubs idi
ĠÃģ r
Ġimped iu
A lex
ar m
il iano
Ġl ida
ha w
ĠCon go
Ġabandon ada
Ġestadunid enses
ĠPartic ipou
Ġf eira
Ġconduz iu
Ġrecu perou
Ġajud Ã¡
gu n
ĠW agner
Ġrela tÃ³rios
ĠS pace
Ġconver s
Ġneu tral
Ġguarn iÃ§Ã£o
ĠLite ratura
Ġdes er
ĠCha ves
Ġrep ris
Ġexpul so
P ela
in ador
ĠP ale
ĠAnd rea
Ġempre gos
Ġson hos
ĠN ich
Ġdia riamente
Ġsuste nt
ĠFrank lin
Ġanim ado
ĠSqu are
Ġesta rem
Ġrevel aÃ§Ã£o
h ol
Ġexig Ãªncias
Ġfru tas
Ġlibera do
Ġtriun fo
Ġnaz istas
ĠromÃ¢nt ico
ĠDemocra ta
ĠgrÃ¡ vida
Ġde pendente
ĠCh ild
Ġpre venÃ§Ã£o
Ġdisse ram
Ġsacerdo tes
a vam
in dade
Ġinterpre taÃ§Ãµes
Ġacredita vam
Ġharmon ia
Ġam ador
Ġ188 6
kes pe
B ro
ĠA de
Ġ6 2
Ġrele vÃ¢ncia
ÃŃ cula
cion ados
Ġins atisf
ĠBo ca
Ã± o
Ġcad eiras
Ġcontrol ada
C D
O ne
r ino
Ġle itor
ĠNo gueira
ĠPa nt
ĠPar te
ĠIns tru
D is
ĠW ind
rid ge
Ġse t
Ġver des
ĠJa va
Ã¡ss io
Ġaplica tivos
Ġafas tado
Ġcorre ta
Ġmolec ular
p aram
ra nte
Ġti j
Ġperman Ãªncia
Se us
Ġorganiz ados
Ġp Ã´s
Ġta bu
ĠBar reto
Ġasso cia
ĠinÃ©d itas
in ess
esse e
Ġreun iram
Ġfec hou
Ġnega tivas
Ġcomand ada
ĠOlÃŃmp ico
ĠAgric ultura
Ġins ul
Ġdocu mentaÃ§Ã£o
Ãºrb io
ĠV ÃŃ
cri ta
ĠPer man
199 6
t ch
v re
Ġ15 00
Ġ188 4
Ġpais agens
ĠL em
ixa mento
ĠArm Ãªnia
Ġcont ing
ĠCar deal
Ġant agon
Ġet n
Ġestabelec idas
og en
Ġus aram
ient al
Ġdiscipl inas
S T
Ġse quer
Ġess Ãªncia
M usic
Ġes per
ĠpÃªnal tis
Ġde lic
Ġbic am
Ġendere Ã§o
ÃŃ amos
ĠI an
Ġgra ma
Ġcons ole
Ã³p icos
Ġpu x
Ġrevolucion Ã¡rio
el i
Ġgoverna mental
Ġexpul sÃ£o
ĠL t
ĠV Ã¡rias
Ġquar tos
gu er
tu ma
ing en
ĠPo dem
ĠAus tin
Ġde tÃ©m
te au
ĠCas til
ĠvÃŃ nc
all y
Ġcomand ou
Ġcun hado
Ġma ra
ha us
ari edade
Ġlig ando
ĠM atos
ĠMul heres
T ur
p io
me u
Ġar mado
ĠquÃŃm ico
ura do
ĠelÃ©tr icos
Ġpro tocolo
Ġlu a
ĠFo nte
Ġdevo Ã§Ã£o
F u
x ia
Ä ±
Ġvul c
ĠhÃ¡b ito
n io
ra vo
gu i
and ro
Ġabund Ã¢ncia
ĠA TP
ĠF le
M em
nd ador
Ġap rision
Ġsa pa
ĠCh ip
Ġcal c
Ġexecu tados
ĠestratÃ© gica
ĠconteÃº dos
ĠMem orial
ĠVlad imir
Ã©s io
ĠCh el
are jo
Ġpion eiros
N esta
ĠB il
ÃŃ rem
Ġgerencia mento
to col
ĠP ena
at s
ver de
ĠServi Ã§os
ĠCristÃ³ vÃ£o
Ġn ad
Ġpre conc
ĠPro cura
Ġfavor ito
ĠOrtodo xa
el ar
Ġpol in
ĠGra nt
ĠPo k
ĠThe atre
Ġeletr icidade
Ġaleg ria
c aria
Ġhaver ia
Ġn ic
ri qu
Ġb os
Ġch ile
tolome u
Ã³p ia
Ġpoe tas
Ġtabel as
Ġd um
Ġleva ntamento
hel m
ĠSol ar
ĠGoi Ã¢nia
ĠDomin go
Ġfib ras
n orma
Ġas a
Ġfranc o
inos sa
Ġdivid ir
ĠGuana bara
Ġi ntes
Ġele vadas
Ġqual ificaÃ§Ã£o
Ġhos til
ĠcarÃ¡ cter
Ġbibliote cas
D an
Ġf l
int ra
Ġrepresenta va
Ġabri go
Ġforne cimento
lti mo
ĠquÃŃm icas
hei m
ĠW el
Ġtrag Ã©dia
Ġident ifica
Ġorg Ã¢nica
Ġacompanha mento
Ġdissol uÃ§Ã£o
ĠTai wan
ĠT ol
Ġlim ita
Ġtermin ado
Ġabandon o
ĠC idad
Ġesp ess
ĠGu y
Ġespera ndo
p ad
ĠPont if
Ġs ho
Ġpres tar
Ġtre ino
ĠTorn ou
) ".
ĠBa by
Ġfal am
ĠMon u
Ġcoorden adas
P ouco
Ġper na
Ġle ves
Ġaconte cimento
ĠMe ga
Ġelabo rado
Ġarrecad ou
ĠFloria nÃ³polis
Ġco ligaÃ§Ã£o
ĠEx iste
ĠM ix
ĠE ti
ĠN iterÃ³i
S ch
ĠF all
Ġele vados
cas o
Ġcontinu ava
che co
Ġincom um
an na
Ġex per
ĠMar s
ĠTa ilÃ¢ndia
Ġdivid iu
Ġtra iÃ§Ã£o
ĠEx posiÃ§Ã£o
Ġdrama tur
v ic
Ġprepara do
Ġvas os
ran Ã§as
3 00
Å Ł
Ġata caram
Ġcontribu ÃŃram
Ġfar mac
ĠT upi
Ġdo aÃ§Ãµes
Ġcomp lica
Ġmor rido
te ranos
ĠS C
Ġofere cem
ÃŃ no
ĠB ec
Ġto que
ĠAl iados
ĠR al
ĠRe cebeu
ite m
Ġcole cion
Ġqueb rar
mack Down
Ġ( ).
Ġca ro
ĠJ Ãºpiter
Ġfund aram
Ġenvol vida
Ġimpe di
ĠIndÃºs tria
Ġal inh
ĠPres biter
ĠO d
Ġexib ir
ĠVisco nde
] .
Ġa maz
ĠK i
Ġreconhec idos
Ġimedia ta
f atos
m Ã¡ticos
Ġun Ã¢nime
Ġcol ina
tur n
in de
Ġex ista
Car los
k ers
ific aram
Ġsegu idos
ard i
Ġbeb ida
Ġestima tivas
M ed
Ã¡ us
Ġtro nco
ĠLu ciano
ĠÃī vora
Ġcha pa
Ġdirig entes
Ã´m icos
Ġfec hamento
Ġdou tor
ĠÃĤ ng
qu ilo
anha ttan
in z
qu ando
Ġfo z
Ãºn garo
Ġresol ve
Ġemo Ã§Ãµes
ĠQue en
ĠS ie
Ġin oc
ec os
Ġinte raÃ§Ãµes
ioc es
ĠescÃ¢nd alo
gua io
Ġdist or
Ġres um
Ġforma tos
Ġag rup
Ġef icÃ¡cia
Ġcorre dores
x y
Ġe rud
Ġc ig
te ram
Ġh it
Ġfal Ãªncia
W al
ÃŃ nd
Ġfal ecer
Ġ188 7
Ġsof rimento
Ġproven iente
Ġcompet Ãªncia
Ġsubter r
Ġpromo cional
Ġconquista ram
Ġclassific adas
Ġasse ntos
ĠBa irro
ze ta
Ġveloc idades
trÃ³ i
Ġv ass
ĠAr tur
Ġfre guesias
Ġpl ural
ĠVe gas
ĠCro Ã¡cia
ĠLÃŃb ia
ÃŃ br
Ġgra f
Ġdista ntes
i quia
y an
Ġe ndo
ver sÃ£o
Ġsa ÃŃram
Ġmarca nte
ĠSport ing
Ġre ed
Ġ7 7
Ġpad ron
Ġcrist Ã£s
Ġsen adores
Ġrepublic anos
Ġd adas
la ce
Ġta ntos
quer da
Ġrespec tivas
Ã¶ r
ĠWay ne
al u
Ġtril has
Ġpecul iar
Ġbril ho
Ġp Ã£o
ĠP am
ĠSe a
ĠSa ud
Ġcompos itora
esp Ã©ci
Ġsubsequ ente
hec os
Ġfic aria
mina is
Ġcomand ado
ĠsÃ³l ido
Ġal vos
s in
Ã© us
Ġsul tÃ£o
ĠBel la
Ġante cip
Ġeditor ial
Ġsinte tiz
Ġ5 9
Ġne ur
Ġob ri
ĠK ent
Ġca tiv
Ins titu
O este
ĠR em
ne tt
ĠsÃ³ cios
ĠhÃ¡b itos
ou ri
ĠZ ero
ĠÃ¡rb itro
t istas
ins tein
Ġsepara r
ĠMat the
ĠGl Ã³ria
ĠOh io
ĠAlago as
ĠBoe ing
z entos
es pa
Ġrec lama
Ġvo leibol
Ġdele gaÃ§Ã£o
Ġa ve
Ġacab aria
Ġinfluenci ou
ĠDe u
Ġfun eral
mo d
Ġapare cimento
Ġamist oso
Ġf ile
ĠQu al
Ġreel eiÃ§Ã£o
C er
Ġbi ologia
Ġretra ta
bl in
Ġten ho
ĠM am
Ġpromo ve
Ġsof istic
ĠdÃŃ vidas
A t
Ġj antar
ĠMo on
Ġrecome nda
ĠÃĢ s
Ġvis Ãµes
mp os
ÃŃa cos
Ġcump rimento
ĠW y
Ġ187 1
Ġcro mos
ĠIugos lÃ¡via
Ġrepresent ados
Ġturn Ãªs
Ġexpress ar
ĠPas sa
f Ã£o
g ers
al th
ĠTe ologia
Ġarran jo
Ġgosta va
ĠN enh
Ġdescobri ram
ĠLuxem burgo
i ense
Ġen ormes
Ġpre lim
ĠL on
Ġ6 1
Ġband eiras
d ito
t ÃŃvel
Ġinvad iu
Ġl ixo
Ġmo nta
co tes
Ġal um
Ġvaria r
ĠUN ESCO
in du
Ġform adas
Ġproje tada
ier i
ork s
Fo ram
Ġsa bor
Ġpra Ã§as
Ġf isc
ras h
ĠcatÃ¡ logo
R I
m Ã¡
Ġp in
ĠC ip
Ġap elo
Ġpr orro
Ġdesco nt
Ġ184 8
Ġperf ei
Ġdesenvolve dores
Ġcor da
Ġdesco nte
ner os
P elo
me ral
Ġdes n
Ġdescre vendo
S ou
Ġc Ã³
un ham
Ġ18 40
Ġ6 7
ĠIn fer
Ġcir cul
r icos
me nos
Ġaf res
Ġingress os
trop ical
Ġg ros
ĠAugus ta
ĠFa z
id u
ĠA bel
ĠPri ma
ang er
Ġprivile gi
Ġpra zer
n ciado
ĠF Ã©lix
Ou tras
ĠeconÃ³ mica
ĠRous se
at Ã©
Ġhou vesse
Ġpu deram
Ġgu ardas
Ġcomercia nte
o ple
Ġn ou
ĠB Ã¡l
Ġdeter io
Ġpredo min
ĠD O
Ġm i
Ã³ ticas
Ġso zinha
Ġeste jam
Ġ188 1
ĠCome Ã§ou
Ġhola ndeses
Ġpian ista
ĠP rado
ĠO tto
iz e
ĠJu nto
Ġcorpo ral
Ġsabe ndo
Ġvas to
ĠCatal unha
nd u
ĠO bras
ĠUS P
isf Ã©rio
O l
Ġg rÃ¡fica
ĠFa ir
Ġ187 8
Ġ186 4
Ġproib ido
Ġtu bo
Ġn essas
ĠH ud
d ist
Ġesta mos
kespe are
Ġesc ura
ĠAl ma
Ã³r icas
Ġdiss emin
Ġlim peza
ĠAmb iente
Tra ns
Ġgra Ã§a
Ġutil idade
As so
Es tÃ¡
tern idade
ĠStal in
Ġestran ho
on so
n on
Ġde nsa
is tou
icas se
Ġenfre ntaram
ĠDou ro
H en
za ga
Ġde tri
ĠL il
Ġvo ar
Ġopera dor
pro duÃ§Ã£o
oler Ã¢ncia
Ġseman al
f urt
Ġt est
Ġpre ven
Ġrefer indo
ĠMont real
aren se
Ġmanus crito
D ire
b rem
Ġident ificados
Ġprofund as
Ġimpera triz
Ġros a
j ados
Ãº lia
tÃ³ lica
ĠIs lÃ¢
Ġanuncia ram
ĠM Ã©rito
ĠD iana
j ornal
v ing
Ġproje Ã§Ã£o
ĠGra Ã§as
Ġcapa cidades
Ġgaro tas
Ġcrimin osos
T O
Ġa pe
ĠGlo bal
Ġmassa cre
Ġnego ciar
ĠXu xa
le z
ĠT ara
ĠSo ciais
Ġcaus ados
Ġmed ir
ĠforÃ§a ndo
Ġcomporta mentos
er y
Ġre ma
Ġest ri
ĠEspa cial
ou d
Ġtra tava
Ġreg ul
Ġforne ceu
Ġanar quistas
ri x
ri ve
Ġdes lig
Ġta mb
Ġespa ciais
ha va
Ġocas ion
Ġaustralia no
vo a
ĠRo w
ĠAnt io
pas sa
Ġorganiz adas
ĠavanÃ§ ada
id ra
Ġrefor Ã§o
ĠTenn essee
Ġdo bra
ĠK han
Ġagra d
Ġc Ã¢n
Ġle aldade
ĠTe oria
Ġcompe tiu
ĠSte wart
ĠChar lotte
Ã³l icas
Ġguer reiros
ĠprotÃ³ tipo
Ġn ona
Ġdia letos
Ġreba ixamento
Ġperfei tamente
ĠS lam
Ġespecial izados
Ġrestaura r
ĠCin co
Ġagrem iaÃ§Ã£o
E les
Ã į
ÃŃ bal
ol ina
ĠEs co
Ġle ndas
Ġcri adores
Ġremo ver
ĠS or
ĠT rav
Ġ8 8
Ġdescri tos
Ġ6 9
Ġleva ntar
ĠdomÃ©s tico
m ers
Ġtur ÃŃstico
ĠAqu i
ĠTocant ins
Ġre estrutura
Ġj unÃ§Ã£o
ĠI N
Ġfor Ã§ada
Ġba tizado
Ġexclus iva
Ġconduz ir
Ġconserv adores
inga pura
Ġin und
Ġtre ina
Ġparticip am
199 2
Ġcarre iras
Ġexpecta tivas
ĠT iago
ĠL ÃŃngua
R ed
Ġco bra
po des
pos a
Ġesca vaÃ§Ãµes
Ġpredo minante
ĠV iv
Ġpa pal
ie v
Ġtrase ira
for t
E N
Ġest ro
ita nia
Ġcontinu amente
Ġprovo car
mp or
Ġrecon cil
ĠSh el
Ġsupri mentos
Ġconfer Ãªncias
Ġassassin atos
ce te
Ã³n ias
pira nga
Ġadministra tivas
ĠTele vision
ĠStan ley
Ġsa cra
et Ã¡rio
Ġsim ult
umb i
Ġpermi tiram
ĠP ais
ci fic
Ġba ck
Ġsuper visÃ£o
ĠMas ter
Ġembar caÃ§Ã£o
Ã¢m icas
Ġile g
ĠB Ã¡rbara
ix ada
ĠPara l
Ġconceb ido
htt p
aliz ados
Ġcin za
Ġobrig ados
ĠOlimpÃŃ adas
ĠM ys
se i
Ġpres tes
Ġasse ntamento
h in
ic ana
Ġcul inÃ¡ria
ĠSpe ars
x u
ĠC lo
Ġman ual
c ur
ĠFa ma
Ġobs tante
Ġcha ves
Ġaclam ado
ĠT ag
Ġenfra qu
c un
Ġfo rem
Ġme tropolita
Ã©m ica
Ġexib idos
Ġguer ril
Ġgr Ã£os
ad Ã©l
Ġgra va
ĠAtlÃ¢nt ica
Ġ11 0
Ġauto mobil
Ġmic ros
onal do
e ceu
ĠO bama
tro it
ud al
Ġinsta nt
c Ã³
ĠD inastia
he re
Ġra ras
Ġcer tific
Ġrevel ando
Ġfel icidade
Ġofic inas
v ila
ci Ãªncia
Ġin venÃ§Ã£o
Ġev ent
Ġmin im
ĠAcad emy
ĠMen ezes
ĠMo z
Ġau dit
ĠJo go
Ġsus pe
vent ura
ĠA ur
tu ou
Ġg ent
Ġc itada
ĠPar ker
Ġcaptura dos
Ġplan ÃŃcie
ĠK ings
Ã³d igos
Ġsupor tar
Ġprimi tiva
m Ã¡cia
Ġc itados
Ġtri go
Ġsemelh anÃ§as
E p
Ġde nt
Ġv s
ĠE is
tr ina
vel t
ĠAm y
ĠMeta critic
Ġtro fÃ©u
Ġrodovi as
l ados
Ġl aranja
Ġsens ibilidade
Ġamare la
Ġs inc
Ġpol o
ĠBu ck
ĠMarsh all
ĠT un
ĠJ en
Ġele ger
Ġtan que
Ġal co
Ġcontrol ado
Ġpun iÃ§Ã£o
Ġden uncia
ĠBeat riz
20 17
Ġbel ga
Ġabor to
Ġtribun ais
ta ru
Ġtempo ral
ĠEstat ÃŃstica
te res
ĠN ice
Ġcas ca
ĠMen or
Ġn Ã³
iz ador
Ġfor Ã§ados
ĠNo vos
Ġcru el
Ġfis i
Ġes f
ĠF ul
ĠL orde
ĠLa v
ĠOl iver
ĠPar Ã³quia
Ġclassific ar
Ġdefe ndia
ĠFÃ¡ tima
E M
Ġre lu
ĠF A
Ġao nde
ĠPeters burgo
Ġab el
Ġmin eral
Ġdestru iu
Ġexter nos
ĠL iceu
Ġar g
Ġconf ess
Ġer gue
Ġajud aram
d iu
Ġesc ravo
Ġimp resso
ĠUnivers itÃ¡rio
in Ã¡rias
po ra
co me
Ġpovo amento
Ġrea bil
zz i
Ġb ord
ĠT imb
Ġta pe
tÃŃ cia
ĠProdu c
bour ne
ar k
Ġcomple xas
duz ido
ĠRib eira
ĠM anhattan
Ġper u
Ġdel la
Ġabs tra
Ġconsum idor
Ġdomin ar
Ġinten Ã§Ãµes
Ġinfluenci ada
m us
lig Ãªncia
Ġoita vas
ĠE us
Ġentre gues
ĠSa cro
ĠAss u
ĠMan s
Ġ186 7
Ġenfra que
Ġum idade
Ġla c
Ġadminist rado
Ġdistribu ÃŃdas
Ġfabrica ntes
Ġdenomina Ã§Ãµes
qued os
ĠMace do
M ul
Ġor b
Ġdispon ibilidade
ĠFerra ri
adÃ©l fia
Ġdist Ã¢ncias
Ġinaugu rou
ĠEmp res
ĠB y
wal d
ĠRe volucion
Ġ18 30
Ġfal so
Ġpes adas
Ġcres ce
Ġx adrez
ÃŃd ias
id imens
Ġse cÃ§Ã£o
ĠH isp
Ġar ranc
inal do
Ġbura co
Ã© cio
ĠDa vi
Ġmin eiro
Ġproemin entes
Ġid Ã©ias
Ġexig iu
Ġrepe tida
mand ade
Ġc Ãº
ĠT este
Ġse qÃ¼
Ġinter ferÃªncia
Ġgera do
ĠmÃŃs seis
Ġma tri
Ġdia leto
z za
ĠG iu
ĠG estÃ£o
Ġo us
Ġart ÃŃsticas
Ġoper Ã¡rios
ĠSerg ipe
it Ã¡
Ġele g
ĠRo ose
Ġ188 2
jog ador
Ġv Ã©s
ĠD ion
Ġimp er
Ġinclu ÃŃdas
ĠBa ixa
Ġsubs tant
ĠReg ina
cam pe
Ġ186 1
ĠPens ilvÃ¢nia
u ch
Ġp isto
ĠJo el
Ġpratic ar
ĠÃįnd ias
Ġanf itri
C P
Ġmural ha
Ġlu cros
cent ista
So b
ng er
ĠRa mal
Ġsuj eitos
Ġsubsequ entes
io grafia
Ġind is
Ġil umin
Ġime ns
Ġda tado
ĠA ud
ment ados
erra do
Ġrepro du
Ġo v
ÃŃ der
ti te
Ġh ÃŃbr
ĠTo mato
Ġfemin inas
Ġ186 5
ĠBru x
Ġprovin cial
i enta
en berg
Ġres ÃŃduos
Ġad vento
ĠMe tro
anc y
Ġestrang eira
Ã³t eles
ĠAntio quia
ĠB ela
Ġas tr
ĠLÃ³ pez
T ri
Ġbizant ina
ĠN ag
Ġ9 6
Ġapare cendo
ĠNu no
ti er
ti que
Ġ9 00
ka i
199 4
ĠAlgar ve
Ġass inaram
Ġcircu itos
Ġinteress ado
Ġagricul tores
Ġc itar
Ġfo ge
V e
ĠA cre
ĠL lo
Ġpermi ti
Ġg la
Ġper su
Ġcasa mentos
ĠFol ha
ĠS ere
Ġpatriar ca
Ġmil ÃŃmetros
Ġment ais
Ġcomunic ado
an es
ĠC ia
Ġser via
ĠSe attle
Ġabsor Ã§Ã£o
Ġco uro
mb ar
Ġconta cto
Ġ187 5
Ġdes espera
ĠMa tem
Ġru im
Ġmortal idade
Ġim Ã³vel
Ġpatroc ÃŃnio
ĠA B
Ġb elo
ce des
Ġfor Ã§ou
Ã´n ima
Ġdiv isa
Ġafas tar
ĠhipÃ³tes es
ĠR ica
Ġsag rado
Ġflo ra
b ase
ĠAr cebispo
ĠFil me
Ġreflex Ã£o
ĠIgua Ã§u
ĠO ver
Ġlidera r
ĠquÃ¢nt ica
ĠR A
Ġ7 4
Ġ13 0
Ġ187 6
Ġ186 8
Ġcoment Ã¡rio
Ġtera pia
Ġno tou
Ġof er
To das
Ġdram Ã¡tica
Ġpreco ce
m Ã¢nico
ĠSha kespeare
Ġpira tas
d itos
es el
Ġsu posto
ĠMar ina
Ġcal ib
Ġmens al
Ġentrev ist
U R
f ico
Ġinstal ar
Ġtestemun has
ĠOrig inalmente
es o
ĠS pen
Ġrecep tores
Ġm ista
Ġpr ÃŃncipes
ĠJer sey
Ġlegisla tura
ti bilidade
ĠI mpre
ĠW ei
ĠMe ndon
ya ma
Ġvaz io
Ġdes pro
ĠG au
ĠBol s
Ġp uro
ĠR onald
Ġba charel
Ġgen erais
ĠM ina
pe nte
Ġmostra va
Ġcel ulares
ĠT inha
Ġrela tivo
Ġestre ito
Ġselva gem
d icos
Ġpres taÃ§Ã£o
Ġcres cendo
Ġsubstitu ÃŃdos
umb o
Ġm ira
iss or
Ġderro taram
ĠEd die
Ġliber tar
Ġprovo cando
ĠtÃ©r mica
M ag
t rio
ou gh
ich i
ĠFerna nda
ĠB ene
Ġlu zes
ĠTele visÃ£o
Ġnu vens
a tros
tÃª vÃ£o
Pres idente
Ġcria tura
Ġca tolicismo
Ã´ ma
Ġprov ou
Ġestat ÃŃsticas
ĠHarris on
ĠP Ã³
Ġca indo
Ġcomp rado
ĠAb d
B ig
Ġvo tou
Ġapo ntado
ĠJon athan
Ã³ ides
Ġade ptos
ĠromÃ¢nt ica
Ġpolu iÃ§Ã£o
Ġpinto res
ad el
ir mÃ£
Ġatribu i
b ios
Ġou tor
Ġnos sas
Ġvo tar
icion Ã¡rio
p am
ĠBa pt
Ġexped iÃ§Ãµes
Ġmerg ul
Ġj e
Por to
ĠÃ³ dio
ĠavanÃ§ ado
ĠAl f
Ð¾ Ð
os hi
ÃŃ culos
en hos
ha i
va velmente
Ġins ti
ĠG len
Ġfic t
Ġdesta ques
Ġequip ado
Ġtranspor tar
ĠAdam s
b ranc
te ral
Ġma cho
ĠL isa
Ġ3 50
Ġa titudes
co nte
Ġper sas
ĠFantas y
l ess
ĠE y
Ġan Ã¡
ĠLu ke
ĠCam inho
Ġrefere nte
ĠFran Ã§ois
clo re
Rol ling
Ġho p
Ġvis ÃŃveis
qu elas
ĠF lash
Ġso mbra
Mu itas
Ġcon gre
ts al
Ġescul tor
Ġlucra tivos
Î ½
Ġdesen hada
Ġ" ,
ĠM itch
Ġfa cÃ§Ã£o
Ġcond uÃ§Ã£o
Ġse dia
la ve
Ġsent idos
ĠSil vio
Ġflu ido
Nas ceu
ĠFran z
ĠTomato es
Ġdes po
Ġpoder Ã£o
Ġ188 3
Ġreceb idos
ĠSupre ma
b ros
la h
Ġfu turas
Ġprotes tante
ator ze
ĠIm pera
Ġaprend izado
Ġinf il
Ġtel hado
ĠWeek ly
V A
in co
pri ma
ĠBer k
Ġempre ende
en al
ĠN ash
Ġra ra
pl er
Ġespecial izado
Ġbar reira
Ġplan alto
Ġrepor tagem
ĠColo rado
ĠLÃŃb ano
Ġhard ware
Ġc ano
ĠT odo
Ġgovern ou
Ġefe tiva
ma ria
Ġt Ãªx
D P
Ġatras o
ĠFic ou
Ġbl ind
G re
dia n
ĠFranc esco
Ġvig ilÃ¢ncia
V ocÃª
ĠR as
Ġrealiz am
ĠJa zz
cess Ã£o
ĠAd riano
Ġlim itaÃ§Ãµes
Ġpromo vida
Ġfacul dades
Ġe vo
tu Ã¡rio
les sand
Ġrecep tor
Ġhomossex uais
ĠLar ry
Ġcruza mento
d le
em plo
ĠG ale
se ndo
cia na
Ġsolic itou
ĠP y
et z
ĠfilÃ³so fos
c rist
tra da
ĠCoo per
p ina
ĠM S
ĠP ers
Ġpare cido
Ġguitar ras
ĠMes quita
ĠRel ig
ĠP Ã©
ĠBou rb
s ul
er t
Ġvo tado
Ġadap taÃ§Ãµes
Ġcic los
ĠCO N
Ġindia no
ĠS A
Ġinc re
Ġsa ga
Ã¢n cio
Ġdiri ge
i Ã¡rios
un ar
Ġprior idade
Ġt irou
ĠF ogo
' m
S am
Ġan e
ter no
aliz Ã£o
ĠHe nd
Ġnega tivos
ĠS po
Ãº gio
ĠProf iss
ĠMich igan
ĠGol den
Ġexerc ÃŃcios
ĠcÃŃr culos
ĠC lasse
Ġro ch
ĠPal ma
i tivo
en er
vel and
Ġexpl ÃŃci
ĠGon zaga
Ġacess ÃŃvel
Ġde baixo
ad Ãªncia
ĠS ing
ĠL iz
ens as
Ġjapon esas
Ġpropor Ã§Ãµes
Ġrad ial
ria r
en es
ĠS ib
ul ando
Ã¡ss aros
Ġante ce
ĠD S
ĠH ell
au x
Ġtrabalh aram
Ġmand ado
Ġsupera ndo
ĠdomÃ©s ticos
ĠMendon Ã§a
Ġvo gais
Ġza gueiro
g Ãµes
Ġt Ã¡x
ĠI re
Ġtra Ã§ado
Ġpass aria
Ġnecess ita
Ġaproxima r
Ġdistingu ir
M al
Ġque rer
cer ias
Ġtermina is
Ġdes vio
Ġrec ordes
Ġdesta cado
ĠIl lino
Ġpolit icamente
Ġrin gue
ĠHa bs
O n
ÃŃ culo
ĠF Ã³rum
Ġfol cl
Ġdescri tas
ra tivos
Ġc zar
Ġau diÃ§Ã£o
Ġ8 2
l ler
ade qu
Ġesta riam
ĠK ane
Ġasse melha
Ġle nta
pen ha
ĠWil d
ĠIllino is
B N
Ġve ndo
ĠRa il
Ġge ometria
ĠN ilo
ĠH em
Ġeste ndeu
Ġalte rada
Ġencerra r
Ġapaixon ado
c esse
g Ã©
ĠS c
ĠM ec
ĠSam ba
ÃŃ rio
Ġmu ro
ur sÃ£o
Ġnas cer
Ġagro pecu
prin cip
Ġdes pe
ĠL enn
Ġnas ceram
ĠTe res
Ġconcorre nte
ĠGas par
h eiro
is Ã©s
ÃŃs ia
ĠNo vas
ĠCam inhos
W h
ĠP P
ter ial
ĠNa quela
ĠEx peri
Ġconsiste nte
Ġdescend Ãªncia
ĠInde pendente
Ġcostuma va
Ġdecis iva
Ġfras es
O rig
Ġco ver
ti es
Ġb uro
Ġof ÃŃcio
Ġamb ic
Ġmed iÃ§Ã£o
Ġconcent rar
d ad
ĠE C
de on
ĠG rav
ion Ã¡ria
Ġferrovi Ã¡rio
ĠPrem ier
K e
c is
ĠP lu
Ġcon gresso
Ġ187 7
ĠSta nd
Ġques tiona
Poss ui
Ġcomplica Ã§Ãµes
Ġevent ual
Ñ ģ
ĠAn ÃŃbal
ĠSw ift
Ġage nda
Ġpensa mentos
Ġcl Ã¡us
Ġgar ra
or tal
tor y
Ġdesa tiv
Ġinfant is
Ã³p ico
ĠLaw rence
Ġtestem unha
Ġdu ro
ĠCan ad
Ġdesf ru
roqu ial
Ġna ves
bur n
Ġcompara da
ĠMes o
Ġinstal ados
ĠTec hn
Ġestima tiva
Ã ĥ
ĠDal las
Ġdeseja va
ĠN H
Ġna vais
ĠH ad
Ġnacional idade
ĠmÃ¡ xim
Ġhe red
Ġsig la
Ġdes gas
Ġtransforma Ã§Ãµes
ĠPan amÃ¡
ĠMur ray
n ell
Ġra cial
Ġherd eiros
Ġcombo io
Ï Ĥ
ta mentos
Ġl os
Ġex istiu
Ġen ven
Ġpe ga
Ġrefere ntes
ĠLeon or
il idade
ros Ã£o
ele y
ĠStu dio
ĠNig Ã©ria
ti t
Ã©m ios
Ġconver ter
Ġc ito
ĠN an
lia n
Ġra iva
Ġinclu ÃŃram
Ġinf laÃ§Ã£o
Ġref rig
ĠAss unÃ§Ã£o
Ġdesa pro
Ġatribu iu
umb a
Ġpaul istas
ĠRoose velt
Ġt ig
Ġm ina
nda tion
Ġcontribu indo
lin es
ĠDar win
cont inental
Ġcora gem
Ġpropor cional
T endo
Ġma pe
Ġ0 1
ĠAu tor
Ġco gni
id ada
to on
Ġaf ec
Ġ7 3
Ġsen ado
ĠSho pping
Ġdescober tos
P op
v Ãª
ĠP aram
ut adas
Ġdecis ivo
Ġco ral
Ġse cular
ĠK y
ĠRog Ã©rio
Ġprivil Ã©gios
v Ã¡
Ġro t
ĠmolÃ©c ula
ĠApol lo
p Ã©u
Ã ¦
Ġque rem
se ppe
ĠI G
ĠLeg iÃ£o
Ġc is
Ġt Ãªnis
ie u
cha ve
Ġempre gada
Ġer rado
Ã¶ n
ĠD ir
ĠV ing
ĠPra ga
Ġargu mentou
ĠRes erva
ĠComa ndante
S p
Ġ ).
nc ar
Ġra ros
ĠCor tes
Ġdes istiu
ĠB ez
ĠCh i
Ġve tor
Ġdisc ursos
ĠPen al
Ġdisti nta
Ġimpression ante
ĠBrit ish
Ġt estamento
ĠMa uro
Ġev itando
Ġrelacion amentos
c tores
ÃŃ ria
ĠC rÃŃ
ci osa
Ġfer imentos
Ġpresid entes
Ġex ci
Ġesc asse
Ġlogo tipo
ĠdomÃ©s tica
ĠFemin ino
Ġass us
ĠIng les
Ġcorrespond entes
ton es
199 1
Ġesca pa
Ġatravess ar
ĠEner gia
ĠMaced Ã´nia
H u
T ime
ĠAr mando
ĠOl d
Ġinc er
Ġadap tar
Ã©d ias
ĠT s
Ġsignifica tivos
Ġmedie vais
Ġpartid Ã¡rios
Ġal usÃ£o
ch in
anh ou
riz ona
Ġge o
Ġanim ada
ĠdiscÃŃp ulos
Ġpir Ã¢m
per idade
Ã³n ico
Ġf le
Ġdo entes
en ix
Ġcur tos
ĠDes ign
Ġdeclara da
Ġalum ÃŃnio
i tiva
ga me
og rÃ¡fico
Ġperman entes
ĠImpre nsa
D entre
Ġreg imento
Ġresp eita
cle o
jec t
ĠMal ta
4 00
j ando
or dem
mp son
ĠEs tÃªvÃ£o
ĠÃº teis
ĠPh ill
Ġrod adas
Ġun iu
Ġ16 0
ĠinÃ©d ito
Ġm istÃ©rio
Ġencerra ndo
Ġfilma gem
p se
Ġs olares
ĠTro fÃ©u
Ġcon vida
ion ista
Ġir ra
Ġleva va
Ġaustr ÃŃaco
C idade
es tou
te bra
ĠG ul
ĠMo ntes
ĠFil adÃ©lfia
Ġremo del
Ġinvas ores
Ġb orra
Ġmo rais
itan ic
ĠfotÃ³ grafo
Ġrup tura
Ġrecomp ensa
adju vante
z ile
ma ntes
ag en
Ġcal ifa
Ġsonor idade
199 3
Ġmarg inal
Ġexper imento
Ġf ur
ĠMu ito
s or
Ġf an
Ġre ina
ĠBa ck
ĠFa b
Ġlingu ÃŃstica
Ġdiminu iu
Ġfir ma
Ġtro car
Ġcomun a
Ġ187 2
Ġlivre mente
D F
ro id
Ã¡ cios
ĠQu ÃŃmica
ĠDan i
Ġsufici entemente
ĠArm s
Ġembaix ada
Ġinterval os
ĠD ele
Ġval es
Ġprim Ã¡rias
Ġprev Ãª
ĠBry an
Ġin ev
ĠDe troit
Ġate ntado
ĠBob by
Ġt esta
Ġse ts
ĠR onaldo
Ġob tiveram
Ġ7 1
Ġcapital ismo
Ġtraz ia
Ġgovern ar
ĠC ena
Ġbil hÃ£o
mb al
ona ro
ĠIs l
Ġrejei tou
T I
T om
ĠB Ã³s
ĠF ria
ĠTru mp
ĠPresbiter iana
L et
ĠC ine
ĠD enn
ĠEm my
Ġcobri r
s che
Ġdo ou
pl an
Ġapo ntam
Ġtes ouro
Ġsacrif ÃŃcio
e tas
ĠK on
Ġdec adÃªncia
her ine
Ġsuperf ÃŃcies
w itz
Ġ Ã³s
Ġco g
Ġte tra
ĠPro mo
Ġparc ela
c ica
Ġre da
Ġdes ag
Ġus ina
Es tes
ester n
Ġviole nta
Ġespess ura
Ġsu posta
ira l
ĠtÃŃp icas
ĠB eck
ĠF igh
ĠGa binete
Ġsobrev iveram
ĠSum mer
Ġcomple mentar
Ġdese jos
ĠPontif ÃŃcia
s ias
ĠM C
ĠMa rechal
Ġtur ma
Ġconsol idaÃ§Ã£o
Ġceleb rar
Ġ iam
ĠG Ã¶
Ġle u
Ġinter rom
Ġn estes
Ġbrin quedos
j in
199 0
Ġagra ciado
ĠN Ã³s
ba nd
Ġ14 0
ĠArqu idiocese
P edro
ÃŃl ico
Ġreceb ia
Tr Ãªs
Ġinc on
Ġcolo mb
cle ar
Ġ187 9
Ġpra tos
Ġmon ge
Ġprome teu
Ġt Ã³x
ri er
Ġpr Ã³s
ĠPa blo
ĠIn formaÃ§Ã£o
ĠAt riz
Ġquant ia
fon es
Ġassist ido
Ġhebra ico
Ġd aria
Ġme us
ĠCa ma
Ġapro fund
Ġsocial ismo
Ġdezesse te
ĠA L
Ġmu ros
cri pt
Ġsedi ado
ĠolÃŃmp ica
co ntro
Ġcas aram
cu o
Ġpal cos
Ġcore ano
h ad
re ta
ĠE ur
gu na
ĠpÃ´ r
f ro
P M
Ġc Ã³digos
du to
Ġcar deais
198 9
Ġg Ãªme
Ġte Ã³rico
Ġdesco brem
Ġbru tal
p pen
ia to
Ġsob rinha
Ġreg Ãªncia
Ġcer tificaÃ§Ã£o
Ġ9 2
Ġconven cionais
Ġmanifesta ntes
Ġpe gou
Ġdiminu i
Ġn Ã¡u
Ġinc orre
ĠRo tten
Ġcoma ndos
Ġabsol u
ĠCel so
Ġe co
Ġre nder
Ġper io
Ġfro ntal
b ou
Ġres gat
Ġob tÃ©m
gre di
Ġrefor Ã§os
Ġfogue te
n idade
Ġc itando
res p
Ġma tÃ¡
iss as
ĠWil helm
Ġhe ter
Ġfec har
Ġconcorre r
ĠLG BT
Ġ( ,
Ġgra nd
Ġespal hou
Ġle ma
Ġpes os
Ġregress ar
Ġda tam
Ġcont atos
Ġar ca
ĠCam panha
ĠGra ham
Ã³d romo
Ġposi tivos
ĠBrux elas
Ġor bita
ĠComp u
ÃŃ as
Ġretra ns
Ġpeda Ã§os
ĠAlbum s
Ġpar to
Ġar gentina
ul adas
lig ht
Ġado p
ĠCap itania
Ġautom Ã³vel
ĠEti Ã³pia
E A
ĠD este
ĠH og
ĠW it
Ġ8 7
ĠCal das
et Ã¡ria
Ġr icas
Ġmovi mentaÃ§Ã£o
Ġtera p
Ġest er
Ġenc aix
et ta
Ġaz uis
t ian
Ä į
Ġan Ã©is
ĠÃ¡ cidos
ĠSh in
Ġexplo ra
ĠN em
Ġle ito
ĠK now
Ġequ iv
Ã³n icas
me z
na tural
Ġpar ciais
og rÃ¡fica
ĠJa pon
Ġime nsa
Ġencam inh
Ġn Ã³r
val do
Ġ8 1
Su as
re tt
Ġdis posto
hia go
Ġmencion ada
Ġcad eias
Ġrebaix ado
ĠU b
Ġac ho
ĠCa be
Ġpromo vendo
Ġbal ada
ĠChel sea
Ġn itro
Ġens inou
Ġaber tamente
Ġhabita t
Ġreduz indo
ĠHan na
ĠAnt Ã¡r
ĠpartÃŃ cula
Ġimpera dores
he u
ĠSu dÃ£o
Ġ7 9
Ġativ ista
Ġbar ras
Ġadmi tiu
ĠArist Ã³teles
Ġre daÃ§Ã£o
Ġimp eriais
Ġconse qÃ¼
ĠFor t
Ġtax on
rou nd
ĠAr que
Ġfal ada
ĠtÃŃp icos
Ġafric ano
ta h
Ġvul ner
Ġpatrim Ã³nio
ĠTerc eiro
cab ana
Ġax io
Ġper nambu
Ġesta rÃ¡
ĠLa ure
ĠTh is
Ġculmin ou
! ".
ĠF os
ĠI grejas
Ġord ena
Pos teriormente
m id
ra gem
Ġ8 4
ĠFre guesia
ĠP ico
Ġinc idÃªncia
ĠÃģ rea
Ġmant Ãªm
w i
Ġd inossa
ĠV ik
Ġab Ã³b
Ġho tÃ©is
ĠBa ch
Ġtri logia
Ġaconte cendo
ĠSou l
g ramas
ĠsÃ³ dio
Ġgol pes
Ġobrig atÃ³rio
W C
ne a
Ġ9 7
ĠNeg Ã³cios
Ġre pri
Ġre pel
ed es
ĠegÃŃp cios
Ġoriu ndos
res tle
ĠSe mana
ĠAs tro
Ġcred itado
Ġpolon Ãªs
Ġpseud Ã´nimo
B at
Ø §
Ġdo nos
ĠP le
ĠGra Ã§a
Ġconver tido
ĠWal ker
ĠPÃºbl icas
Ġdiscrimin aÃ§Ã£o
ra tivas
ĠG i
Ġper do
ĠMer cedes
Ġcontin entes
ĠTrans portes
Ġderru bar
j an
t hor
Ġp ilares
cra tes
we et
Ġc adÃ¡
le iros
Ġcomemo rar
Ġestat ÃŃstica
ĠE ver
ut ela
to los
Ġl us
ĠH at
cion ista
Ġlig ar
I mp
ga wa
ĠPla tÃ£o
Ġarque olÃ³gicos
ĠForma Ã§Ã£o
ĠÃŃd olo
Ġtrav ess
Ġcativ eiro
z el
nc os
Ġ8 6
Ġnacional ista
Ġacus ou
Ġdelib era
Ġimpe de
Ġescoc Ãªs
ĠGal ile
ĠTom Ã©
Ġcomanda ntes
Ġhorizont al
fl ix
ns t
Ġap ura
Ġper pe
ĠAmb as
Ġsin dical
il s
ite nta
Ġoc idente
Ġne ocl
f ora
j adas
Ġres idente
Ġfa cÃ§Ãµes
Ġnas cente
ĠMa ci
Ġpol a
ĠMo rais
ĠCon forme
Ġdele gado
Ġprote ge
v Ã¡vel
Ġs ile
ad io
ĠA berto
Ġv ara
ti lo
vam os
Ġdifere ncial
Ġconstitu ir
mu ito
Ġouvi u
Ġinves tir
qu ez
Ġroub ar
ĠN oroeste
Ġsegu idas
Ġvo ca
Ġconden ados
n se
Ġdiv indade
Ġcaracter ÃŃstico
bur gh
Ġrefere ndo
Ġat letismo
ĠBa yer
Ġganh os
ĠGar y
Ġinvas Ãµes
te ve
ve nte
Ġdeix am
vid Ãªncia
Ġint imamente
ĠPortugu eses
ĠConstitu inte
Ġrebel de
vi as
Ġmatr icul
D ou
ĠL ike
ĠAss emblÃ©ia
ĠAg ro
Ġmotor ista
ĠG all
Ġvol tas
forma Ã§Ãµes
Ġfen Ã³
Ġlabora tÃ³rios
ĠolÃŃmp ico
i adores
ci f
cion a
Ġsegu ia
Ġenc ant
oria no
pen so
Ġconven ceu
tocol mo
Ġtec lado
ĠTen ente
Ï ģ
Ġv inham
Ġpre de
Ġresul taram
ĠSha k
ĠKe y
Ġpse udo
Ġenc h
Ġim ortal
Ġhabita Ã§Ã£o
Ġex posto
ĠEm ma
Ġba res
gra nde
Ġforma is
Ġim Ã³veis
ĠPom peu
ĠJ ung
ĠEd ge
Ġviol aÃ§Ã£o
ĠCrist Ã£
Ġs Ã¡
ĠT ou
Ġj un
ĠMo isÃ©s
ĠTi ju
Ġdign idade
ĠPa triar
ĠZ en
ĠAma ro
Ġempreend imento
Ġsecund Ã¡rios
D I
Ġre tal
ĠS as
Ġino vaÃ§Ãµes
rea u
Ġparticipa nte
ĠDra gon
Ġrend iÃ§Ã£o
Ġus os
Ġcal cular
D O
ĠP Ã³s
Ġpa u
Ġesti mul
Ġmod ificado
ĠFa ro
ĠPr Ã©
af ric
Ġde dos
Ġf ing
Ġcontra tada
Ġga to
Ġconsul ta
ĠJ ournal
Ġdep Ã³sito
ĠMis ericÃ³rdia
Ġ icon
Ġreg isto
Ġconju nta
Ġcomb inado
ĠMonte negro
Ġpros peridade
ĠCrist iano
Ġescal ada
P ass
Î ¹
Ġdist Ãºrbios
Ġmos a
Ġdeclara r
Ġ186 3
anche te
e uro
Ġex tras
Ġbas tidores
Ġ187 3
ĠF ight
Ġau tent
Ġun ificaÃ§Ã£o
ĠHer bert
Ġ187 4
Ġforn ecem
Ġprision eiro
ĠP eixo
ĠSe is
Ġdestin adas
ĠCle veland
ĠO per
Ġcr Ã´nica
ĠRa cing
Ġcorre u
Ġdeclara ndo
Ġefec tu
k ura
ĠT ira
Ġdi Ã¡ria
Ġtestem unho
B al
Ġ 00
Ġal mo
Ġal mirante
Ġpres erva
Ġfe deraÃ§Ã£o
Ġsent ia
Ġconstitu indo
Ġesquad rÃ£o
Ġfa nt
cul tura
Ġrefor Ã§ar
Ġancestra is
ĠCacho eira
f fer
s il
Ġo rel
ĠL agos
Ġant iguidade
Ġconsegu ia
ĠIn fante
ĠperiÃ³d icos
ĠSaud ita
e qu
Ġle n
tÃ¡ vio
Ġlig as
Ġincorpo rado
Ġcancel ado
ĠFou ndation
ĠBols onaro
Ġescasse z
Ġma rechal
cion ismo
che vi
ĠEspera nÃ§a
me t
ĠAd vo
Ġliber tado
Ġincorpo rada
Ġsuger ido
tera pia
Ġs ino
Ġedu cado
198 5
ĠPS DB
Po de
" -
ĠC anto
do wns
Ġcorre to
Ġinv ic
Ġaustralia na
Ġdra gÃ£o
B er
Ġve terano
ĠTo wn
Ġleva ntou
ĠBro thers
Ġtrip ulantes
Ġsub je
ĠLlo yd
ar io
ĠA rizona
Ġ" [
Ġal inha
ĠalcanÃ§ aram
al ena
ĠD as
cas t
ĠRenas cimento
v on
ita ram
Ġpa cotes
to logia
en hor
mo der
Ġsignifica va
Ġrev est
ĠRes ol
ĠgÃ© neros
f ec
ra no
ĠL ast
mb os
ga vam
Ġvolta ria
ĠMÃ© dici
Ġremo vido
Ġpens ou
Ġgovern adores
ĠMart ÃŃn
ĠEvan s
E r
p ent
t ha
ma co
ti la
ĠOr d
ĠSal om
Ġdomin ado
g rupo
Ġcontra par
Ġaument ado
ĠD esse
fici entes
ĠPok Ã©mon
Ġv ita
ĠM ino
Ġjo elho
ventu almente
Ġrecorre nte
Ġconex Ãµes
ĠKir k
Ġdegra daÃ§Ã£o
Ġidos os
p rise
Ã³ dia
l ou
m ic
w ich
ina Ã§Ãµes
Ġed itores
ok o
Ġatribu iÃ§Ã£o
Ġ186 2
ĠBrig ada
qu ÃŃmica
il ho
Ġna tivo
rit m
Ġinteress ados
Ġjul gado
d iversidade
x es
Ġinter venÃ§Ãµes
Ġcontribu i
Ġe go
ÃŃs se
Es tre
Ġtoda via
oc as
Ġvaria ndo
Ġfis icamente
ĠPeixo to
k el
ĠF ase
Ġins tÃ¢ncia
ĠS yl
ca cia
ch an
ris h
Ġmerc en
Ġhomenage ado
G S
c enta
in hÃµes
ĠS ad
ĠAr ra
dou ro
Ġpote nciais
Ġadicion ar
ei m
Ġba te
Ġlev aria
Ġmin oria
Ġafil iada
Ġre itor
Ġsub ida
ĠAr senal
lÃ¢ nd
ĠG un
Ġdu eto
Ġgrav ita
Ġinsta bilidade
Ġobserva ndo
Cons idera
Ġse parou
ĠS ent
ir mÃ£o
za mento
ĠSh ar
Ġexer ce
s im
Ä «
no do
Ġtri Ã¢ngulo
ment aÃ§Ãµes
Ġne ta
Ġdemonstra do
sequ entemente
ĠespÃŃ ritos
ĠP Ã¡s
via no
Qu anto
Ġfin anÃ§as
Ġdecid em
Ġmant idos
Ġcomand ar
Ġsug estÃ£o
ve te
Ġca ixas
Ġfuncion ou
Ġatribu ÃŃdos
Ġacus ados
ĠStu art
ĠVar s
ĠeconÃ³ mico
F am
ĠC R
ir d
Ġpar ti
ĠNo me
Ġsete nta
Ġatribu tos
Ġingress ar
ĠCE O
Ġvola nte
din Ã¢mica
ri on
ĠMa h
Ġresul tar
Ġregist radas
Ġmater na
Ġ186 6
G O
ro v
ĠBourb on
Ãĥ O
N Ã³s
c Ãª
ĠSe an
Ġestrutura is
Ġcandida ta
Ġge ografia
Ġban ho
Ġdit ador
ĠmarÃŃ tima
ĠRodo via
ĠJa pan
Ġgrav aram
ĠPol Ã³nia
Ġpresid enciais
C H
ta mb
Ġprodu tividade
Ġastr Ã´no
Ñ Ĥ
er ias
Ġin gredi
ĠV ill
ĠSem pre
Ġpratic ado
ĠtÃºn el
b una
Ġf este
Ġdes l
Ġcon form
Ġpe tro
Ġdesenvol vem
ay a
ic il
Ġmater no
Ġcerim Ã³nia
Ġdin am
Ġincl inaÃ§Ã£o
el agem
Ġdes tro
Ġtra duÃ§Ãµes
Ġinc rÃŃvel
ĠTe jo
Ġcir cula
Ġ186 9
Ġnar iz
Ġcaver na
ĠHe in
Ġdenomin ados
Ġcomercial izaÃ§Ã£o
volu tion
Ġmeta bol
n is
Ġinter iores
Ġmon ito
Ġexa ta
ĠEr n
Ġinvad ir
d d
ĠRa in
Ġafas tamento
C ri
b Ã£o
Ġap osta
Ġcor tar
et ti
Ġconstru ÃŃram
Ġsen Ã£o
Ġpergu ntou
Ġinvest idores
ĠGri ff
ĠEsquad rÃ£o
n ik
cios as
Ġdedic ados
Ġsens ÃŃvel
Ġsil Ãªncio
Ġresga tar
u ke
Ġobrig ou
Ġadvo gados
Ġpne us
Ġflu tu
Ġpertencia m
ĠfreqÃ¼ entemente
Ġacident almente
ĠGiu seppe
ic ismo
Ġexig indo
Ġselecion ados
Ġ ×
tica is
Ġrep ou
Ġterror istas
ĠRol ling
F ol
Ġd id
Ġb lues
Ġfinal izaÃ§Ã£o
anÃ§a mento
und er
Ġmont ado
Ġbat ida
G B
ta g
Ġac har
que tebol
ĠAle nte
way s
ĠN athan
og ia
forma nce
Ġ8 3
Ġla v
Ã©tr icos
Ġarquite tos
ĠBet h
Ġtelevis iva
ĠGuer ras
Ġespalh ados
ĠF itz
Ġdivul gada
Ġespanhol as
Ġmode rado
ĠD ura
Ġcard ÃŃaco
ĠPsic ologia
b ria
u no
ĠemprÃ©s timos
Ġmons tro
Ġde cep
ĠI o
Ġto cada
ĠRa chel
ĠCamp bell
Ġcelebr idades
M er
um as
ĠCas tel
Ġpertenc er
Ġsuste ntar
Ġconden aÃ§Ã£o
Cas ou
Ġilustra Ã§Ãµes
te nc
ĠLa ke
Ex iste
198 7
Ġanim ados
ĠStad ium
ĠW ii
Ġarqu iv
Ġgen er
can Ã£
Ġate nde
ĠMal Ã¡sia
ĠTrabalh ista
ĠR ia
Ġcl Ã©ri
Ġdesen h
gal o
em ias
Ġy ou
Ġi gn
Ġpro fer
Ġal erta
rÃ¡ ul
urs Ãµes
Ġexcel Ãªncia
Ġfal hou
Ġespecial izaÃ§Ã£o
ĠTho mpson
m Ã´nio
ane amente
Ġmon op
Ġmilita nte
Ġpron uncia
ĠK la
Ġarquite cto
Ġpred adores
ĠRobin son
Ġcome dia
ĠJu vent
Ġtu ber
Ġhabi tual
d eiro
Ġg Ã³tico
ĠItal iana
A ra
ĠF ant
Ġdes ar
Ġsignifica ndo
Ġexpress ou
Ġsobreviv ente
Ġestran ha
Ġevang el
nd or
ĠG oul
Ġreg rav
Ġapo iada
Ġconte x
Ġgram Ã¡tica
Ġmano bra
Ġca os
Ġacha va
ro ma
Ã´n imos
ĠLegisla tivo
ĠMuse um
Ġma la
Ġdes via
Ġp ente
Ã³ ide
Ã³ fica
gu itar
rio ta
Ġchama m
ĠParana ense
ĠG an
Ġan jos
Ġla vou
xim adamente
ĠvÃ¡l v
ĠSci ence
Ġp Ã¡ssaros
ĠC res
ca be
olog ista
cam po
M B
S O
Ġf idelidade
nc la
nde d
ĠFa me
Ã©cn ica
Ġcob ranÃ§a
ĠChip re
ĠSpen cer
Ġse io
Ġre ple
gr idade
ĠNo w
Ġple be
Ġt Ã¡
Ġqu atorze
Ġma ne
ĠW er
ĠRo que
Ġcorrespo ndem
Ġaut Ãªnt
Ġborra cha
l ite
Ġe rig
Ġno tor
ĠRe un
ela nd
Ġarte fatos
ĠCont inental
ĠGar c
ltima te
Ġf ria
ĠQu em
ĠFu nda
Ġindic ou
ĠVa z
Ġdepend em
Ã§ al
Ġin adequ
Ġcas tan
ĠAr ro
ĠmÃºs culos
Ġmod ificaÃ§Ã£o
Ġpare nte
Ġusu almente
i ed
m estre
ĠV Ã´lei
Ġcas ais
gra ph
Ġnas cidos
ĠTur ner
Ã³qu ias
Ġ8 9
z ig
Ġt on
ri tal
Ġdu elo
Ġjog ada
D em
Ġcar tu
Ġmar quÃªs
Ġatu am
ĠVars Ã³via
ĠCo orden
Ġmar inheiros
Ġcente nÃ¡rio
ĠCÃ¢ ndido
Ġorb ital
Ġf ina
Ġl um
Ġta ntas
ĠDe ath
ĠPass ou
qu ara
Ġtransfer ir
Ġdescri Ã§Ãµes
Ġarquitec tura
ĠM inho
Ġb ala
ĠCo mb
Ġep iscopal
ĠSant uÃ¡rio
Ġliter Ã¡rias
r Ã³p
ĠSa ntar
ĠAc ordo
Ġn ec
Ġfor tificaÃ§Ãµes
pu seram
fa be
ĠTe odoro
Ġbru to
Ġsubdiv id
Ġhorr or
Ġestudant il
H F
tÃ¡ ce
Ġsen hora
Ġante cesso
ĠBarb ara
Ġgrave mente
ĠM anchete
ĠQu eiro
oria is
. :
ĠLa cer
Ġtrabalh ador
Ġsucess ivamente
Ġfug iram
ĠIB M
Ġtoca va
ul k
ĠCl inton
Ġconclu i
ĠNet flix
Ġinqu Ã©rito
ĠJenn ifer
ĠRe do
Ġcr Ã¢nio
Ġobs tÃ¡culos
Ġav Ã³s
Ġgera da
ustr y
ĠPS D
ĠNorma lmente
ĠÃ©tn icos
Ġmanc has
Ġabunda nte
C u
m pe
Ġat ro
bo t
ĠBa ixo
ane amento
ĠHe avy
Ġnarra dor
Ġoto manos
Ġcromos so
C entro
o bra
Ġm itos
ĠG and
ĠEs tocolmo
Ġver bo
ĠLe ge
Ġcole c
ĠcÃ¡l culos
Ġarrem ess
O bs
Ġg eno
do nt
ĠT at
ba co
ĠHu nter
W hat
á ĥ
tu to
Ġsecre tamente
Ġequival entes
in ente
al es
.. ."
ĠgaÃº cho
Ġref Ãºgio
Ġnacional istas
Ġbar roco
ĠInte l
ĠV ie
Ġle Ã£o
Ġempre e
rÃŃ culo
Ġcruz ados
Ġnotor iedade
j ano
ĠS ard
ter ias
ĠCont inu
Ġobserv ada
Ġesp elho
Ġhomossexual idade
ĠD ivers
Ġdes vant
Ġteat rais
ta ra
Ġh tt
ĠEm il
ĠNo tÃŃcias
d ale
Ġ185 9
Ġsof rem
fu tebol
Ġt rig
Ġestu dado
Ġtro Ã§o
Ġnacional ismo
Ġintroduz ir
Ġevolu iu
Ġgratu ito
Ġesc rava
ĠSa be
ju da
Ġexpul sos
Ġviole nto
Ġamplia r
Ġselva gens
M T
Ġres istir
Ġcant ada
Ġapel idado
ĠHon or
A ranha
Ġa rena
Ġm ÃŃdias
ĠM ong
urs or
ĠEstra ng
Ġconquist ada
G A
v ico
Ġde dicaÃ§Ã£o
Ġta ri
Ġsegu ros
Ġesc ad
ĠK ub
ĠDa ta
zile iros
Ġno tada
ĠG ent
Ġapos entou
Ġcompa cto
ĠAgu iar
Ġtum ul
Ġter rÃŃvel
Ġfal s
Ġpes cadores
ĠJos h
Ġobrig aÃ§Ã£o
Ġconsul tor
Ġpress Ãµes
ĠEs ca
Ġmo ntar
ĠEx teriores
Ġcorre ndo
Ġcombate ntes
ĠPlan alto
ĠMatem Ã¡tica
ĠPo tter
cent ral
Ġdista ncia
Ġrevolucion Ã¡rios
ĠC ente
ca re
Ġres ide
Ġdisti nto
ĠFam ily
Ġeduca cionais
Ġclim Ã¡ticas
S on
Ã¡ ce
ĠW ik
ĠPa Ã§o
ĠEx tre
Ġvisita nte
V Ã¡rios
ĠH i
oc ar
Ġprocura dor
ĠDec lara
ĠMara canÃ£
Ġcolabora dor
Ġo m
ras sem
ĠGoul art
b ulos
ca t
ĠRe volta
Ġadap tada
pe da
Ġcer veja
Ġgrav ados
ĠDan ny
ĠRu gby
Ġrej eiÃ§Ã£o
E E
S ol
ĠR S
Ġcomun ica
ĠCla ude
Ĩ Ĵ
Ġa res
ol ÃŃtico
ĠFranc Ãªs
ĠWar s
Ġbat idas
Ġceleb rado
Ġfarmac Ãªu
D esta
F onte
ĠC IA
pe ia
Ġh isp
rÃ©s ci
Ġpropa gaÃ§Ã£o
ĠParam ount
Ġpra to
Ġadministra tivos
Ġimpa ctos
Ġinvad iram
Ġexempl ar
ific ador
ĠcÃ¢ maras
ĠinÃ©d ita
ĠKan sas
an ie
Ġpara dig
Ġar bus
Ġescola res
Ġemo Ã§Ã£o
ĠS car
Ġapo ntou
Ġante ced
Ġrenome ado
it su
Ġesp ar
ĠKn ight
P orta
p ido
ĠH us
Ġ10 1
anc ha
Ġdistribu ÃŃda
Ġincent ivo
C ruz
ĠC ana
ĠC enso
ĠJ in
ĠNe y
entu cky
Ġbus cou
ĠComp os
ĠclÃ¡ss icas
Ġ183 4
Ġpatro no
Ġg lÃ¢nd
Ġi min
Ġelec tr
Ġma ch
ĠW ater
Ġinc or
Ġdec ol
ĠCh an
rar y
ndes as
Ġconta bil
Ġating iram
Ġextens o
ĠArg Ã©lia
d eira
Ġab ran
ĠPref eito
ĠGuar dian
Ġgin Ã¡stica
B B
d if
20 18
Ġempa tes
Ġacel era
Ġdispers Ã£o
Ġsemin Ã¡rio
nt ino
ĠJ ere
Ġso cio
ĠQu eb
Ġ9 3
F S
Ġn estas
Ġem itido
ĠB lan
ĠInd ustry
Ġsexual idade
Ġconsequ ente
Ġisol ado
Ġdesembar que
ÃŃ gado
ĠAmaz on
ĠBona parte
d Ã¡
ĠGra ce
Ġtransfer idos
ĠSon ic
y m
re ndo
Ġin j
cion alizaÃ§Ã£o
Ġacab ado
Ġexib e
Ġplanta Ã§Ãµes
Ġapaix ona
Ġbrilha ntes
Ġestacion amento
Ġcint urÃ£o
b ulo
Ġt upi
Ġor qu
Ġproc issÃ£o
Ġsof ria
iclo p
ĠGaÃº cho
Ġobri gaÃ§Ãµes
Â «
qu ÃŃm
ĠT au
Ġartes anato
ĠLa pa
Ġpart indo
Ġbar Ã£o
tur gia
Ġsab edoria
Ġmo toc
Ġservi ram
ĠAd ela
Ġreal ity
g ente
ĠG ian
Ġtra iler
Ġpres su
Ġcan c
Por tugal
Ġcarta gin
Ġconv ic
Ġhar m
M on
ĠT ere
Ġme de
idal go
Ġconfirma Ã§Ã£o
ĠHumb erto
us ci
orn ia
Ġbo xe
ĠAnt iguidade
ĠTer ry
Ġmanu fa
Ġmister ioso
ĠMarga ret
re go
Ġident ificada
Ġproteg ido
Ġespiri tuais
Ġcomunic ar
ĠLoren zo
Ġtele fonia
Ġcrimin al
Ġelimin atÃ³rias
ĠCo mba
ĠAr mas
Ġempres arial
Ġobserv ador
ĠPass os
ĠLacer da
ĠR PG
ce pÃ§Ã£o
ĠUn ion
Ġ18 00
val or
Ġale gaÃ§Ãµes
Ġprec urso
Ġaux iliares
Ġ183 6
ĠProduc tions
ĠSantar Ã©m
ĠA N
Ġob riga
Ġbat ismo
Ġlit ros
ĠA lessand
ĠL ara
Da vid
ĠTim or
B el
ro po
Ġma nto
ĠF land
tÃ³ rica
ĠY an
Ġacab ando
ĠEl isa
ĠMad alena
nÃ¡ ndez
Ġplan ÃŃcies
Ġrit mos
B en
al te
Ġdesen hado
ĠAb adia
Ġlarga mente
b ru
om i
u se
ĠI ndo
mou th
ĠUrb ano
Ĥ ¬
Ġg inas
ĠG Ã¡lia
bl es
Ġresta belec
ĠA eron
Ġap ag
ĠH as
ĠJo y
Ġestre ar
ĠMil an
ĠsÃ³l ida
l ice
ic ar
S ub
V I
f ias
Ġrela tivas
Ġher dou
Ġasse ntamentos
Ġdub lagem
oc idade
ĠK no
Ġdiplo mÃ¡ticas
Cont udo
Ġn it
nc he
ĠSoro caba
anÃ§ ou
rÃ¡ ticas
Ġmand ar
Ġbud ismo
re ma
Ġem ig
ĠS ri
ĠO la
Ãªn ico
Ġpreven ir
Ġcor ro
Ġnome ar
Ġaconte cido
Ġrep ent
ĠMarc us
Ġre dig
ĠW ith
Ãºn cias
Ġfala va
ĠAlente jo
Ġof icina
Ġed ificaÃ§Ã£o
Ġ9 1
Ġterri toriais
Ġtenta va
Ġjur os
Ġreto mou
Ġmetod ologia
ĠS ingapura
Ã¢ mbio
ĠLo rena
Ġpasse io
F I
ĠL ane
Ġcos teiras
pres so
Ġcer cado
Ġcorre tamente
ĠSal es
Ġsubsidi Ã¡ria
pa te
Ġte atros
ĠAs i
Ġocup aram
Ġafe ta
Ġisol ada
ber ts
ĠestÃ¡ dios
Ġcu ida
Ġestad ia
I nd
U L
ĠC ub
tÃ³ lico
ĠTa k
Ġsocial istas
Ġsupre ma
Ġsustent Ã¡vel
S D
Ġn in
ĠP ur
Ġpar cerias
Ġente nde
Ġsuger indo
ĠsuÃŃ Ã§o
ĠIrmÃ£ os
O P
Ġo itenta
Ġem issÃµes
ĠF ield
ĠV itor
ĠSa bo
ĠÃĵ s
Ġo nd
Ã¡ gio
Ġab al
ie f
Ġsal ient
Se ndo
ĠTÃ©cn ica
in ista
to la
ĠP ul
Ġsub espÃ©ci
ĠQu int
Ġdispu tadas
Ġdefe ndem
Ġsecund Ã¡rias
qu a
ĠCa ixa
Ġdor mir
Ġcoorden ador
Ġele ge
ag er
conhec ido
Ġdire tos
Ġesp alha
Ġdesign er
Ġextin gu
H A
a Ã§Ãºcar
is m
Ġpal ha
Ã¡ss ica
Ġreto mar
ĠmuÃ§ul mana
ci oc
ĠR un
Ġca ntos
tura Ã§Ã£o
ĠRo man
ĠcomeÃ§a va
Ġproteg ida
Ġmons tros
; "
D er
Ġme tral
ard s
Ġadminist rar
gon o
ĠP ros
ga mentos
ĠMar inho
Ġplanej ada
ĠHenri ques
ĠP unk
Ġpor no
ĠW restle
Ġpass ada
mÃ£ e
Ġsucess ivas
Ġnave gador
Ġ18 22
Ġcos teira
Ġtraz ido
Ġadicion ados
Ġaprovei tou
ĠCÃŃ cero
r d
du ras
Ġinte gridade
ima l
Ġreal ista
Ġviol ino
ĠHu nt
Ġsa em
ĠMer cado
Ġdiminu indo
ĠAmb iental
Ġconcorre u
Ġelim inada
Ġmus cular
Ġdescon fia
ĠChe gou
Ġadm it
Ġinser ido
u dia
ce ra
ĠMa Ã§
Ġconsecu tivo
X T
ĠV ere
Ġir landÃªs
ĠOl ymp
Ġevid encia
Ġconcord aram
Ġentusias mo
Ġvermel has
Ġb eta
ĠO ta
it ismo
ga e
Ġfic tÃŃcia
Ġdescre vem
ĠKa te
H el
te o
Ġmu ndos
ment almente
Ã¢ mia
Ġmo bilidade
Ġcam inhÃµes
ĠPara ÃŃso
ĠGe org
Ġante pass
ĠTro p
oria na
ane ma
Ġresid encial
Ġt our
ĠC A
ul sÃ£o
ĠL inda
Ġtra Ã§Ã£o
ion Ã¡rios
ĠÃŃ ons
ĠStar k
Ġrevol tas
re ro
Ġda nce
ĠC ross
Ġser tane
Ġinter ino
dem ocra
Ġbi olÃ³gica
Ġcerim Ã´nias
Ġenca be
I nte
Ġa mino
Ġmo rava
ĠW es
Ġinaugu ral
Ġde posto
ĠM issÃ£o
Ġlo bo
Ġfilho tes
Ġfol clore
Ġrev ital
Ar t
ĠLiber taÃ§Ã£o
Ġpole gadas
ĠT eles
lo ra
zer ba
Ġelogi ado
Ġf itas
Ġbar ba
Ã³f ilo
ĠincÃªnd ios
ĠConte mpor
M il
Ġf ÃŃgado
Ġcin zas
Ġorg ulho
Ġde bu
ĠG ros
Ġent orno
Ġro tina
ĠAm ade
ĠMc K
ĠRu th
Ġindustrial izaÃ§Ã£o
ĠRub ens
ĠegÃŃp cio
Ġalgorit mos
ÃŃqu ias
Ġsinc ron
ĠF BI
co ck
sa ro
Ġpres um
Ġcruz eiro
Ġastrona utas
n ada
ici ado
Ġtempest ades
Ġpratica ntes
Ġcom issÃµes
ga ntes
Ġcontinu ando
ov Ã¡
Ġsuperf icial
graf ias
Ġsindica tos
Ġde ca
Ġl an
ig g
ĠEl ias
Ġexig ir
Ġreto mada
Ã§ Ã¡
ĠM oss
Ġna tivas
og al
ĠMar ta
Ġind en
Ġperman entemente
Ã¡r ze
Ġtes tar
Ġ185 7
Ġanuncia r
Ġsubme tido
t rito
ment am
tiv ista
Ġeleito rais
ĠÃĵ pera
Ġverdad eiros
ĠHud son
Ġh ier
Ġte Ã³ricos
Ġpas ta
Ġguer rilha
? ",
B an
i Ã¡ria
ĠV es
ĠK entucky
Ġadminist rada
Ġtrata mentos
Ġpresti gi
j ara
ĠA tor
vi er
Ġcam inha
Ġleg almente
ĠUS A
Ġurban izaÃ§Ã£o
tream ing
Ġreivind icaÃ§Ãµes
ĠImpera triz
Ġa gar
Ġ18 20
Ġt Ã¡ticas
ord ial
Ġdirig ente
ĠQue ens
p is
ĠN at
ĠCon cer
Ġvig ente
ĠcÃ¡l cio
Ġving ar
wei ght
ĠSacra mento
Ġd ÃŃg
Ġca tar
ĠAd ventu
ĠsÃŃ la
ĠRe v
Ã©l icos
Ġexec utadas
ĠColo mbo
Ġlege nda
f lu
s y
Ã ¯
Ġs lo
Ġfor tificaÃ§Ã£o
Ġar ris
Ġmul tid
Ġru ÃŃdo
Ġ0 4
Ġce deu
ĠTom my
ĠanÃºn cios
Ġgl Ã³ria
or m
Ġi tem
ĠN ad
et t
ĠBa bil
Ġgeneral izada
Ġcrimin oso
ĠInde pend
Ġf ero
Ġqu ero
ĠRo th
tÃ³ lia
Ġche fia
Ġcomun ismo
Ġluta ram
f ÃŃsica
Ã ĵ
Ġp ig
ĠD oro
no ma
ĠJ onas
Ġpa gos
Ġti nta
pri meiro
Ġregist rar
Ġop Ã´s
Ġps iquia
ĠAcad Ãªm
ĠLy on
ĠSto re
Ġfrequent ar
Ġvisu alizaÃ§Ãµes
I R
z im
ar quia
ĠK urt
ĠÃ¡to mo
Ġf rÃ¡
Ġvis ibilidade
Ġelabo rar
ĠLabora tÃ³rio
zerba ij
R ock
Ġem bos
ĠA sa
Ġex al
Ġrela tivos
Ġamor oso
198 8
Ġden Ãºncia
ĠFro nte
Ġdo cente
Ġderro tada
Ġaconte ceram
Ġcancel ada
ĠPrima vera
ĠP ris
Ġinter mÃ©dio
ĠLe x
ĠNe il
ĠAd olf
Ġafirma va
Ġafirma ram
ĠWal lace
Ġprocess ador
ĠAir lines
c entos
ĠL itu
Ġval idade
Ġdele gados
Ġhe gem
tad t
Ġbarra gem
Ġfogue tes
Ġs pin
Ġap la
ĠAl onso
Es tas
Ġgas olina
Ġaproveita ndo
Ġsono ras
W A
ma ior
Ġf ara
Ġre mun
ĠB our
us Ãµes
Ġos cil
Ġto le
Ġdete cÃ§Ã£o
ĠT hiago
ise bol
Ġhab itada
i rit
Ġar ra
Ġcapita nia
ĠRese arch
as on
Ġtrans aÃ§Ãµes
Ġdeclara ram
Ġespor tivos
trÃ³ pole
Ġconsci ente
ĠPesquis as
Ġmanip ulaÃ§Ã£o
p y
ad s
Ġn ord
Ġenc os
Ġeste nder
Ġdese nte
Ġcard ÃŃaca
Ġesquad ra
id s
ĠA ven
Ġcur vas
ĠBened ito
Ġi nto
ment s
Ġcar n
ĠQu ase
Ġep ÃŃ
ĠMur phy
Ġfei jÃ£o
I r
Ġpara na
Ġvig Ã¡rio
Ġdomin aÃ§Ã£o
Ġdispos tos
ĠDra ke
ĠB ere
Ġcomp Ãµe
De us
Ġdefin iÃ§Ãµes
ĠPol o
Ġsorte io
Ġenz ima
ĠBrand Ã£o
Ġcotid iano
m Ãµes
im i
ĠBa ker
ĠDa nte
Ġacredita ndo
Ġmascul inos
Ġre vesti
ĠQu into
Ġfranc os
Ġ0 2
Ġenfre ntando
Ġtrabalha vam
Ġpremi ada
Ġdemas iado
Asso ciaÃ§Ã£o
Ġlum inos
8 00
ĠU CI
Ġinstitu cional
Ġpion eira
Ġdesempre go
ia ndo
ĠC is
Ġvil Ãµes
Ġmec Ã¢nico
Ġaproveita mento
ĠKid s
ĠConn ec
ĠS N
ĠI C
Ġtra tada
min ster
ĠPro gress
Ġr id
Ġcolon iais
Ġpeda Ã§o
Ġpisc ina
Ġcomp ras
Ġespecial izadas
Ġrou bo
f un
ina res
Ġju ÃŃ
Ġreal ismo
Ġincorpo ra
V ic
ic he
ido ra
Ġinform ado
Ġcombo ios
Ġe ixos
Ġtr in
Ġfica vam
Ġindivid ualmente
Ġinfin ito
ĠCarlo ta
Ġjudic iais
L es
or gia
ec as
Ġdispu tando
ther n
Ġverdadeira mente
Ġinterromp ida
Ġaprovei tar
W orld
Ġp Ã¡s
Ġdes porto
ĠH and
Ġh es
Ġdom ingos
Ġocupa va
Ġmic r
Ġdestin os
Ġconsag rado
Ġprogress ivo
Ġqu int
cre ver
Ġpla nt
Ġcaus aram
ĠEx cel
iqu iÃ¡
Ġple ito
ĠFrank furt
Ġressal tar
tebra dos
n or
Ġo vo
Ġl i
ĠN ie
Ġme tas
Ġgrande za
tamb ul
ĠN Âº
Ġass inada
Ġcor tado
Ġauto rais
ĠMed eiros
ĠCla y
Ġinfluencia r
d icas
Ġv ou
Ġpri mos
Ġet nia
Ġperd idos
Ġcastel os
D ie
c ruz
ĠJ ust
ĠW u
ĠmarÃŃ timo
Ġtranstor no
Ġfict ÃŃcio
ĠL ig
ed iÃªncia
Ġsa bo
Ġlemb rado
Ġunif ormes
L P
Ġp iores
Ġconf ere
Ġcol inas
pp y
ĠTy ler
Ġmode rada
Ġaristo cracia
ĠQueiro z
f ul
Ġrecon quista
ĠGarc ÃŃa
O M
Ġmo tivaÃ§Ã£o
Ġchu v
V P
Ġex po
aliz adas
ĠLe al
Ġopera do
Ġfortale cer
Ġpeda g
ĠLÃº cia
Ġtouch downs
Ġm Ã©rito
se cre
du que
Ġcontro versa
Ġperc ussÃ£o
Ġconduz ido
Ġdetec tar
ĠOrle ans
ĠÃŃcon e
Â ·
Ġcon gel
ĠK as
bo dy
ĠEuro visÃ£o
Ġfinan ciar
ĠCB F
H ol
Ġ idades
ĠE ram
Ġpo ntas
un idade
Ġfu ma
Ġ0 8
ĠMÃ¡r cio
Ġmar rom
Ġmin eira
Con forme
Ġdiploma ta
Ġpolon eses
Ġma chu
lia no
ĠislÃ¢ mica
ĠNavar ra
Ã ¥
Ġpar Ã³quias
Ġesc ada
ven is
Ġla b
tiz ados
Ġreconhec idas
Ġeconom icamente
ĠSus an
Ġdoura da
a gora
Ġ ria
ist icamente
ĠAr mada
Ġrevel aram
Ġdomin ada
w eb
ent Ã£o
tic es
Ġmission Ã¡rio
Ġp io
qu ismo
Ġu nd
Ġse da
Ġcul pado
Ġmarca ntes
ĠBul l
Ġpura mente
ĠR emo
Ġal mas
Ġ9 4
Es cola
ke e
Ġenvi adas
p ice
Ã Ł
nt ismo
Ġl Ã©
Ġinc identes
ĠDra ft
ĠDepu tado
Ġabol iÃ§Ã£o
ĠPÃ¡s coa
te rais
Ġb elas
ns es
ĠTo tal
Ġsal vaÃ§Ã£o
Ġreun indo
Ġassum ido
Ġdestru ÃŃdos
Ġcoro aÃ§Ã£o
Ġse ver
ass i
ip lo
via is
Ġcria tividade
ĠLe andro
ĠEx tra
Ġel Ã©c
ĠFu nc
Ġretorn aram
Ġaux ilia
ĠGran ada
ĠAur Ã©lio
in y
ĠTem er
ĠSim Ã£o
Ġacel eraÃ§Ã£o
or icamente
on izaÃ§Ã£o
Ġh indu
Ġincons ciente
ĠFranc a
Ġaudi Ãªncias
Ġtrouxe ram
Ġrestri Ã§Ã£o
c olo
iss os
Ġcab ine
ĠBlu es
via mente
ĠMo tor
Ġpresid iu
Ġ183 5
Ġincorpo raÃ§Ã£o
ĠMatthe w
ta lo
ĠC C
Ġfil ogen
mas ter
Ġterc eiros
Ġaument aram
Ġinser Ã§Ã£o
Ġc itou
ta no
Ġos so
ĠSa xe
Ġtur ÃŃsticos
Ġespor tivas
ach ment
Ġenz imas
Ġco alizÃ£o
to le
Ġfemin inos
Ġause nte
D ec
qu eiros
Ġ0 5
ĠAd olfo
ĠBer g
Ġexpor taÃ§Ãµes
ĠhelicÃ³p tero
atoria mente
Ġb orda
ita res
ĠHa vaÃŃ
Ġaband ona
Ġorden aÃ§Ã£o
Ġagrad Ã¡vel
ĠA ut
ol ini
Ġpre ma
k on
Ġp ilha
Ãº cio
ĠK am
Ġopera dores
ĠSte el
ĠGard en
D onald
Ð º
qu inho
Ġ185 2
ĠBlo od
Ġgole ada
Ġse ques
Ġal iv
Ġir rig
Ġautor izado
Ġpal estra
Ġexig ia
ĠGre y
Ġtransmit idos
ĠC M
ĠS tro
Ġconvo cou
ĠArn old
p esso
u rou
ĠA nte
ĠPho enix
Ġ ka
Ã³ citos
ĠE mba
ĠV iseu
ĠGa zeta
Ġmor tas
Ġconse ntimento
Ġpec ado
Ġresponsa bilidades
Gra nd
ĠHill s
Ġtempor Ã¡ria
ĠDy lan
ed s
Ġsuper ou
Ġconven Ã§Ãµes
ĠSalom Ã£o
Ġl Ãª
ĠG le
Ġba iano
Ġra cioc
Ġital ianas
Ġleg iÃµes
rol l
Ġviz inh
vis ÃŃvel
ĠBr un
L S
m ite
Ġse ctor
Ġdi Ã¡rios
Ġrepe ti
Is so
Ġart ÃŃsticos
Ġdisc ord
Ġforne cendo
Ġimple mentar
ĠI ron
fre do
ĠTer minal
Ġobserv ados
Ã¢nt ara
198 3
zar Ã©
Ġtub os
ĠCÃ³r do
ĠvÃŃnc ulo
Ġo raÃ§Ãµes
ĠMen ino
ĠLoc aliza
ĠaÃ©re os
iss ip
ĠEx press
Ġfrequ enta
Ġbar reiras
j Ã©
Ġenc ara
ĠY ang
Ġreduz iu
TA N
Ġvale u
ĠEmp resa
ĠBrook lyn
Ġanar quista
R ec
Ġen vio
Ã³rm ulas
core ano
ĠOrig inal
Ġma ndo
ent as
Ġsa nt
Ġguer reiro
ĠNik ola
Ġnutri entes
ĠBapt ista
I t
p ing
as c
Ġprogress ivamente
ĠAlb Ã¢nia
d ra
re c
po nto
Ġca ÃŃram
ĠCar men
Ġ185 5
Ġdro ga
ĠWat son
ĠSala zar
Come Ã§ou
vÃŃ rus
Ġtij olos
Ġes quele
Ġsu bl
Ġdi Ã¡rias
Ġenc ur
Ġpromo tor
ĠestratÃ© gico
Ġbol as
ĠrÃ¡p idos
Ġajud am
Ġcanh Ã£o
nt ic
ĠS indica
Ġi ron
tur idade
Ġobrig atÃ³ria
an ismo
Ġnu vem
Ġmatem Ã¡ticos
ĠZe us
Ġprovis Ã³rio
Ġdo res
ĠW inter
Ġunivers itÃ¡rios
ĠRod olfo
er vam
Ġso lene
Ġpa vi
du a
Ġmo Ã§a
Ġba tendo
Ġfal sas
Ġfer tilidade
Ġsatisf aÃ§Ã£o
Ġlava gem
princip almente
F F
b ie
ĠA a
sa is
Ġ12 5
Ġobje tiva
Ġ0 6
Ġcha pÃ©u
Ġrevel ada
elh eiro
Ġp len
ia bÃ¡
ĠC Ã©u
Ġres trito
ĠAl as
Ġdu quesa
ĠJa ma
ĠBor gonha
ĠcaÃ§ adores
Ġlegi tim
b ad
se de
ha il
ĠCo ok
20 19
Ġcol un
ĠprÃ© via
Ġflu tua
Ġec lo
p ur
Ġl iqu
Ġfa Ã§a
Ġun icamente
Ġdesempenh ar
M ania
c ind
Ġa me
ti ra
Ġpor tÃ£o
Ġcond u
ĠperÃŃ metro
ĠHo p
Ġregist ra
Ġbi bl
In iciou
ÃŃr culo
ta rem
Ġt iver
ĠN ele
Ãº ng
ĠEs tima
ĠLa va
ĠPro vin
Ġfemin ista
Ġcontrapar tida
it Ã¡vel
Ġmo ve
Ġfil mar
gon al
Ġprecis ou
Ġembar cou
Ġestiv essem
Ġpaga mentos
C ra
Ġpor tu
Ġconc ursos
Ġmorre ndo
Ġdeve res
Ġprefer iu
mb er
Ġmar caram
ky o
ĠHon ra
ĠProcura dor
ĠDenn is
Ġent ro
ĠWar ren
Ġvest indo
suced ida
ĠJuvent us
T udo
ĠSe vilha
ĠmÃ¡ gico
ĠVer dade
Ġlar vas
ĠSim p
Ġcoro ado
ĠHard y
S ec
Ġre es
Ġpro ve
Ġag ressÃ£o
ĠRa w
Ġcole cÃ§Ã£o
Ġfib ra
Ġe rupÃ§Ã£o
ci e
ig er
Ġlev Ã¡
eno ve
Ã©cn ico
Ġ180 8
Ã© dio
ĠT ess
Ġfun k
ĠAle ixo
Ġtre inado
Ġimped indo
Ġmulti plic
Pr Ãªmio
T itanic
z on
ĠS ancho
iel orr
Ġrea fir
ĠvÃ¡ cuo
g Ã¡
Ġal titudes
ĠRo nd
ĠMe trÃ´
ĠFer nÃ£o
ĠÂ £
ĠEstu dou
M iss
Ġde tido
se te
Ġtrans pare
Ġdispu tados
ĠDu cado
so bre
Ġdiv ino
ĠIs tambul
Ġintegra ndo
ĠFin anÃ§as
ro ne
Ġi nta
ĠEx plo
Ġcal if
Ġgas tro
Ġregula mento
ĠÃ¢ng ulos
ura is
Ġreg en
ĠSo ftware
Ġ0 3
Ġretra tado
zerbaij Ã£o
s ÃŃ
Ġco marca
me ra
ĠF lu
ter y
Ġ18 21
Ġata cando
Ġjura mento
Ġresul tantes
ĠDa ily
Ġtaman hos
Wil liam
Ġpa usa
Ġtele comunicaÃ§Ãµes
Ġfix aÃ§Ã£o
d Ã£
Ġfil iado
Ġtro cas
ĠAnd roid
Ġcomercial mente
Ġdesign ados
Ġcomemo raÃ§Ãµes
Ġproporcion ar
ĠContro le
I ng
W o
ĠPar la
ĠMe u
Ġali ada
ĠHa ro
ĠRecord ing
Ġ185 4
m usic
Ġprov Ã©m
Ġofere cidos
Ġtorna va
Ġclara s
Ġress usci
ĠEar th
T erra
Ġse i
res te
ĠMa j
Ġsus penso
eix ou
ĠVel oso
Ġreorgan izaÃ§Ã£o
ĠJ Ãºlia
ĠCh Ã¡
ĠFa ctor
Ġexecu tiva
Ġdepend Ãªncias
Ġprorro gaÃ§Ã£o
Ġconsidera vam
Ġdirig indo
Ġrecus aram
ĠmuÃ§ul mano
ĠConfe de
J ul
Ġs ina
ci ent
Ġcaus adas
vid Ã©u
Ġfrequ Ãªncias
Ġpais ag
Ġexer cido
Ġ185 8
Ġproib ida
Ġjus ta
Ġpreocup ado
ĠLud wig
Ð »
mo do
ĠCent ury
Ġconhe cia
198 6
Ġvan guarda
p ho
ĠG ara
Ġcap elas
Ġclass ificando
ĠCaval eiros
Ġsue ca
N essa
Ġor ienta
ĠDo ce
6 00
tu o
ĠS che
Ġsucesso res
pp ers
Ä ĥ
ĠMar iano
Ġsa nta
Ġex posta
ĠGu arani
Ġinvesti gadores
Ġprocu ram
ĠFrancis ca
( "
c Ã£s
Ġmo des
po de
ĠD id
ch ar
vil la
Ġ185 1
Ġgradu al
Ġapropri ado
Ġent er
Ġdu cado
Ġrestaura do
Ġcolabo rar
Ġisrael ense
Ġlocomo tivas
Ġconfor to
ĠM uss
Ġme ga
ĠNa cionais
ĠÃ¢ n
Ġarm adura
Ġjura dos
Ġaero portos
N O
d entes
Ġesp ion
Ġfra ude
Ġrus sas
Pro grama
Ġexplic itamente
hecos lovÃ¡quia
b ado
Ġ Ä
de pois
Ġpass es
nas cida
ĠMe teor
Ġfranc isc
Ġergu ida
d ent
Ġrec orda
Ġha bit
Ġacad Ã©m
Ġ185 6
ĠFerrovi Ã¡ria
Ġf arÃ¡
ic ultura
ĠC rista
ĠM iz
po ca
Ġnov idade
Institu to
Ġcria tivo
Ġ10 5
Ġescol has
Ġreno vado
Ġreabil itaÃ§Ã£o
ĠF an
Ġpa ta
Ġfil ial
Ġrec ons
Ġcer cada
ĠCam eron
Ġexig Ãªncia
Ġarre do
Ma ior
Ġafas tou
ĠegÃŃp cia
ĠCarta go
ÃŃn ica
Ġcru cial
ĠM A
Ġso cor
ass er
ĠPa checo
Ġfiz esse
ĠD esa
at t
Ġpr Ã©mios
Ġcontra tados
Ġnota velmente
ĠGib son
ĠLitu Ã¢nia
Ġa ritm
pro pri
Ġrepe nte
Ġfis cais
ĠJeff erson
Ġenglo ba
nd ina
Ġtur ÃŃstica
Ġrefle xo
ĠJul ia
Ġinterromp ido
th on
Ġsusp eitas
Ġopon entes
ĠRang ers
f ranc
ĠA ero
Ġ18 24
Ġcaus am
Ġali adas
ĠCre ta
Ġholand esa
on aria
ĠN ero
ĠK el
ris o
Ġdesapare cido
Ġprojec tos
Ġviole ntos
Ġastro nomia
Ġposicion amento
ĠLenn on
f Ã¡
Ġde mar
ish i
Ġpossibil ita
ĠAssu ntos
B as
m ons
Ã³ ia
Ġcon gregaÃ§Ã£o
ribu iÃ§Ã£o
ĠÃ³ tima
Ã³qu ei
Ġdescul pas
ĠIngles a
Ġno taÃ§Ã£o
Ġfun gos
Ġpal Ã¡cios
Ġhor Ã¡rios
Ġelabo rada
ĠOn line
Franc isco
futebol ista
ro e
tor ze
ĠCa iro
Ġcr ises
ĠPe te
Ġmon itora
Ġreti rados
ĠMag ic
ĠL ins
ĠMo vie
Ġcol isÃ£o
Ġal as
Ġte Ã³rica
ĠCD s
Ġdisponibil izado
Ġcrista is
c ila
ra z
ĠS tri
Ġex postos
Ġto cado
ĠBo x
Ġresta uro
ĠPartic ipa
T ro
c Ãªncio
ad uras
Ġv iveram
Ġser tÃ£o
Ġinte iros
Ġepid emia
Ġso ja
icos e
ĠEsc olas
ĠBat tle
estru turas
B lo
d iz
ĠCo re
Ġreg ulaÃ§Ã£o
Ãªn us
iote ra
Ġ184 6
ĠcontrovÃ©r sias
ĠAlc Ã¢ntara
Ġpadro eiro
L ive
ĠB ola
Ġpassa vam
Ġfuncion am
Ġacompanha ndo
Ġa ver
Ġco unt
ĠC all
it Ã¢nia
ce to
ĠI p
ĠI nt
Ġta nta
Ġatribu ÃŃdas
Ġexce Ã§Ãµes
Ġocup ados
Ġdeco mpos
Ï Ħ
Ġcond ados
ĠGal o
ĠdiÃ¡ logos
Ġtric olor
Ġterap Ãªu
E I
T op
titu iÃ§Ã£o
Ġconc ÃŃlio
tin i
ĠPe ople
Ġblo g
timo re
Ġnego cia
Ġperspec tivas
man i
Ġba ilar
Ġnome ncla
Ġalter ou
Ġb ip
ĠG T
Ġdestru ÃŃdas
Ġsoci ologia
Ġalfabe tizaÃ§Ã£o
J ames
f en
p ino
ar ro
Ġtar taru
Ġarquitet Ã´nico
j al
ir Ã¡
est ada
ĠHa iti
Ġfro nt
Ġpens ando
Ġeconom ista
Ġtravess ia
ÃŃ culas
ĠH Ã©lio
ĠFor ce
ĠApare cida
Ġ( âĢľ
Ġra b
Ġsubs trato
Ġreun idos
Ġpertence u
Ġa ven
ĠA pa
ĠMichel le
Ġhero ÃŃna
ĠCol lins
culos e
Ġsubsta ncial
. ",
p pa
ĠK iss
ĠSe ul
ĠJe ovÃ¡
Ġconclus Ãµes
Ġdoutr inas
fund ador
ĠlÃ¢ mp
Ġvenez uel
Liv ro
ĠVinc ent
to m
ĠÃ¡ s
197 9
Ġsovi Ã©ticas
Ġmonop Ã³lio
u nde
Ã³ lia
Ġfa tura
Ġdesempen ha
Ġâ Ī
Ġcurios idade
ĠA zerbaijÃ£o
ĠM embro
ĠD ela
ĠIs lÃ¢ndia
Ġresol vido
Ġu ne
ci oso
Ġin co
ĠO range
Ġfor Ã§ar
Ġor iente
Ġass istiu
ĠespÃ©ci mes
Ġbe ber
Ġterror ista
D oc
ĠAv eiro
Ġestri tamente
c enÃ§a
d ing
re lo
ĠU ltimate
ĠSu e
ĠBa cia
des co
Ãºr gico
Ġintermedi Ã¡rio
Ġref ei
Ġpen Ãº
Ġadicion ou
E uro
E ntÃ£o
Ġca torze
Ġen fim
Ġfec hadas
ĠAlexand ra
ĠTur ing
ĠDia nte
Ġ183 2
Ġmonu mental
Ġre t
Ġca te
ĠSer gio
Ġdepe nder
Ġcritic ada
Ġden Ãºncias
ĠCra ig
Ġviaja ntes
Ġsu m
Ġag re
ĠPar ty
ĠJa ir
ĠRog ers
Ġprimi tivo
Ġconting ente
C la
ĠO sa
Ġca fe
Ġrob Ã´
Home m
g hes
Ġdes pa
Ġsim p
ĠArqu ivo
Ġisol ados
Ġagu arda
Ġeletro magn
Ġgos tou
ĠdiscÃŃp ulo
Ġfazend eiros
a tualmente
Ġda nÃ§as
dio vis
Ġcria tiva
ĠY osh
Ġdema ndas
ĠArquite tura
nt Ã¡rio
Ġven cida
pro f
Ġgradu ou
nd am
m ol
ic um
ve res
Ġdire Ã§Ãµes
rou gh
ĠCons ta
Ġing resso
Ġaplic adas
F inalmente
n el
s ua
co tt
ĠV ei
Ġpa nd
Ġsub ju
ĠEstuda ntes
ĠQu er
Ġexclus Ã£o
ĠEcon Ã´mica
ĠpÃ³ dio
Ġabrang ente
ĠÃģl bum
ĠFland res
E UA
Ġf estiv
Ġpr isÃµes
Ġjog aram
Ġlev adas
ĠMas ters
Ġmostra da
Ġinde fin
Ġherd eira
Ġbater ias
ĠYe ar
t assem
Ġcham as
ĠÃģ guas
Ġapar tamentos
Ġbud istas
P l
S mackDown
p elo
Ġdos e
segu ndo
Ã³lo ga
Ġgan gue
anim idade
>" </
ĠPetr Ã³polis
Ġcon gress
ĠNa zarÃ©
ĠRo berts
ĠGra y
ĠAm ster
ĠestÃŃm ulo
ĠC esa
Ġper pÃ©
Ġgra fo
Ġob tidas
ĠRe bel
Ġmar inhas
mos a
form ada
Ġprec ursor
Ġrevel am
Ġterre moto
Ġc lo
te cas
Ġpass ados
Ġun iram
Ġsurg ido
Ġdestru indo
Ġras tre
ĠNorma ndia
Ġcontro les
Ġindic ados
Ġsan gre
Ġpsic olÃ³gico
ĠÃ©tn ica
Ġvitor ioso
ĠMoz art
Ġf Ã³rmulas
nd ada
Ġt olerÃ¢ncia
ĠA nas
ĠO cu
Ãº bio
vi ado
Ġescre veram
Ġfra qu
Ġvalor izaÃ§Ã£o
Ġcober tas
ĠWest minster
Ġdefens iva
Ġrenome ada
Partic ipou
ĠMitch ell
ie ve
ĠCas cais
Ġclass ificaÃ§Ãµes
Ġneg ras
ĠS now
ig ne
Ġinter rupÃ§Ã£o
Ġident ificou
ĠFo z
Ġmal ha
ĠZ an
ĠTa ke
ind ades
ĠÃ³ timo
Ro bert
Ġhem isfÃ©rio
ĠtÃºm ulos
Ġperig oso
V ila
Ġped iram
ĠPie tro
r s
Ġd ali
Ġem pos
ĠS intra
Ġexpl icaÃ§Ãµes
Ġsuperior idade
Ġinstal adas
Ġconv iv
ĠP enn
Ġsu ma
Ġpor tÃ¡
Ġchin esas
ĠQueb ec
ĠM elho
ĠEm ÃŃlio
Ġfol he
Ġmol des
ĠNic olas
p riaÃ§Ã£o
Ġde pendentes
ĠMe g
Ġgre gas
Ġconcent raÃ§Ãµes
Ġrepor tagens
f le
ĠA da
ĠG os
Ġsitu ados
Ġacrescent ando
Ġreman escente
Ġconfi Ã¡vel
ĠC S
ĠS ena
ĠK ur
ĠNe o
ĠBu ff
Ġleve mente
ĠRousse ff
Ġamino Ã¡
Ġd rena
Ġe terna
Ġac arre
Ġ0 9
Ġrote iros
Ġhonor Ã¡rio
Ġsubmar ino
a i
c s
Ġfuncion ava
ĠÃģlva res
Ġexil ado
ĠPÃ©r sia
ĠRand y
ĠCa fÃ©
son Ã¢ncia
tin s
Ġopera ndo
ĠCou to
qu ila
Ġna m
Ġsitu adas
ĠRec on
Ġrea pare
Ġ185 3
Ġexter iores
x t
Ġ *
ile ra
ĠcontÃŃn u
Ġdescont inu
al do
Ġviv ido
ĠSebas tian
ĠFal cÃ£o
Ġdinamar quÃªs
ĠAdela ide
Ġse cas
ĠC ase
am bu
ĠF i
ĠV au
Ġinter lig
dor o
ĠBar tolomeu
Ġtecn olÃ³gica
Ġprepara ndo
ĠCo pas
ĠEm ily
Qu em
Ġautor izou
Ġsign ificados
Ġconver sas
Ġpreced entes
Ġma cro
ĠAl mirante
ĠPa ck
Ġmod ificada
Ġoutro ra
ĠBow ie
Ġampli tude
ĠComple xo
Ġrac ismo
Ġs h
ĠÃ¡ pice
je tos
han na
Ġfavor itos
Ġesgo to
ĠRepresenta ntes
Ġfor tific
Ġed itada
Ġsubs istÃªncia
Ġproduz iram
ĠDra gÃ£o
Ġtraje to
u g
ĠA nto
ĠG ior
nta in
Ġconc essÃµes
Ãªn ior
ĠCons ul
ĠEx emplos
iqu eira
Ġparal elas
ĠCro w
Ġre ca
ĠE ventualmente
ĠH BO
ĠCom mun
ĠIn Ãªs
Ġafe tar
Ġexcel entes
Ġrob Ã´s
Ġadja centes
Ġp Ã¢nico
Ġc if
Ġtra jes
Ġcar ru
Ġestuda ndo
Ġca cho
rin aÃ§Ã£o
Ġseria mente
ĠDes co
Ġpote ncialmente
ĠC ola
ĠD ei
Ġmo to
Ġespe cul
Ġcap as
des ign
Ġescal ado
ĠEp iscopal
qu em
na co
Ġca bos
Ġir landesa
ĠFil mes
ĠBrasile irÃ£o
Ġconselh eiros
ĠCount ry
Ġautobio grafia
se nt
Ġliter Ã¡rios
Ġconve cÃ§Ã£o
Ġco brindo
ĠB Ã¡s
Ġres pe
ÃŃs tas
ran as
ĠJu ntamente
ĠBu da
ĠIr mandade
Ġatra i
198 4
Ã©re o
Americ anos
Ġlog ÃŃstica
ĠEspa Ã§o
Ġcomentar ista
h ang
ĠO NG
sa u
Ġha vido
Ġgen Ã©tico
Ġchega va
ĠcÃ¢ mbio
Ġgene al
ĠcÃ¡ ps
Ġdiv is
ĠPro vis
cou ver
Ġ0 7
Ġ184 9
Ġprim ordial
mun has
ĠJose f
Ġmano bras
ĠHein rich
ĠM MA
Ġve teranos
ndes liga
Ġbi olÃ³gico
ĠCu iabÃ¡
Ġgratu itamente
Ġmemor ial
ĠAeron Ã¡utica
gu el
Ġile gais
Ġl agar
ĠH au
Ġpr osa
Ġam ig
Ġtro pa
Ġsepara damente
Ġcarre gar
Ġrenas cimento
R C
it Ã³rio
ĠEs t
ier re
Ġdenomin adas
Ġgri pe
ĠBÃ³s nia
! ,
ĠR J
if Ã¡cio
cion ante
Ġver ifica
ĠdanÃ§ar inos
Ġsuple nte
ĠVirgin ia
ĠArms trong
n ge
hos t
Ġus ual
Ġgal erias
inter pre
Ġestudios o
ĠResta uraÃ§Ã£o
J og
Ġl am
Ġesc adas
Ġcap turou
Ġimporta Ã§Ã£o
ĠRa b
Ġencerra do
Ġcompet Ãªncias
ĠTerri tÃ³rio
Ã ĩ
in ville
Ġhaver Ã¡
Ja ck
Ġextrem idades
Ġfabric ado
Ġespalh adas
Ġinterc Ã¢mbio
os sa
ĠO ra
ĠDu blin
ĠMad ison
ĠsÃ© ria
Ġbe isebol
ĠDam asco
pot Ã¢mia
Ġqueb rado
tempo rada
Es p
ĠAna tÃ³lia
Ġreestrutura Ã§Ã£o
Ġconform idade
ĠI tu
co in
Ġconvo caÃ§Ã£o
Ġcompartil ha
Ġextrem os
Ġpne um
Ġarrecada Ã§Ã£o
Ġdes tina
ĠL ag
ino m
Ġencome nda
Ġtril hos
E du
c onstru
Ġlu xu
Ġacompanh ados
Ġaz ule
Ġadquir idos
Ġergu ido
Ġbura cos
Ġ å
Ġab ade
Ġreno vou
198 0
r ÃŃveis
ĠDire Ã§Ã£o
ĠTri ple
nam o
ĠPl ÃŃnio
Ġarque olÃ³gico
ĠLeon ard
ĠDeclara Ã§Ã£o
N uma
p it
Ġcor rup
Ġdeix ada
ĠMiss ouri
ĠMiss issip
isp ado
Me u
Ġquebra ndo
Ġimag inaÃ§Ã£o
Ġp Ã¡l
es ca
ĠRe tor
ĠAl mada
Ġatra indo
Ġ184 4
Ġverdad eiras
Ġmarav ilhos
Ġse los
so cial
Ġpa vilhÃ£o
ĠAl pha
Ġvo caÃ§Ã£o
198 2
Ġrel ÃŃquias
Ġreto ma
Ġdispens ado
S ant
w all
ĠN aÃ§Ã£o
Ġdem orou
Ġasse nto
Ġvermel hos
G ood
Ġle ndÃ¡rio
ĠSa u
Ġsub con
ĠEspanh ol
ĠTiju ca
Ġin ic
Ġpro pos
mb re
ĠJ T
Ġfun er
ĠFa br
Ġsimpl icidade
V i
Ġs tyle
Ġse cos
ĠP ink
Ġpr Ã¡tico
ito ras
oc he
Ġativ istas
reg on
Ã³l icos
Ġlat inos
Ġartic ulaÃ§Ã£o
Ġadmira Ã§Ã£o
Ġcelebra Ã§Ãµes
ĠShak ira
Ġem itir
to re
Ġv amos
ĠG iro
ca ju
Ġtra tando
Ġenfre ntam
Ġ184 2
Ġbene fic
Ġt Ãª
Ġ18 15
rang ular
Ġriqu ezas
Ġeclesi Ã¡stica
Ġcount ry
Ġt Ã¡tica
Ġra dar
Ġdisti nt
ĠÃįnd ice
ĠGeor ges
f eiras
ĠI v
co pia
Ġpo Ã§o
ĠJ esse
Ġpre vent
Ġfer til
ĠrÃ¡p idas
Ġindia na
F aleceu
v Ã©m
ĠCons ervatÃ³rio
ĠTra cy
ĠIns ta
ĠBas tos
ĠWar ri
Ã¢m icos
Ġcanc elamento
Ġf ios
ĠR ural
ram os
Ġser vida
ĠDa ÃŃ
Ġfec hados
Ġcaminh Ã£o
ĠT ric
Ġcl oro
ĠDiv ino
Ġama ntes
Ġdiplo mÃ¡tica
cola te
ho ven
Ġdes es
ca ia
Ġabri ram
Ġesco ndido
idimens ional
U s
ĠE SP
Ġale gre
Ġapresenta vam
Ġelim inados
Ġprossegu ir
a ce
co ma
at inga
Ġor Ã§a
Ġam igas
ĠFre ud
Ġinspira dos
Ġsupor ta
Ġasi Ã¡tico
Ġin cend
ĠT iro
ĠL ie
Ġal v
Ġ4 50
Ġfam ilia
Ġsiste mÃ¡tica
Re vista
ĠCatar inense
Ġcompa rou
Ġdesfil es
nter prise
Ġesta tais
ĠW he
Ġbol chevi
Ġhomo g
ĠF ont
ĠI g
Ġdi Ã³xido
Ġform ulaÃ§Ã£o
art ney
Ġantiga mente
Ġatribu iÃ§Ãµes
P ala
ĠE instein
Ġfo ca
ĠSil ver
Ġfronte iri
ioces ano
c eiro
em p
ĠG ou
ĠNa k
Ġdenomin ar
Ġarma mento
Ġprogram ado
Ġacol h
Ġ %
ĠM anh
Ġna uf
ed or
ĠHe ad
ĠSim one
Ġdemonstra ndo
Ġaposent ado
Ġsacri fic
id encial
ass Ã¢n
Ġpovo ados
ĠAc t
ĠMerc ury
ĠSindica to
L ife
n Ã³s
Ġde i
Ġqu im
Ġan jo
ĠEs portes
Ġto x
ĠSe ga
Ġaconte cem
Ġgratu ita
- "
S ul
Î µ
Ġp ensÃ£o
Ġdiv indades
Ġsupera do
ĠKei th
G al
b ular
en za
ĠAr co
Ãºbl icas
ĠGa ia
Ġhou ver
cica ba
D iÃ¡rio
M c
Ġdo ces
it ta
Ġcome ter
uro ra
ian Ã§as
Ġtecn olÃ³gico
ĠelÃ©tr icas
Ġparal elos
Ġbon ita
Ġrenuncia r
F M
be tes
Ã©s b
Ġesca pou
Ã³t ons
Ġrepetida mente
Ġpersu ad
ĠIre ne
A A
a v
re am
Ġqu Ã£o
ĠS IC
Ġen ver
Ġimp on
Ġconsidera ram
Ġfei ti
b one
ĠC ad
Ġpo Ã©tica
Ġent rado
ĠPa nte
Ġ183 7
ĠBol onha
Ġbio diversidade
Enc ont
n ico
no mes
pa tia
Ġgra vando
Ġcria m
Ġaqu ando
Ã©re z
ĠCla ro
L E
ĠÃĤng elo
. Â°
b by
Ġver tente
dor f
nes ota
Ġbilhe terias
gir l
Ġdesped ida
ĠalienÃŃg ena
ĠFunc hal
T M
gu ard
Ãªm ia
Ġch umbo
Ġbas ÃŃlica
ĠSen na
Ġperd Ã£o
p ic
nd Ãªncia
ĠD ul
ĠF ru
ĠAg rÃŃ
ĠUs ina
Ġdemoc rÃ¡tico
Ġbombard eio
ura i
Ġcolon izadores
D R
n ica
v est
Ġs es
ĠS O
ĠB rÃ¡s
us os
ĠT ha
cion adas
Ġra tos
Ġja to
ĠPre ta
ĠHuma no
ĠT NA
Ġsub Ãºrbio
ĠPro tes
ĠConc elho
ĠGil bert
ĠFri end
Ġoce anos
Ġna taÃ§Ã£o
Ġpa gou
oc up
rado ra
Ġutiliz ava
ĠOl inda
ĠEl len
Ġconfir mar
Ġprotagon izou
ĠDel gada
Ġgin Ã¡sio
ĠDoc u
ĠacÃºs tica
an ca
Ġac lamaÃ§Ã£o
Ġreg ista
Ġil ust
ĠBon ifÃ¡cio
Ġperif eria
A f
ĠF our
au tor
ts burgh
K ing
c ena
ĠA do
Ġge orgia
Ġreti ra
ĠTele vis
ĠAgu ilera
re no
ĠP A
ĠO mar
ĠRe ed
Ġvis itado
ĠBar roso
ĠMin d
Ġvel has
Ġet no
ĠSte in
Ġma turidade
Ġtra tou
Ġcons istem
Ġproc lamaÃ§Ã£o
ĠSte vens
Ġadqu ire
Ġtorna rem
te io
ĠGo a
ĠVan essa
Ġdo b
Ġter Ã§os
Ġcl ar
Ġun animidade
Ġdivers Ã£o
Ġpla teia
ĠmÃ©d icas
Ġmanif esto
Ġadvo cacia
Ã¨ s
ĠpÃªnal ti
Ġconfe de
Ã³ mica
ĠK it
Ġsub ja
ÃŃp tico
ĠMad ri
Ġacess os
Ġapoia ndo
ĠModer n
ĠProte Ã§Ã£o
m idas
s tal
Ġdes istir
Ġtra uma
Ġrealiz aÃ§Ãµes
Ġconf is
ĠMonte vidÃ©u
Ġadm ite
Ġcere ais
Orig inalmente
la v
ĠN in
Ġpa ro
Ġdire tas
Ġcul tos
Ġr Ã©is
Ġdispu taram
p ela
Ġpoder osas
mor ou
Ġatriz es
we en
Ġaborda gens
Ġdesconhec idos
Ġgeog rÃ¡ficas
Ġ io
ra x
nd Ãª
id ere
ĠD antas
ĠL or
ĠL emos
ve t
lu e
Ġloc almente
Ġmand ioca
Ġ183 3
ĠSand y
ĠEvang el
Ġgran ito
Ġdirec tamente
ĠTeste munhas
Ġes feras
ĠAl va
ĠNa tureza
cul es
Ġd ri
Ġpa g
Ġju ntando
Ġpu ri
Ġsete nt
pro v
bor g
ĠComun icaÃ§Ãµes
Ġconced er
Ġrejei tado
Ġestim ular
ĠChu ck
C amp
s ada
Ã³ to
ĠÃº mido
Ġpas tores
Ġadap tados
Ġ184 5
Ġrestri ta
tÃº bal
Ġped ia
ĠLei ria
Ġmencion ados
rup Ã§Ãµes
ĠWo men
Ġsaud Ã¡vel
ad ure
ri onal
am ba
ĠL ion
ĠSe tÃºbal
ĠOr ton
Ġunivers itÃ¡ria
Ã¡u tico
Ġimin ente
ar que
cion istas
ĠAle ncar
Ġdistribu ir
Ġincor por
B ad
Ġo mbro
un i
ĠU TC
Ġconstru indo
ĠTer min
ĠGin Ã¡sio
Ġs Ã©rios
ĠB ridge
Ġmes quita
des de
Ġresid enciais
z ol
Ġde posiÃ§Ã£o
ĠK os
Ġass essor
Ġpensa va
ĠDel ta
Ġpossibil itando
Gu erra
amo to
ĠPÃ³ voa
F al
P es
W a
s ic
ĠI a
Ġmo ntou
Ġbo tÃ£o
Ġfer idas
Ġultrapass ar
Ġbanc ada
Ġdesigu aldade
ĠIslÃ¢ mico
nd el
Ġus inas
Ġtorn asse
ĠLu igi
Ġim igra
ĠLo pez
ĠlegÃŃ timo
Ġacas o
fam ÃŃlia
ĠR h
Ġab at
elo deon
che v
Ġviv as
To da
ftwa res
Ġpar Ã¡
ĠV io
ĠLu tero
ĠBal timore
ĠTre k
ĠRen Ã©
I F
nt on
tra dos
ĠAl ba
Ġad je
ĠSegu indo
ĠavanÃ§ ados
Ġinteressa ntes
Ġhid rÃ¡ul
Ġcatal is
C T
v ra
ĠM ater
Ġb one
Ġalc unha
Ġdor sal
ĠPetro bras
il da
Ġ3 000
Ġvol tadas
Ġaplic ados
tema la
u dos
ol ia
ĠR ez
ĠN ancy
at ch
ĠPa u
et Ãª
Ġliv rar
Ġcond ens
Ġderi vadas
ĠHel en
Ġsin Ã´nimo
ĠTrabal hou
Ġment or
Ġferrovi as
Ġjuda ÃŃsmo
Ġsolid ariedade
Ġdepo imento
Ġfile iras
Ġp icos
C ola
ĠS ra
ir l
Ġpres tou
Ġofere cida
ĠMat he
Ġcombina Ã§Ãµes
r un
v ena
qu ei
ĠG odo
Ġcontra tar
ĠCam ilo
Ġcur rÃŃculo
ĠTer ras
Ġ184 7
Ġviaj ando
geral mente
suced ido
ĠTib Ã©rio
y ne
Ġa Ã§
nd imentos
ul es
Ã³ grafos
Ġma res
ĠG Ã³
ĠK in
ĠMaur ice
ĠDemocra cia
Ġpartil ha
G rupo
ĠM Ã´nica
til de
Ġun idos
Na tional
Ġtre inos
Ġexperi mentais
Ġfavor ita
ĠRu y
ĠRoss i
Ġdiverg Ãªncias
ĠEdi mburgo
Ġcilind ros
n an
v aram
ĠM ick
ho ma
cre en
rit z
ĠAd rian
ĠGal vÃ£o
Ġproib iu
Gen eral
anga i
T odo
Ġdes central
tic ismo
Ġexa to
Con c
Ġmere ce
U SP
i ers
ĠM esa
ĠH orta
Ġan orma
icion ista
ĠPla ta
ĠBas ÃŃlio
ĠtÃ©r reo
Ġcarre ga
Ġn er
Ġis lam
tel la
cal ipse
Ġchama ram
Ġsegu rando
tas e
ĠMo ta
Ġmul ta
Ġgovern ado
ĠlÃŃqu idos
Mic hael
Ġtuber culose
à ¸
ĠE mpre
ĠD it
ĠD od
tic idade
Ġmin ia
Ġcapital ista
Ġdeco rado
Ġorg Ã¢nicos
ĠsÃ³l idos
Ġaven idas
ia ne
ÃŃ gio
Ġg atos
Ġsob e
Ġind ÃŃcios
Ġsur to
Ġaument am
Ġafres cos
ma in
ĠP int
Ġpor centagem
Ġrefer iu
ĠAu tÃ³
Ġsecre tÃ¡ria
ator ial
Ġprol if
olo ca
Ġhon ras
ĠVan couver
Ġaliment am
enz ie
Ġcaver nas
m is
ga nta
Ġr Ã³t
Ġate ndendo
Ġflu xos
Ġincorpo rar
Ġceleb rada
Ġcompartil har
Ġcompens aÃ§Ã£o
Ë Ĳ
le g
Ġprote cÃ§Ã£o
Un iversidade
ĠIno cÃªncio
ĠCo penha
ĠRe yn
mal l
ĠPs y
f ru
ĠPa iva
ĠGu iana
ĠAm Ã©lia
tif ul
orr ido
ĠCalif ornia
IA A
Ġfar inha
ĠLua nda
Ġdramatur go
Ã¡rze a
Ġqu ilo
ĠF ly
et h
ĠCar toon
Ġinstitu iu
Ġapaixon ada
Ġproto col
ĠMeso potÃ¢mia
H C
Ġdo lor
Ġv ogal
ass os
Ġintroduz idas
x Ã¡
ĠN ord
Ġle nd
ĠMin nesota
cel ino
Ġempre ga
cip iente
cipl inar
ĠCaval aria
k as
lu z
Ġpre tas
ĠPa ixÃ£o
cas ting
ĠCor o
Ġpint ado
Ġenvia ram
Ġneu tro
ĠCho ice
Pri meira
F ez
I sa
p Ã§Ãµes
ti res
Ġbol sas
ag i
ĠCol lor
isÃ³ dio
Ġbus cam
Ġmun iÃ§Ã£o
ĠGonz Ã¡
Ġbicic leta
Ġaudit Ã³rio
iz z
tr us
tr ick
ĠH id
ed i
ba to
ber o
Ġbur guesia
Ã¡rqu ico
ĠA lo
Ġl unar
tÃ³ dia
ĠCla udia
197 5
Ġincapa cidade
Ġabrange ndo
Ġreproduz ir
ĠpirÃ¢m ide
Ġcomedia nte
Ġse p
ĠJu dic
ĠLat in
Ġcombust ÃŃveis
Ġoto mano
Ġdoura do
ĠAth le
ĠSabo ia
re te
Ġex postas
et nam
Ġam adure
Ġtent ado
Ġrefle tir
ID S
Ġdiferencia Ã§Ã£o
u ar
re io
Ġb ul
Ġprog ressÃ£o
Ġrelacion a
Ġcivil izaÃ§Ãµes
Ġprocess adores
ĠTu rim
bul Ã¡rio
borou gh
Ġhumil de
la va
ig e
co mb
Ġ18 12
Ġfu ri
ĠOri entais
ĠCec ÃŃlia
Ġpa cto
ĠRo ra
198 1
ĠMos co
Ġconsol idou
Ġdistin gue
ĠOpera Ã§Ãµes
ĠAa ron
id iu
ÃŃ ada
Ġpre parou
til ha
Ġale gaÃ§Ã£o
ĠHo mer
ilo to
Ġconserv adora
Ġbud ista
ĠT rÃ¡
ist s
Ġca Ã§as
Ġinc umb
rav os
lus Ã£o
Ġrestaura da
ĠJul io
ĠTr ÃŃp
Ġcober tos
Ġproporcion a
nal do
Ġsatisfa zer
ĠFir st
Ġmonta nte
C e
tu be
Ġmar inhos
est ade
Ġating ida
ĠBu eno
rel la
Ġparc eira
Ġdiver tido
ĠJess ica
ĠProfiss ional
Ġpos so
Ġconstitu iu
ĠAla bama
ĠSin fÃ´nica
Ġev ita
ĠFo re
wal do
w ing
Ġde gen
so m
pa i
Ġpl ana
Ġintegra dos
Ġfuncion ando
Ġempa tou
Ġ183 9
ĠEdi tion
Ġco gu
qu ist
min do
ĠPro ject
inh al
Ġlic enci
Ġdocument Ã¡rios
ĠSto ck
Ġnoruegu Ãªs
Ġmerid ional
Ġrepou so
ge bra
Ġrevolucion Ã¡ria
ĠMÃ¡ ximo
Ġfilos Ã³fica
Ġdemoc rÃ¡tica
Ġcompat ÃŃvel
ĠWell ington
par Ãªncia
Ġcorre la
Ġident ificadas
ĠMach ine
Ġlas er
ĠRal ph
ĠFigh ter
ĠA S
an go
ĠD ro
Ġcor tada
Ġobrig ada
tera na
Ġvul gar
Ġteleno velas
Ġcomprom issos
Ġrespira Ã§Ã£o
Ġe rosÃ£o
Ġv era
ĠprejuÃŃ zos
ĠA ch
ĠA cesso
us sia
rÃ¡ ticos
ĠBo o
Ġvolta m
cor onel
Ġrazo Ã¡vel
x ter
al em
Ġque rendo
ĠAm igos
ĠEl im
ĠPol y
Ġdesapare ce
Ġvin das
Ġcicl ismo
Ġdevida mente
ĠabÃ³b ada
ei te
Ġest resse
ter back
Ġreg ressa
Ġcanad enses
"( "
Dra gon
ĠgÃªme os
H al
f io
ĠC us
Ġdes por
Ġcompanh eira
ili adas
ĠV ille
Ġdivid indo
ĠSÃ³ crates
ĠAbra ham
Ġen rique
oc al
ens tein
ress ou
ĠSag rado
Ġincentiv ar
Ġd ras
ts ch
Ġconhe ceram
ĠâĢĶ ,
Ġconsol idar
Ġanex aÃ§Ã£o
Ġrodovi Ã¡rio
ma x
Ã© bio
al hes
ĠA vis
Ġg lor
ĠL una
Ġper cent
ros e
Ġfinal istas
Ġviol on
ĠGua temala
Ġcondeco rado
Ġconcei tu
Ġcastelh ano
ĠNenh um
Ġdetri mento
Ġescad aria
Ġparana ense
ĠH era
Ġtele jornal
Ġdo bro
ei Ã³
no t
Ġdire trizes
Ġregist os
ĠEd ifÃŃcio
cios os
Ġdete tive
ĠCamp ina
Ġexcep cional
Ġnam oro
H O
an Ã¡lise
le e
ĠM orreu
Ġin segu
ĠD Ã©
Ġta tu
Ġab dic
Ġimp ressa
ĠEl lio
ĠMel bourne
Ġagu ard
ĠgalÃ¡x ia
Ġingredi entes
Ġin du
im on
ĠV on
Ġle ilÃ£o
ĠCa Ã§
Ġauto mÃ¡tica
ĠMc L
Ġtouch down
R u
ro ta
Ġno ivo
Ġal gas
Ġconhec em
ĠMo del
Ġps iquiÃ¡
Ġde viam
Ġco ndessa
Ġv id
ĠP oint
Ġba tizada
Ġja z
Par tido
ĠPira cicaba
ĠW ins
ĠPer ÃŃodo
Ġultra passa
Ġprelim inar
. ;
W ar
Ġcomp ressÃ£o
ĠDu tra
Ġexib iu
ĠAu x
tÃŃ de
ĠBan ks
Ġacres centa
T or
ti le
ula nte
Ã´m io
Ġobserv adas
ĠjurÃŃd icas
ĠMore no
ĠMetropolita no
Ġdras ticamente
O b
mb as
Ġpo eira
ĠEm ira
Ġproje tou
ĠPe arl
Ġabus os
Ġdinossa uros
g Ã©n
re u
ens os
ĠAr ru
Ġmin orias
ĠHol mes
Ġcla us
Ġur Ã¢nio
Ã³ ias
ĠT ul
ens on
Ġtur ca
ĠInter continental
Ġsurg indo
su per
Ġexer cendo
Ġrep ass
ĠBi enal
ĠInf elizmente
ĠE ve
Ġpor co
Ġpres tados
ĠEspe ciais
Ġjoga va
Ġpatroc inado
Ġaposent ar
ĠlÃ¢ mina
Ġans iedade
ĠA val
ĠCo ntas
igna Ã§Ã£o
Ġdescan so
C N
ĠA mo
ĠS M
ĠD ere
ĠO ber
Ġca ÃŃdo
Ġh iato
Ġele gante
Ġpa to
ĠMar i
ĠMc G
Ġparal ela
Ġreconstru ir
qu ar
ĠMa nt
hec ido
ĠGa za
Ġado taram
Ġcaminh ada
ĠprejuÃŃ zo
ĠvÃ©s pera
ĠÃĵs car
V en
te nded
ĠS ty
ĠB ronze
ca gem
Ġal ianÃ§as
Ġins urg
Ġmant idas
Ġdemo grÃ¡fica
ĠStar s
Ġang ular
l ib
ÃŃ pe
ĠP il
Ġam adores
ĠAn jos
Ġfra cos
fil me
Ġcarre gado
ĠRena ult
Ġmister iosa
ĠBomb eiros
g ne
Ġl umin
Ġpre nder
ĠK ay
ĠpÃ©s s
Ġbur gu
Ġsupre mo
Ġabsolu tamente
ĠRond Ã´nia
Ġf raÃ§Ã£o
ĠM ere
ĠM Ã³d
Ġas tron
ĠAnt unes
Ġgosta ria
Ġdemol iÃ§Ã£o
Ġsubord inado
ĠW ard
Ġali menta
Ġassum iram
Ġmanif estou
Ġemp enh
D iv
Â Ń
ĠI na
ec idas
Ġac orda
ĠCon sequentemente
di um
Ġadm issÃ£o
Ġaflu entes
ĠGonzÃ¡ lez
N u
er ife
ĠA nteriormente
ĠV ul
tros pec
Ġobs tru
ĠMat h
Ġdetal he
ĠRay mond
S il
Ġqu inh
ĠP ru
ĠSul liv
ĠHu ghes
ĠcatÃ³l icas
n era
ĠA viaÃ§Ã£o
Ġex pon
Ġres istente
tra gens
Ġpint ar
Ġ183 1
Ġafric anas
Ġinsu ficiÃªncia
ĠE vil
Ġconc ess
Ġju venis
Ġmelhor ou
rel li
Ġente ndido
Ġreconstru ÃŃda
Ġembri Ã£o
A mor
R el
va mento
ĠO z
Ġeste ndendo
ĠHo ras
Ġ183 8
era tion
ĠJa ke
Ã§os a
Ġimped ido
Ġempreend imentos
Ġromp er
Ġdomic ÃŃlios
ĠBez erra
Ġd ial
ĠS cha
ĠI A
ĠV Ãªnus
Ġinforma l
tilh aria
Ġhum ilha
ĠWood s
Ġcata lo
S Ã³
d ida
Ġsu pra
Ġestu pro
ĠÃ³ peras
ĠAma pÃ¡
Ġress urg
Ġisol adas
ĠFigu eira
Ġemit ida
Ġafet ada
R T
ĠAm Ã©rico
Ġing er
Ġobs c
ĠmÃ£ es
ĠCan ada
ĠWo nder
ĠislÃ¢ mico
ĠH esse
Ġh Ã©l
Ġpa tentes
ril l
Ġrecupera do
tron ic
Ġpereg rinaÃ§Ã£o
Ġabel has
ia res
Ġpre tens
Ġcond utor
Ġmos teiros
Ġsent i
B ri
Ġno vel
ĠP M
sa y
esso res
ib le
Ġocup am
Ma hon
Ġconsol es
O nde
Ġs it
Ġre tÃ¡
ĠAl fa
Ġpode rem
ĠAp olo
Ġcolo caram
Ġmont ada
isp ens
ĠPelo tas
ra to
ĠP Ã©rez
ib anc
Ġmar cial
ĠCha gas
Ġconven cido
Ġartif iciais
Ġculmin ando
Ġcomputa cional
Ġracioc ÃŃnio
Ġincorpor ou
B ru
ĠA nc
ĠS pa
Ġg esto
ĠG us
ĠK ol
Ġba cter
nta va
ĠCons elheiro
Ġrepresent adas
âĢĻ ,
Ġrepe tiÃ§Ã£o
Ġcompartil ham
ĠP atro
Ġpar Ã³dia
Ġcons Ã³rcio
Ġemp ÃŃr
ĠmÃ³d ulos
espe cialmente
C r
R od
U TC
ĠC esar
Ġle al
Ġinc ursÃµes
Ġsus ce
lic ana
197 8
Ġo posta
ĠS T
Ġma tas
tr y
Ġus Ã¡
ĠJur ÃŃd
ĠMonu mento
ĠIG N
Ġnomencla tura
O h
Ġ rito
Ġpar tiram
Ġtorn Ã¡
ĠPo mbal
Ġr ÃŃt
ĠSen ador
Ġexig em
Ġhom Ã´nima
ĠSulliv an
S he
u ka
ĠVal le
Ġleg is
Ġexist indo
ĠLuz ia
Ġrenas centista
Ġfisc alizaÃ§Ã£o
Ġdecompos iÃ§Ã£o
Ġdi esel
Ġlo tes
Ġtur nos
Ġrepe tiu
s is
ĠA ge
ĠR ios
Ġmo vido
ĠNo el
Ġcol ar
Ġmor ro
ĠmÃ¡ gica
ĠÃ³ culos
Ġconfir mados
Ġforn ecido
Ġaument ada
ĠNÃº cleo
S tra
Ġh Ãºngaro
kin son
Ġtric am
c adeira
Ġv ela
Ġcarta z
Ġconden ou
Ġsevera mente
ĠSimp son
nc ista
ĠH ur
ĠEsp ada
Ġjus to
C ara
o x
ri es
ga cia
Ġnitro gÃªnio
Ġda vam
ha b
iss Ã¡rios
Ġhor izonte
Ġajud ado
Ġbor bo
Ġcoe ficiente
in adores
ĠE ixo
Ġfil ant
Ġdez enove
ĠCol lec
Ġenvia ndo
ĠObs ervatÃ³rio
S ur
g ina
ri mentos
ĠC un
Ġb it
ĠMar tim
Ġconf lu
ĠJu venil
rol do
Ġcicl istas
Ġgor dura
s an
ĠN ixon
ĠRe vel
Ġaproxim ou
ĠNor onha
Ġlegisla tivas
Ġconsoa ntes
M ont
ĠA pre
Ġv iam
ĠI gu
Ġta baco
ĠW ant
Ġafe tados
dire ita
Ġenfa tiza
er i
ĠS l
ĠG las
ion ado
Ġver ificaÃ§Ã£o
Ġne tos
Ġali mentares
ĠOl ga
Ġvul cÃ£o
Ġacess Ã³rios
ĠMcC artney
Ġcess ar
ĠHaro ld
la homa
ir s
Ġres sonÃ¢ncia
ĠK aren
Ġad iado
Ġfun cionais
cons idera
Ġhomic ÃŃdio
ĠResol uÃ§Ã£o
G od
T ho
n ho
Ġl ido
", "
Ãªm ica
ĠPri x
cra ft
Ġgas to
197 3
Ġglo bais
Ġincent iva
ĠCome ndador
Ġnamo rar
D H
Ġp Ã³r
or nos
ĠD ale
Ġcor ta
ĠJa to
Ġperman ec
Ġexperi mentar
ĠJer Ã´nimo
Ġvin il
Ġcontempor Ã¢neas
Ġpropriet Ã¡ria
D entro
l ina
Ġ ic
ĠE ag
Ġb ando
Ġat lÃ¢nt
ite nci
Ġenfre nt
Ã¢nt ica
ĠCham ber
Ġbatal hÃ£o
ĠNick elodeon
Du as
ĠS tre
ĠH ere
duz iu
cri p
Ġprofiss ion
Ġabs ur
ĠTun ÃŃsia
H ouve
Ġt ÃŃm
Ġpa roquial
ĠMe xic
e ma
Å Ħ
ĠN iel
Ġest Ã´ma
Ġcont ida
Ġcons orte
Ġespe culaÃ§Ã£o
Ġmin or
Ġsign ificar
Ġjur ista
Ġcach orro
Ġpreconc eito
Ġcontex tos
ĠPor tela
di ente
Ġespecial idade
Ġtransm ite
fil os
Ġmeta b
ĠMÃ¼ ller
Ġa man
me la
ĠBer lin
Ġnatural ista
Ġesqu ecer
Ġconsecu tiva
ĠHero ÃŃsmo
k ian
Ġqu o
am as
Ġba ile
ne o
Ġvest idos
Ġnarra tivas
Ġgravado ras
ĠApos tÃ³lica
Ġdesenh ista
Ġlegitim idade
" âĢĿ
Ã ²
Ġc era
Ġab do
ĠCan nes
Ġbi olÃ³gicos
Ġintroduz idos
ĠJudic iÃ¡rio
Ã³ fon
ĠG lor
ĠRe centemente
ĠAl pes
Ġ18 14
Ġvol tados
Ġdecorre ntes
ĠChrist ina
Ġplena mente
ĠBayer n
ĠVei ga
Ġno minal
Ġcomp rada
ĠEd son
Ã¡u caso
Ġglo bo
or um
ĠO regon
ÃŃn os
ĠGu edes
Es ses
Ġjul gar
Ġdesapare cer
Ġsuj eita
ĠBet ty
avi Ãµes
gri mas
ma Ã§Ã£o
ĠC Ã´
ific adores
Ġinici adas
Ġesqu ina
Ġfabric ados
sta tus
Ġpater no
Ġbot Ã¢nico
S ome
Ġb ico
ĠL iu
Ġcome teu
Ġz umb
Ġrefer idos
Ġgera dos
Ġvira r
campe Ã£
Ġ ido
ĠG ur
ĠU til
ĠK Ã¶
Ġau tar
Ġcomple mentares
Ġcolo cam
Ġdesem pate
Ġacei te
Ġsusp eito
197 6
Ġtraduz ida
ĠMik hail
E B
g ger
iv ado
ĠJ ar
Ġac hados
Ġprovo cado
Ġrepe tir
Ġinver sa
Ġsusp ense
Ġagu da
ĠÃģra bes
Ġpor tadores
lo va
ĠH ub
Ġcomple tado
Ġcontribu em
Ġdemons tram
Ġlist ados
ĠbÃºl garos
rÃ©sci mo
A travÃ©s
Ġt utela
Ġin ci
ĠRe agan
Ġlim itados
Ġencerra da
tr Ã£o
man ia
ĠPres tes
ĠPlane ta
me yer
Ġt ib
ita nte
ham mad
Ġarque olÃ³gicas
Ġradio a
Ġmarch ou
ĠC ala
Ġag itaÃ§Ã£o
Ġcr Ã´nicas
Ġadap ta
ĠNor man
Ġtraz idos
Ġrecep Ã§Ãµes
Ġinform Ã¡tica
Ġced er
Ġpadro eira
ĠAga in
m idos
ĠB yr
Ġarqu ibanc
Ġreceb iam
Ġsens ÃŃveis
197 4
en ces
Ġ1 19
tu oso
Ġen for
ĠK ill
ĠCa nta
her Ã³i
Ġaber turas
Ġatra ente
Ġbusca va
Ġencontram os
ĠvÃ©r tices
ta cular
id ers
Ġre Ãºn
Ġ" ...
Ġreg imentos
ĠNe u
Ġmed alh
ĠAd Ã£o
ĠVal ley
rÃŃ guez
aran j
ĠCri meia
Ġpratic ada
Ġrecru tamento
Ġweb site
Ġ {
Ġal ca
Ġ18 23
Ġnov idades
Ġtro cou
ĠMan n
ĠPen ha
ĠU tah
Ã³x imo
ĠFor m
ĠDan Ãºbio
" ")
me mbros
ĠP age
Ġma quia
Ġpre mia
Ġab adia
Ġ18 28
ĠSa y
Ġquad ras
ĠFo rest
Ġw a
Ġfunda mentos
Ġconven ce
ĠJustin iano
ĠRi hanna
Ġtabu leiro
Ġrevesti mento
G lo
V C
Ġc Ã³s
Ġdesen har
ĠLu gar
mou r
Ġsubstitu i
ĠPer formance
Ġexpres so
Ġcore ografia
Ġabunda ntes
Ġmarx ista
ĠTes ouro
N um
Ġmul tina
Ġcomple tos
Ġprofiss ionalmente
ĠSim Ãµes
ĠSar ney
Ġpano rama
M ac
f frey
Ġb ir
Ġi tin
Ġeste re
Ġinscri tos
Ġsup ers
ĠRodo vi
iclop Ã©dia
ĠP ix
Ġ18 10
Ġ18 26
ual idade
Ġves tuÃ¡rio
ap enas
ĠProvin cial
Ġc unho
nd ade
ol es
ĠMu d
Ġfer iado
Ġdefe ndida
ĠBus iness
t Ã©rio
oc ÃŃdio
ch ia
Ġro bus
ĠSp ring
ĠEcon om
Ġlago a
cant i
Ġuru guaio
A gora
à ¦
Ġs oul
ĠO wen
Ġconduz ida
dire tor
ĠQuar ta
V ID
ĠCo w
Ġdifere ntemente
Ġsimpa tia
Ġpasto ral
K o
Ġse des
an ne
ĠO TAN
ve j
Ġac Ã§Ãµes
Ġvis ava
Ġsobrev ive
mon ar
ĠBag dÃ¡
f icas
ist iam
Ġal de
Ġlocaliz ar
ĠmÃŃn imos
Ġcatal Ã£o
ĠÂłĠÂł ĠÂłĠÂł
ĠJama ica
k ia
ant iga
Ġexperi ente
Ġdivid em
ĠLond rina
ĠInf in
ĠMary land
Ġindire tamente
ĠPel Ã©
ĠclÃ¡us ula
Ġpro nta
Ġtra Ã§o
Ġfil ip
ion a
Ġinf ante
ĠHo mens
ĠBra zil
ĠEstre ou
ĠErn est
I m
Ġde do
ĠE manuel
la mar
Ġou ve
ĠX angai
Ġdesta caram
ĠPro cesso
iter r
ĠBol sa
Is to
Ġanf ÃŃb
al ismo
ĠA er
Ġg ala
Ġta mp
ĠQu ir
iza ntes
ĠMinist ros
Ġsusp eitos
Ġafe tado
Ġfei xe
Ġmercen Ã¡rios
ic er
Ġba cias
ĠDe pressÃ£o
ĠSo y
ĠFo ntes
ĠAb out
Ġexp ans
Ġesco amento
ĠfilosÃ³f ico
ĠRora ima
h ense
Ġpo d
ĠPa es
Ġsa ÃŃdo
Ġterror ismo
Ġagropecu Ã¡ria
t ton
Ġs Ãªnior
Ġin unda
ĠT oul
her Ã³is
ĠAn al
Ġener gias
Ġmorf ologia
Ġcalib re
p he
for te
aria is
orn ing
Ġocup adas
Ġrefu gia
ĠAgrÃŃ cola
l icas
Â ³
Î »
Ġflu vial
old s
Ġvideocl ipes
Ġsimpa tiza
fri ed
Ġafet adas
Ï ĥ
ro ns
ĠM inha
Ġl ance
bal a
Ġexecu tou
ĠHe at
Ġsex os
Ġaplic ou
ĠCamp us
Ġsar gento
Ġexcess iva
ĠAbd ul
ĠWrestle Mania
u co
Ġc ela
ĠPar ma
Ġexce pÃ§Ã£o
Ġescal Ã£o
Ġperig osa
I X
f igu
Ġf erv
na ta
Ġcome ta
ĠCom mon
Ġproje tados
Ġatra pal
ĠpÃ¡ roco
ÃŃfer o
ĠServ ice
Ġnauf rÃ¡gio
b ito
Ġp Ã¢nt
ĠJ i
Ġmo ntes
ag re
ne go
Ġcome tido
Ġfunda Ã§Ãµes
197 0
Ġconquist ados
Ġinfec Ã§Ãµes
ĠPit tsburgh
ĠPatrim Ã³nio
ĠVÃŃ tor
Ġalinha mento
Ġdes class
no ite
Ġap ara
ĠU HF
tic ut
ĠAr gent
lus ive
ĠFre qu
vor os
ĠavanÃ§ aram
Ġadicion ada
Ġacess ar
Ġlibera da
ĠsÃ©r vios
b itas
t ham
na gem
Ġat esta
Ġdia mantes
ĠCam bo
Ġcur sou
Ġcomb ustÃ£o
isse x
Ġprome te
D r
T re
nt h
Ġtrans pla
Ġado raÃ§Ã£o
"> </
Ġal ven
ĠV iva
gan g
ĠalcanÃ§ ada
ĠWo man
los Ã£o
ĠChrist mas
Ġcore ana
Ġs amb
sa x
ill on
Ġcorre Ã§Ã£o
Ġimpro vÃ¡vel
ĠSag rada
ĠÃŃd olos
Ġpis os
Ġvirtu des
Ġque ijo
ver melho
ĠEsta tuto
Ġcus tou
Ã¡ p
to grafia
ĠA me
Ġale ga
Ġsex ualmente
ĠHer mes
Ġinstal aram
Ġinvent or
ĠCount y
Ġprostitu iÃ§Ã£o
Ġconfec Ã§Ã£o
n ight
Ġn inho
ĠM ura
ĠO ro
Ġdes mo
ĠG es
co nde
Ġh its
ne th
Ġad ent
ge t
Ġne gaÃ§Ã£o
ĠPe da
Ġdem Ã´nio
Ãºm ulo
Ġmelo dias
Ġargument am
ĠÃģra be
ĠHabs burgo
Ġhegem onia
C S
a me
o este
in go
ĠCh ang
Ġeste ndida
ĠNe vada
duz ir
xo fre
Ġassass inos
ĠVol ks
Ġmagn Ã©tica
Ġescul p
l ish
ĠE S
ĠR NA
ion ismo
ind us
Ġating em
Ġobrig ando
ĠFro ta
ĠRho des
Ġcomp rim
Ġab as
ĠEle na
Ġcent rada
Ġsur f
isc ons
ĠSand ra
Ġati rar
ĠNico le
D as
D en
P ad
le tim
Ġno turno
gu m
mp h
tiz ando
ĠSol id
ĠCaval canti
Ġdesconhec idas
Ġouvi ntes
Ġchanc eler
Ġproclam ou
Ġdrena gem
R ay
ra vam
Ġl is
ĠK hal
ĠNo bre
ĠEd iÃ§Ã£o
Ġprocura do
Ġrecus ar
ĠCla ire
ĠFreder ick
Ġgravita cional
S pe
ma ns
ĠP ire
Ġen riqu
Ġass iste
ĠIn icia
ĠPe Ã±a
Ġcres cem
Ġ184 1
Par is
ĠInterna cionais
ĠsÃ¡b ados
ĠBerk eley
E ntertainment
Ġf eiras
Ġex isti
Ġele vou
Ġmas cote
Ġsa xo
Ġ184 3
Tra bal
Ġincapa zes
ĠMississip pi
E mp
Ġta Ã§a
ĠV et
Ġdifere m
Ġ17 0
Ġmin eiros
ĠKe pler
Ġmajor itariamente
ĠMada me
Ġatmosf Ã©rica
oloca usto
g is
Ġp Ã³l
Ġu l
ĠV ara
Ġac os
erv ador
ĠEsc ol
Ġeng enhos
Ġprecisa vam
ĠVo leibol
pra no
ĠFlor ida
Ġprofe ta
Ġprivil Ã©gio
b ias
n ologia
ĠUS S
isla u
Ġsinal izaÃ§Ã£o
Ġafe tou
ĠMac eiÃ³
Ġmexic anos
ĠBad en
Ġopos itores
R ich
p Ãµe
s ha
ĠS ix
tu d
Ġh aste
Ġfinal izou
Ġir landeses
Ġestre ando
Ġmin Ã©rio
ĠJu ntos
ĠMc Mahon
Ġdescon for
V ir
ĠL amb
ment ista
Ġrela x
Ġestu p
Ġfe udal
Ġmod ificar
Ġopera dora
Ġcontrol ados
Ġrecol her
Ġpolon esa
ÃŃ ra
to ck
Ġgaro tos
ĠCorn Ã©lio
Ġa vista
it Ã³ria
ĠGu ard
ĠIn iciou
Ġsus pensa
Ġdefe ndido
Ġrepublic ana
ĠMG M
Ġc itadas
ĠS na
vi u
Ġ18 25
ĠDe ve
Ġtar dia
ĠMad re
ĠRod rÃŃguez
L iga
c elo
Ġconte m
Ġprepara dos
Ġcron ista
ĠrÃŃg ido
mid t
qu Ãª
ÃŃ timo
ĠC ano
pe t
ĠN ela
Ġca ted
Ġed ificaÃ§Ãµes
Ġcruz ar
ĠEr nst
197 7
Ġapoia ram
ĠEdward s
ĠTrop ical
Ġe tim
Ġcan cro
ins ki
Ġretra tar
ĠBal d
Ġsubmar inos
Ġf icasse
ĠA presenta
ĠS era
Ġi t
Ġorient ado
ĠLes lie
ĠjesuÃŃ ta
Ġextraord inÃ¡ria
k at
te ras
ĠC Ã¡ucaso
Ġl Ã©sb
nto m
ĠTo yo
ĠMÃ© dico
Ġvir iam
Ġreserv ado
ĠRese nde
o ke
to ral
ĠP ente
Ġfu gi
ĠSe p
Ch rist
Ġcuidados amente
Ġarg ila
Ã³ tipo
Ġmo tiva
ĠTe od
Ã©l icas
Ġexib idas
Ġsucess ivos
Ġmens ag
Ġresid ir
ĠEmpres as
a inda
c ina
ĠM oney
Ġas tero
go gia
ĠAl lan
Ġmar Ã©
Ġela borou
ts ky
ĠHer mann
ĠÂ« "
Ġconceb ida
Ġaritm Ã©tica
v adores
w ers
Ġp H
Ġp esa
pe ndendo
Ġimp l
ĠBar t
Ġnecess itam
Ġafirma Ã§Ãµes
ĠWall y
Ġcontrover so
? ".
g ial
ĠB un
ing e
ĠCom Ã©dia
ĠPro duÃ§Ã£o
Ġultrapass ou
Ġpac ÃŃfica
id ados
ĠE MI
do is
ĠSe y
Ġtr Ã©
Ġsent indo
Ġincom pa
Ġdram Ã¡tico
ĠsÃ©r vio
R os
ho mem
de termin
Ġve tores
Ġcomun hÃ£o
ĠMe yer
Ġhe avy
Ġdomin ou
Ġmito l
ĠPatr ÃŃcia
ĠIma cul
Ġmolec ulares
ĠautÃ´no ma
ĠRamal ho
ĠfrÃ¡ gil
ur idÃ£o
Ġing estÃ£o
ĠCopa cabana
Ġmencion ou
Ġreci nto
ĠIS O
Ġtreina mentos
M O
ma t
Ġre util
Ġfa ca
Ġind ispens
Ġcol Ã³nias
Ġcruz ada
Ġsocor ro
ĠreÃºn em
k is
ĠO ntÃ¡rio
Ġsi metria
ĠLo mb
Ġconju ntamente
iza nte
ĠMed ina
Ġfunda mento
Ġocorr idos
ĠFel iz
Ġe menda
Ġf at
Ġnacional mente
ĠSec und
Ġprom essas
Ã ®
an k
ĠO ur
Ġme ias
ne amente
Ġdia grama
Es sas
Ġw restling
Ġinteress ou
Ġsapa tos
Ġslo gan
ĠC Ã¡s
Ġesta mp
Ġcaracter izaÃ§Ã£o
Ġespos as
Ġinfer no
Ġinser ida
ĠCria nÃ§a
ĠVing adores
Ġres umo
Ġfre ntes
cas a
fa ntes
Ġinforma r
Ġespec tador
ĠAg ri
Ġinov ador
Ġampl iado
Ġecoss istemas
Ġench entes
an Ãªs
tr Ãªs
ere ntes
Ġcir cun
ĠArt ÃŃstico
Ġrecome ndado
Ġimens o
ĠestÃ¡ veis
Ġdeix Ã¡
Ġref Ã©ns
Ġcomb inados
ĠdÃŃg itos
á ¹
Ġo peram
Ġfo c
ĠN O
ĠT ub
Ġme ramente
Ġtrans aÃ§Ã£o
che k
Ġescal as
Ġrecorre r
ĠÃŃcon es
ĠSever o
J ose
Ãº dio
Ġdis par
ĠEx er
Ġescre via
Ġquad rada
ĠRec ursos
igi ene
ĠÃ³p tica
Ġincer teza
D os
v ro
ra p
ci Ã¡rio
Ġinter vir
Ġru bro
ĠDa w
Ġimedia Ã§Ãµes
ĠMer id
ĠSta tes
down load
Inter na
D ifere
S ho
ĠI vete
Ġme mb
ĠAr tilharia
Ġgrav uras
Ġquar teto
ĠpÃ¡ tria
ĠSecre ta
ĠHuman idade
Pe ter
Ġargent inos
Ġfuma Ã§a
Ġespion agem
v inos
Ġv ic
ĠP on
Ġven eno
Ġlidera ndo
ĠNu nca
ĠSel va
Ġcor dil
Ġins istiu
Ġprop Ã³sitos
196 4
Ġala van
Ġregula mentaÃ§Ã£o
ĠOk lahoma
Ġsile nci
Ġmonitora mento
D ivers
a pro
da ma
Ġso mos
Ã¢ nc
Ġsa ÃŃdas
Ġdist ra
ĠTe x
ĠAd ol
ph ic
ĠSha w
Ġconce be
Ġimpress Ãµes
ĠEcon Ã´mico
ĠYa ma
ĠGi ul
Ġf rias
ĠE mbra
ĠAl v
Ġpare cida
ĠBor is
Ġampli ou
Ġampli ada
ĠÃ©p ico
t ÃŃveis
ci adas
Ġfo gos
Ġen ci
Ġle ntes
ĠOs waldo
Ġdesta cados
Ġproje tar
ĠSal d
ĠPla ce
ta tion
Ġra nc
Ġmonar cas
Ġimpression ado
Ġbon ito
ĠCat herine
Ġmerg ulho
Ġber Ã§o
Ġpisto la
Ġvizinh anÃ§a
C ir
or Ã³
Ġf rios
me los
Ġsuper mer
Ġchega vam
ĠInfant il
Ġv inhos
ĠM our
Ġma lig
Ġna u
ĠV all
ios amente
ĠAu di
Ġamea Ã§ada
Te ve
Ġrapa zes
Ġdesfa vor
Ġdesconte ntamento
Ġnotada mente
Ã§ aria
ĠA ranha
Ġfa ces
cre vendo
vis or
Ġinstitu ÃŃdo
Ġpref ixo
Ġpro ver
he ta
Ġmar cos
ber ger
Ġcir co
Ġtec lad
Ġdese jado
Ġcerta me
7 00
t ell
cam p
Ġreti radas
Ġreti raram
Ġdepu tada
Ġinim igas
Ġargument ando
Ġcolun ista
ara do
oso vo
ins tream
ĠEsp ÃŃ
ĠCrist ianismo
ER J
Ġromp imento
Ġalven aria
Ġfo cado
Ġfil a
Ġinter se
ĠMo to
ĠEl i
ĠCap ito
Ġcaptura da
Ġingles as
Ġur ina
Ġpropa ga
Ġimag ina
Ġagrupa mento
Ġacomo dar
Ġantepass ados
ĠContempor Ã¢nea
er ve
ĠS ide
ĠB ass
ĠO ak
co pe
Ġest elar
ĠH ou
ĠPa v
ĠCa ta
Ġtrans criÃ§Ã£o
ĠAr naldo
ten berg
Ġelim inou
ĠVa i
Ġpi adas
ĠelÃ© tron
Ġfazend eiro
E ng
Ġeste ndido
ĠVal Ãªncia
ĠPi mente
Ġmora dia
te nce
Ġto caram
ĠNa ve
Ġind ifere
Ġutiliza vam
ĠEstre las
Ġindire ta
ĠLt da
Ġdesn ecess
s Ã©rie
Ù Ħ
ĠP un
Ġpro ced
Ġas f
Ġpo nde
ĠJa ci
ĠPro c
ĠRol l
ĠQual quer
Ġde mos
ĠE ul
Ġou vidos
ir u
Ġta ng
ĠAle ja
Ġga ul
Ġofere cia
Ġmand ÃŃb
Ġpsic olÃ³gica
Ga me
Ġtria ngular
ĠH ulk
Ġcont urb
Ġpe tiÃ§Ã£o
Ġlim itaÃ§Ã£o
Ġprote tor
Ġadicion ando
i Ã³n
r icas
ĠS TF
Ġinter nado
ĠmÃºs culo
Ġtre inou
ĠJu da
land s
Ġextens Ãµes
Ġreform ulaÃ§Ã£o
Ġrejei tada
a ven
ĠS istemas
Ġinc erta
Ġdu ras
ĠHo ff
c um
ĠG h
ĠGu ia
Ġcompe tidores
Ġlig am
Ġprete xto
Ġgovern ada
H alo
b ando
w ara
ĠB og
Ġmar caÃ§Ã£o
Ġsim ulaÃ§Ã£o
Ġequip ados
Ġang ol
Ġintensa mente
ĠBut ler
ĠcÃº b
ĠC our
Ġest rea
Ġac r
Ġver bal
Ġis o
Ġcu me
Ġsocial mente
Ġorient ada
Ġproteg idas
ĠItal iano
ĠLÃ© o
ĠRail way
T ru
ĠF en
Ġso ftwares
ĠAd ri
Ġexperi mentou
Ġlite ral
Ġexplica ndo
ĠmarÃŃ timas
B l
Ġo postos
tado ras
ĠâĢ ¢
ĠAss istÃªncia
Ġamea Ã§ou
Ġren al
Tra ta
Ġben Ã©
Ġdesas tros
Ġtriste za
Ġser iados
ĠCa ro
ĠSu z
ĠJul ian
Ġfantas ma
sand u
Ġtelevis ivo
ĠHisp Ã¢nia
en has
Ġautor izada
Ġreno vada
Ġadm itido
Ġsuced idos
Ġrel anÃ§ado
ĠR oland
ĠPa cto
Ġcome tidos
ĠBu arque
Ġfuncional idade
Ġjustific ar
tenc ourt
Ġc hor
Ġf eno
Ġt Ã³picos
Ġqu a
Ġca vidade
ĠHar vey
ĠMont ana
Ġtex tura
Ġantrop ologia
Ġmetabol ismo
Ġfero z
ĠS ÃŃl
ist Ã©rios
ura r
oc ado
Ġdou tora
Ġsag rada
Ġarmazen ar
Ger mÃ¢nico
ĠJT WC
Ġm ouros
Ġtra vada
ĠNo t
ĠOr ch
ĠBre tanha
ĠPÃ¡ tria
Ġequiv ale
Ġdes do
Ġapresent adores
za ro
Ġbo ico
Ġlemb rou
ĠestÃ´ma go
Ġp Ã³lo
ĠM Hz
Ġme trÃ³pole
ĠLo ja
Ġinvesti ga
Ġeng enho
ĠBla ke
Ġsab em
ĠDomin icana
Ġsegre dos
ĠBrit ney
Ġs aneamento
on go
Ġtra fica
bo w
Ġins tÃ¡vel
ĠMa nda
ĠCas ou
olo res
tan ol
Ġbomb eiros
Ġfix ou
á ¸
nd iz
ĠP inheiros
int it
Ġtraz em
Ġdemocra tas
Ġgar ganta
ĠrÃ© p
Ġpron Ãºncia
Ġmobil izaÃ§Ã£o
Ġplas ma
Ġdesigu al
Ġpercent ual
Ġs ir
Ġto tais
ber ry
hec er
Ġesti p
Ġbrin cadeira
Ġfornece dores
Ġpreen cher
Ġnotur na
Ġofer tas
V Ã¡rias
Ġsub indo
Ġus ur
ĠSu doeste
ĠFil arm
Ġestran hos
Ġâ ĨĴ
ĠJornal ismo
H ip
Ġco ura
Ġdes cida
one te
Ġneg lig
ĠHu gh
ĠPas so
Ġsab iam
Ġhel en
Ġimagin Ã¡rio
ĠOrle Ã£es
E F
u te
ĠA ÃŃ
Ġv Ã´lei
ĠD rama
mar ck
Ġresul tam
fil ia
Ġdete nto
ĠÃįnd ico
ĠAlessand ro
f all
Ġde cap
Ġs p
in na
ĠGu ido
ĠPo e
Ġsal vou
Ġexpress iva
Ġ180 1
guitar ra
f icos
ĠA ba
ula va
Ġmor ou
hado ras
ĠVo ice
Char les
Ġantagon ista
ti ro
ĠS ene
Ġexecu ta
Ġprim Ã³r
PS DB
ĠÃ©tn ico
ĠKen neth
Ġperturb aÃ§Ã£o
Ġflan co
ĠInfer no
Ġcatar inense
Ġfestiv idades
L au
g ala
ĠC ale
ĠC ourt
Ġenc osta
ĠMo tta
Ġdeve ndo
Ġflores tal
Ġprofund os
Ġhomenage ar
Ġeconom ias
ĠBroad casting
Ġrend imentos
ĠgalÃ¡x ias
Ġane xo
Ġplant io
C orre
ar ts
ĠA gn
ĠK re
Ġba tata
ĠBar ba
fo nte
emble ias
196 7
Ġfura cÃµes
ĠbÃŃbl ico
Ġexista m
no v
tos a
Ġac al
Ã©r cia
Ġdu zentos
ĠPo nto
Ġdeter minante
Ġespera vam
fil ho
Ġreta ngular
H y
V ale
ĠO tÃ¡vio
ĠTo kyo
Ġresta bele
Ġliber dades
Ġassass inar
alha mento
ish ing
Ġextraord inÃ¡rio
asa ki
Ġplaneja va
B est
p unk
Ġsimb Ã³lico
Ġdemocra ta
ĠTi etÃª
f ala
as tas
Ġmil ÃŃcia
Ġgen Ã©rico
Ġdem Ã´nios
Re al
Ġdiss er
Ġautom Ã¡tico
Pla y
gua ios
des envol
Ġata cada
ĠBer na
Ġri tos
ĠReg ime
ĠMen eses
Ġdomina ntes
as er
pro te
Ġreceb idas
Ġdig ressÃ£o
ĠPat rio
Ġconfund ido
Ġneur Ã´nios
ĠSa turno
Ġpass adas
Ġprocura va
Ġmis to
Ġirreg ulares
Ġdesp eito
Ġantic or
ĠParla mentar
Ġpro gre
ve ras
ĠLu cy
ĠTempo rada
ĠZu rique
em i
Ġra mal
ĠCh anc
cre do
Ġamb iÃ§Ã£o
Ġpul so
mÃ© dios
Ġmun iÃ§Ãµes
ĠMaxim iliano
Ġinunda Ã§Ãµes
le te
Ġab rup
ian i
ĠEsta va
ĠSal gado
Ġsepara ram
Ġpersegu ido
Ġcrimin alidade
Ġpreserv ado
Ġgeog rÃ¡fico
Ġmat ch
ĠConnec ticut
P ia
Ġo vel
ĠP ent
Ã©ri tos
Ġmant inham
Ġextens as
Ġante na
ala nd
ĠLe is
Ġsent ado
Ġorganiz adores
ĠPort land
N S
P MDB
p ie
Ġco ca
Ġt umo
ĠB ris
Ġtrans vers
ĠCol d
Ġpromo Ã§Ãµes
Ġconclu indo
Ġo ver
Ġt ras
ura da
Ġinc lin
Ġver Ãµes
Ġtur bo
Ġcole tar
Ġconstitu cionais
Ġpresid ido
Ġves tir
Ġcumpri u
Ġexil ados
b Ã©
ad ino
Ġpre tor
Ġau tos
Ġinstitu ÃŃda
Ġliga va
Ġtran quil
Ġrecomp ens
Ġlicencia tura
nt ura
le ra
ĠO de
ĠCh Ã¢
Ġne gado
con o
Ġed itoras
Ġ7 50
Ġvi Ã¡vel
ĠGo ku
ĠAma nda
ĠAde mais
Ġvoca bulÃ¡rio
U P
Ġhabita Ã§Ãµes
pop ular
ĠUs ando
Ġaglome rado
Ġemble ma
ĠPhill ips
Ġhtt p
inom ial
Ġin jus
Ġinf eliz
ĠNe ver
ĠSal va
Ġcanto ras
Ġconclu ÃŃdas
Ġpossibil itou
Ġacum ulado
Ġâ Ĥ¬
ĠPlane jamento
Ġcolh eita
la g
ĠCons ervaÃ§Ã£o
ĠEx ped
Ġcorpo raÃ§Ã£o
Ġinver so
ĠFÃ¡ brica
I nc
Ġcont ada
ĠAp ro
Ġpl Ã¡sticas
Ġorganiz aram
Ġmassa c
Ġlist ado
Ġcarreg ando
Ġrecomend aÃ§Ã£o
Ġvincul ado
nt or
Ġu p
ĠL yn
Ġmes o
Ġpre ver
Ġesp adas
cre ve
ĠHist ory
Pri meiro
Ġpereg rinos
ĠVH S
C R
a te
nd in
la y
ĠD ru
Ġdes cu
ce a
no vo
ĠK yle
Ġba ga
Ġlu to
ĠSh ado
umb er
Ġpersegu iÃ§Ãµes
ĠhelicÃ³p teros
ĠChurch ill
Ġteclad ista
w el
nda y
ĠMan u
Ġsubstitu ÃŃdas
Ġchama vam
Ġenterra da
Ġesla vos
l ada
Ġ ÃŃn
Ġp Ãµe
Ġco no
ĠHa bita
ĠDis c
ĠBru ns
Ġartes Ã£os
Ãºr gicos
Ġdecorre nte
haus en
ĠIsl Ã£
ĠPimente l
Ġc adas
tor i
Ġconstitu inte
Ġaproxim ada
ĠTh under
Ġtit ulares
Ġdecre tou
Ġelogia ndo
w agen
ĠS ina
ĠH om
Ġ17 89
ĠCas ca
ĠMil es
Ġdese quil
Ġx i
Ġpot Ã¡ssio
Ġbrig ada
ĠFis her
ĠMino gue
Ġimpl ÃŃci
v ica
Ġin es
ĠF ica
Ġcomple tando
Ġrecu ar
Ġasi Ã¡ticos
orf ismo
Ġhomog Ãªne
p ados
ĠA G
Ġ2 20
ass im
mer y
Ġesp iral
Es tados
Ġlim itar
Ġhos peda
Ġpersegu ir
Ba by
Ġprima riamente
ĠStor m
Ġconsoa nte
Ġsintetiz adores
S in
i ador
ic us
ÃŃ vo
ĠE as
ĠO nde
ĠW or
fe res
Ġfra u
Ġdemonstra ram
Ġsuste ntaÃ§Ã£o
Ġfir mou
Ġox idaÃ§Ã£o
h m
ĠR CA
rea mento
ĠFer nÃ¡ndez
[...]
