{"<|endoftext|>":0,"!":1,"\"":2,"#":3,"$":4,"%":5,"&":6,"'":7,"(":8,")":9,"*":10,"+":11,",":12,"-":13,".":14,"/":15,"0":16,"1":17,"2":18,"3":19,"4":20,"5":21,"6":22,"7":23,"8":24,"9":25,":":26,";":27,"<":28,"=":29,">":30,"?":31,"@":32,"A":33,"B":34,"C":35,"D":36,"E":37,"F":38,"G":39,"H":40,"I":41,"J":42,"K":43,"L":44,"M":45,"N":46,"O":47,"P":48,"Q":49,"R":50,"S":51,"T":52,"U":53,"V":54,"W":55,"X":56,"Y":57,"Z":58,"[":59,"\\":60,"]":61,"^":62,"_":63,"`":64,"a":65,"b":66,"c":67,"d":68,"e":69,"f":70,"g":71,"h":72,"i":73,"j":74,"k":75,"l":76,"m":77,"n":78,"o":79,"p":80,"q":81,"r":82,"s":83,"t":84,"u":85,"v":86,"w":87,"x":88,"y":89,"z":90,"{":91,"|":92,"}":93,"~":94,"¡":95,"¢":96,"£":97,"¤":98,"¥":99,"¦":100,"§":101,"¨":102,"©":103,"ª":104,"«":105,"¬":106,"®":107,"¯":108,"°":109,"±":110,"²":111,"³":112,"´":113,"µ":114,"¶":115,"·":116,"¸":117,"¹":118,"º":119,"»":120,"¼":121,"½":122,"¾":123,"¿":124,"À":125,"Á":126,"Â":127,"Ã":128,"Ä":129,"Å":130,"Æ":131,"Ç":132,"È":133,"É":134,"Ê":135,"Ë":136,"Ì":137,"Í":138,"Î":139,"Ï":140,"Ð":141,"Ñ":142,"Ò":143,"Ó":144,"Ô":145,"Õ":146,"Ö":147,"×":148,"Ø":149,"Ù":150,"Ú":151,"Û":152,"Ü":153,"Ý":154,"Þ":155,"ß":156,"à":157,"á":158,"â":159,"ã":160,"ä":161,"å":162,"æ":163,"ç":164,"è":165,"é":166,"ê":167,"ë":168,"ì":169,"í":170,"î":171,"ï":172,"ð":173,"ñ":174,"ò":175,"ó":176,"ô":177,"õ":178,"ö":179,"÷":180,"ø":181,"ù":182,"ú":183,"û":184,"ü":185,"ý":186,"þ":187,"ÿ":188,"Ā":189,"ā":190,"Ă":191,"ă":192,"Ą":193,"ą":194,"Ć":195,"ć":196,"Ĉ":197,"ĉ":198,"Ċ":199,"ċ":200,"Č":201,"č":202,"Ď":203,"ď":204,"Đ":205,"đ":206,"Ē":207,"ē":208,"Ĕ":209,"ĕ":210,"Ė":211,"ė":212,"Ę":213,"ę":214,"Ě":215,"ě":216,"Ĝ":217,"ĝ":218,"Ğ":219,"ğ":220,"Ġ":221,"ġ":222,"Ģ":223,"ģ":224,"Ĥ":225,"ĥ":226,"Ħ":227,"ħ":228,"Ĩ":229,"ĩ":230,"Ī":231,"ī":232,"Ĭ":233,"ĭ":234,"Į":235,"į":236,"İ":237,"ı":238,"Ĳ":239,"ĳ":240,"Ĵ":241,"ĵ":242,"Ķ":243,"ķ":244,"ĸ":245,"Ĺ":246,"ĺ":247,"Ļ":248,"ļ":249,"Ľ":250,"ľ":251,"Ŀ":252,"ŀ":253,"Ł":254,"ł":255,"Ń":256,"Ġd":257,"Ġe":258,"Ġa":259,"ra":260,"Ġde":261,"Ġp":262,"Ġc":263,"os":264,"nt":265,"re":266,"as":267,"Ġs":268,"er":269,"or":270,"ad":271,"es":272,"Ġco":273,"is":274,"Ġo":275,"in":276,"Ã£":277,"ma":278,"Ġn":279,"Ã£o":280,"ia":281,"qu":282,"Ġf":283,"me":284,"ta":285,"Ã§":286,"ic":287,"ro":288,"nd":289,"ar":290,"Ġt":291,"id":292,"Ã©":293,"al":294,"Ġqu":295,"Ġu":296,"Ġcom":297,"Ġdo":298,"ri":299,"Ġem":300,"nte":301,"Ġm":302,"Ġse":303,"el":304,"Ġda":305,"Ã¡":306,"Ġque":307,"on":308,"ÃŃ":309,"Ã§Ã£o":310,"Ġre":311,"to":312,"te":313,"ara":314,"ĠA":315,"Ġes":316,"an":317,"ĠC":318,"Ġv":319,"le":320,"ti":321,"en":322,"ou":323,"ado":324,"Ġno":325,"Ġ1":326,"ĠS":327,"res":328,"ul":329,"Ġ\"":330,"em":331,"ol":332,"ndo":333,"il":334,"ĠM":335,"Ã³":336,"ĠP":337,"ĠE":338,"ci":339,"Ġl":340,"Ġpara":341,"Ġum":342,"Ġma":343,"gu":344,"tu":345,"Ġfo":346,"Ġna":347,"am":348,"Ġuma":349,"ica":350,"nto":351,"Ġsu":352,"Ġin":353,"nc":354,"Ġb":355,"Ġg":356,"se":357,"Ġpor":358,"ĠB":359,"do":360,"ei":361,"Ġ2":362,"Ġ(":363,"mente":364,"io":365,"us":366,"ada":367,"ha":368,"Ãª":369,"ns":370,"Ġi":371,"ĠÃ©":372,"va":373,"Ġpro":374,"Ġos":375,"ĠR":376,"Ġas":377,"ade":378,"Ġfoi":379,"la":380,"po":381,"ent":382,"ĠD":383,"ĠO":384,"ho":385,"Ãµ":386,"pe":387,"Ãµes":388,"ĠN":389,"ĠF":390,"Ġcomo":391,"ĠT":392,"de":393,"Ġdes":394,"Ġj":395,"ĠÃ":396,"Ġ19":397,"Ġpel":398,"iv":399,"ras":400,"mo":401,"ĠL":402,"mb":403,"ĠG":404,"iz":405,"it":406,"ido":407,"da":408,"ram":409,"ig":410,"ce":411,"so":412,"Ġ20":413,"Ġou":414,"ist":415,"idade":416,"Ġex":417,"he":418,"ĠI":419,"Ġdos":420,"ve":421,"no":422,"co":423,"Ġpo":424,"ĠJ":425,"ca":426,"Ġap":427,"tr":428,"ir":429,"ados":430,"un":431,"mento":432,"Ãº":433,"Ġme":434,"Ã©m":435,"Ġal":436,"im":437,"Ã§Ãµes":438,"Ġta":439,"Ġcon":440,"Ġent":441,"ico":442,"Ġao":443,"pa":444,"na":445,"ria":446,"Ġmais":447,"lo":448,"nde":449,"Ġsua":450,"ida":451,"Ġca":452,"Ġso":453,"Ġpar":454,"Ġest":455,"ĠH":456,"Ġser":457,"Ġcont":458,"Ġper":459,"ncia":460,"Ġtra":461,"go":462,"aÃ§Ã£o":463,"Ã¡ri":464,"ita":465,"mp":466,"Ġseu":467,"ĠnÃ£o":468,"Ġh":469,"Ġfor":470,"Ã§a":471,"cia":472,"at":473,"\",":474,"ĠÃł":475,"if":476,"ando":477,"ntes":478,"Ġan":479,"ĠEs":480,"ĠV":481,"Ġat":482,"Ġpr":483,"ira":484,"Ġmu":485,"ur":486,"ter":487,"Ġele":488,"Ġdas":489,"Ġpri":490,"ĠU":491,"Ġter":492,"era":493,"Ġpa":494,"sa":495,"ment":496,"ito":497,"Ġto":498,"du":499,"Ġtem":500,"vo":501,"tos":502,"Ġcons":503,"ista":504,"ru":505,"ec":506,"cion":507,"ina":508,"um":509,"Ġar":510,"Ã¢":511,"ver":512,"Ġ201":513,"tic":514,"Ġmo":515,"ura":516,"Ġprime":517,"iro":518,"Ġres":519,"Ãªncia":520,"),":521,"Ġfa":522,"adas":523,"mbÃ©m":524,"lu":525,"ente":526,"ĠCo":527,"nter":528,"ĠtambÃ©m":529,"Ġsegu":530,"nda":531,"Ġcomp":532,"tura":533,"Ġpela":534,"ior":535,"ez":536,"vel":537,"vi":538,"Ġgra":539,"Ġesta":540,"Ġentre":541,"ga":542,"Ġac":543,"Ġpelo":544,"âĢ":545,"ers":546,"Ġ200":547,"iÃ§Ã£o":548,"Ġsob":549,"Ġdis":550,"\".":551,"tor":552,"Ġpos":553,"ed":554,"ÃŃs":555,"Ġen":556,"Ġdi":557,"og":558,"tra":559,"Ġesc":560,"ix":561,"ais":562,"Ġor":563,"Ġte":564,"ĠÃ¡":565,"dos":566,"Ã´":567,"ros":568,"ing":569,"ass":570,"Ġfil":571,"Ġle":572,"ĠW":573,"oc":574,"ĠEm":575,"Ġmas":576,"que":577,"ulo":578,"ĠsÃ£o":579,"iu":580,"bl":581,"pos":582,"Ġmes":583,"eiro":584,"ial":585,"esso":586,"Ãªs":587,"man":588,"Ġob":589,"rio":590,"Ġpre":591,"Ã³s":592,"Ġab":593,"ib":594,"tas":595,"00":596,"ĠK":597,"Em":598,"ag":599,"ĠNo":600,"tiv":601,"idos":602,"tica":603,"Ġanos":604,"ens":605,"tal":606,"Ġba":607,").":608,"be":609,"ion":610,"min":611,"aram":612,"Ã¡rio":613,"mas":614,"tado":615,"ess":616,"ch":617,"bo":618,"pres":619,"Ġreg":620,"Ġera":621,"Ġcar":622,"Ġforam":623,"ere":624,"for":625,"ĠRe":626,"Ġsobre":627,"Ġcas":628,"ador":629,"Ġass":630,"tru":631,"ios":632,"les":633,"anto":634,"ĠMar":635,"inal":636,"Âł":637,"ĠAl":638,"inha":639,"ne":640,"ino":641,"ades":642,"Ġ3":643,"Ġtor":644,"Ã§o":645,"vol":646,"Ġmar":647,"orte":648,"gra":649,"ja":650,"Ġnas":651,"cio":652,"Ġimp":653,"Ġau":654,"ĠPa":655,"per":656,"ĠUn":657,"Ã©c":658,"bal":659,"Ġseus":660,"Ġnos":661,"tros":662,"nta":663,"Ġpres":664,"Ġ18":665,"aliz":666,"je":667,"iste":668,"bro":669,"cial":670,"ham":671,"Ġcor":672,"indo":673,"Ġinc":674,"ĠatÃ©":675,"der":676,"Ġforma":677,"tes":678,"ons":679,"tro":680,"ip":681,"eira":682,"Ġinter":683,"icos":684,"cional":685,"ias":686,"Ġrec":687,"tiva":688,"ula":689,"urante":690,"titu":691,"pera":692,"Ġfu":693,"pois":694,"Ġenc":695,"mer":696,"ĠNa":697,"anÃ§":698,"Ġvez":699,"Ġro":700,"mentos":701,"lia":702,"ele":703,"tar":704,"ba":705,"icas":706,"Ġof":707,"Ġmil":708,"ran":709,"Ġtempo":710,"das":711,"Ġonde":712,"Ġho":713,"idades":714,"Ã©r":715,"ivers":716,"ĠSe":717,"ite":718,"Ġcontra":719,"ase":720,"Ġprodu":721,"iÃ£o":722,"ral":723,"Ġconc":724,"Ġad":725,"Ãºs":726,"Ġins":727,"ĠĊ":728,"ĠâĢ":729,"Ã¡rios":730,"ber":731,"ĠPor":732,"Ġ-":733,"ĠAs":734,"Ġprin":735,"Ġlu":736,"om":737,"Ġha":738,"iss":739,"Ġcam":740,"erra":741,"ont":742,"Ãªn":743,"ĠBras":744,"enas":745,"via":746,"Ġalgu":747,"Ġqual":748,"Ġdu":749,"Ġano":750,"ĠDe":751,"Ġ199":752,"anh":753,"ĠSa":754,"Ã³ria":755,"Ġinte":756,"entes":757,"Ġdire":758,"Ġquando":759,"inda":760,"ĠMa":761,"Ġmaior":762,"Ġoc":763,"ĠÃº":764,"dio":765,"Ġtrabal":766,"ge":767,"ile":768,"Ġsa":769,"til":770,"hec":771,"ÃŃn":772,"Ġdia":773,"Ġprimeiro":774,"almente":775,"tou":776,"idas":777,"ĠCa":778,"por":779,"Ġra":780,"Ġnome":781,"Ġpol":782,"rada":783,"rÃ¡":784,"orre":785,"Ã©s":786,"Ġcidade":787,"Ġmesmo":788,"Ġcome":789,"Ġsendo":790,"ranc":791,"Ġcl":792,"Ġparte":793,"istas":794,"Ã´n":795,"Ġfaz":796,"Ġtrans":797,"Ġposs":798,"Ġsuas":799,"este":800,"dia":801,"ceu":802,"ĠOs":803,"aria":804,"Ġprimeira":805,"Ġdois":806,"Ġrela":807,"Ġprinci":808,"est":809,"Ġ4":810,"hos":811,"Ġdec":812,"Ã©ri":813,"rem":814,"bu":815,"ano":816,"Ġsub":817,"vam":818,"tivo":819,"nos":820,"over":821,"ular":822,"Ġdepois":823,"gem":824,"ima":825,"gar":826,"ĠestÃ¡":827,"tados":828,"ola":829,"ĠCh":830,"tico":831,"ona":832,"ĠRo":833,"Ġhist":834,"ismo":835,"Ġaos":836,"itos":837,"Ġpode":838,"Ġdurante":839,"ard":840,"Ġus":841,"Ġju":842,"fer":843,"Ġesp":844,"Ã¢n":845,"Ġpass":846,"Ġind":847,"et":848,"Ã³p":849,"eral":850,"Ġespe":851,"raÃ§Ã£o":852,"son":853,"Ġoutros":854,"Ġrece":855,"rou":856,"Ġtorn":857,"Ġ5":858,"Ġcer":859,"tÃ³":860,"ĠAr":861,"ĠSÃ£o":862,"ĠJo":863,"ela":864,"ju":865,"Ġela":866,"Ġgrande":867,"Ã§as":868,"Ġag":869,"Ã¡s":870,"isÃ£o":871,"Ġainda":872,"ĠSu":873,"Ġequ":874,"Ġdif":875,"Ġdesen":876,"Qu":877,"ogo":878,"Ġtr":879,"Ġche":880,"Ã³r":881,"Ġfinal":882,"dem":883,"Ãºbl":884,"Ġgru":885,"fe":886,"ĠX":887,"cias":888,"ĠBrasil":889,"ine":890,"Ġpe":891,"tir":892,"ĠGu":893,"Ġvol":894,"ĠapÃ³s":895,"embro":896,"ie":897,"ĠjÃ¡":898,"Ġencont":899,"Ġpartic":900,"Ġcri":901,"idera":902,"Ġapres":903,"ana":904,"Ġpesso":905,"mos":906,"uro":907,"adores":908,"eito":909,"Ġjog":910,"ck":911,"Ġver":912,"Ġapresent":913,"Ġmuito":914,"ng":915,"Ġgover":916,"Ġ198":917,"19":918,"Ġloc":919,"val":920,"ĠpaÃŃs":921,"ĠlanÃ§":922,"Ġconhec":923,"uma":924,"pre":925,"Ġapenas":926,"esa":927,"cu":928,"Ġpop":929,"Ġcan":930,"ĠCar":931,"rado":932,"ĠmÃºs":933,"elo":934,"ÃŃcio":935,"ord":936,"ĠEle":937,"Ġatu":938,"iÃ§Ãµes":939,"inu":940,"Ġfam":941,"are":942,"Ġinclu":943,"Ġsem":944,"ÃŃvel":945,"tras":946,"ala":947,"rav":948,"has":949,"ÃŃp":950,"plo":951,"ntos":952,"gre":953,"vido":954,"pu":955,"icial":956,"Ġis":957,"Ġinf":958,"za":959,"ĠÃ¡l":960,"ĠtrÃªs":961,"Ġrealiz":962,"ĠBa":963,"Ġcria":964,"Ġcham":965,"atro":966,"pl":967,"Ġne":968,"gan":969,"Ġant":970,"con":971,"Ġcr":972,"Ġve":973,"Ġcap":974,"Ġaf":975,"Ġpu":976,"Ãªm":977,"icaÃ§Ã£o":978,"ĠentÃ£o":979,"Ġun":980,"oi":981,"ide":982,"ĠpolÃŃ":983,"Ġgu":984,"Ġnov":985,"Ġorig":986,"Ġeste":987,"tÃ¡":988,"segu":989,"ĠCom":990,"ril":991,"orta":992,"cesso":993,"ton":994,"lti":995,"aneiro":996,"Ġ197":997,"Ã©rie":998,"unic":999,"Ġ6":1000,"ticas":1001,"ĠPar":1002,"Ġestu":1003,"Ġconstru":1004,"Ġed":1005,"Ġdiv":1006,"Ġprincip":1007,"ific":1008,"gua":1009,"ĠMu":1010,"No":1011,"bum":1012,"idente":1013,"Ġsido":1014,"rar":1015,"forma":1016,"cul":1017,"veis":1018,"hor":1019,"izaÃ§Ã£o":1020,"Ġconf":1021,"Ġsi":1022,"rig":1023,"ĠMo":1024,"Ġdesenvol":1025,"quanto":1026,"ena":1027,"iam":1028,"ĠQu":1029,"Ġduas":1030,"ĠLu":1031,"ĠLe":1032,"ves":1033,"ĠnÃº":1034,"car":1035,"Ġir":1036,"itar":1037,"cer":1038,"Ã¡rias":1039,"Ġpoder":1040,"Ġfre":1041,"cos":1042,"Ġgrupo":1043,"Ġmel":1044,"ĠÃ¡lbum":1045,"dic":1046,"cimento":1047,"ant":1048,"Ġ7":1049,"rea":1050,"ĠY":1051,"iga":1052,"dor":1053,"vimento":1054,"Ġnova":1055,"Ġtodos":1056,"Ġpelos":1057,"mar":1058,"mbro":1059,"Ġvo":1060,"ĠcomeÃ§":1061,"Ġliv":1062,"Ġ196":1063,"th":1064,"Ġfilme":1065,"Ġprof":1066,"Ġti":1067,"Âº":1068,"Ġsol":1069,"Ġsiste":1070,"las":1071,"ribu":1072,"Ġfun":1073,"bil":1074,"rito":1075,"Ġutil":1076,"ÃŃt":1077,"Ġdef":1078,"Ġ15":1079,"ĠÃºlti":1080,"ven":1081,"Ġtinha":1082,"ign":1083,"ĠCam":1084,"Ġform":1085,"Ġ8":1086,"Ġfal":1087,"ĠsÃ©rie":1088,"Ġsegundo":1089,"inas":1090,"Ġfic":1091,"Ġconsidera":1092,"ĠmÃ©":1093,"Ġdifere":1094,"agem":1095,"ĠÃłs":1096,"inho":1097,"Ġvis":1098,"Ã¡ria":1099,"inte":1100,"Ġdist":1101,"Ġestava":1102,"Ġdez":1103,"Ãªncias":1104,"ital":1105,"Ġbem":1106,"enta":1107,"quer":1108,"ĠJa":1109,"ÃŃlia":1110,"olog":1111,"ĠprÃ³p":1112,"Ġhavia":1113,"Ġ17":1114,"Ġpubl":1115,"esta":1116,"Ġestre":1117,"anÃ§a":1118,"osto":1119,"Ġbras":1120,"ĠSo":1121,"Ġteve":1122,"sÃ£o":1123,"ĠRio":1124,"Ġdesta":1125,"Ġcul":1126,"Ġpartir":1127,"itas":1128,"Ġbase":1129,"ipa":1130,"ĠZ":1131,"Ġoutras":1132,"Ġempres":1133,"ĠnÃºmer":1134,"ipe":1135,"ĠsÃ©c":1136,"Ġmaio":1137,"Ġatrav":1138,"Ġim":1139,"ndes":1140,"ris":1141,"Ġhome":1142,"Ġassim":1143,"Ġlon":1144,"ĠPaulo":1145,"Ġcu":1146,"mes":1147,"Ã¡vel":1148,"eiros":1149,"ĠAp":1150,"igo":1151,"anha":1152,"II":1153,"Ġman":1154,"Ġdesde":1155,"Ġam":1156,"Ġpossu":1157,"iros":1158,"ĠhistÃ³ria":1159,"ĠAle":1160,"Ġcent":1161,"Ġantes":1162,"Ġbrasile":1163,"Ġpl":1164,"dade":1165,"Ġrepres":1166,"Ã³g":1167,"ĠCon":1168,"âĢĿ":1169,"ero":1170,"orn":1171,"Ġvida":1172,"Ġeles":1173,"ĠpÃºbl":1174,"taÃ§Ã£o":1175,"ual":1176,"Ġpas":1177,"Ġtro":1178,"ĠregiÃ£o":1179,"Ġla":1180,"Ġcada":1181,"Ġpou":1182,"ici":1183,"odo":1184,"nÃ§a":1185,"ticos":1186,"ĠmÃºsica":1187,"Ġeram":1188,"Ġ9":1189,"ĠLa":1190,"ive":1191,"ble":1192,"Ġ10":1193,"Ġalguns":1194,"Ġpessoas":1195,"gia":1196,"Ġutiliz":1197,"tivos":1198,"Ġsete":1199,"ĠÃ©po":1200,"des":1201,"tores":1202,"cre":1203,"Ġcasa":1204,"Ġenquanto":1205,"Ġmul":1206,"Ã©rio":1207,"pon":1208,"grama":1209,"di":1210,"Ġcond":1211,"tion":1212,"tamente":1213,"Ġfe":1214,"ĠPro":1215,"Ġdivers":1216,"Ġconsegu":1217,"Ġmunic":1218,"Ġcheg":1219,"Os":1220,"Ã§os":1221,"ĠEstados":1222,"ĠÃ©poca":1223,"ĠatravÃ©s":1224,"Ġdeix":1225,"Ġ16":1226,"quis":1227,"Ġjogo":1228,"ĠperÃŃ":1229,"bel":1230,"her":1231,"oria":1232,"Ġfund":1233,"20":1234,"Ġpes":1235,"Ġcomple":1236,"Ġgoverno":1237,"ĠPara":1238,"Ġpodem":1239,"icia":1240,"Ġbanda":1241,"ntro":1242,"Ġamb":1243,"ice":1244,"cas":1245,"Ġorgan":1246,"ĠBo":1247,"Ġapro":1248,"ĠNe":1249,"ĠâĢľ":1250,"Ġ,":1251,"Ġpart":1252,"Ġproje":1253,"fa":1254,"lig":1255,"Ġsim":1256,"ĠGra":1257,"ĠalÃ©m":1258,"Ġev":1259,"ĠnÃºmero":1260,"Ġmundo":1261,"ordo":1262,"Ġnovo":1263,"ĠLo":1264,"Ġimporta":1265,"Ġapo":1266,"tugu":1267,"ĠUnidos":1268,"Ġperson":1269,"Ġaco":1270,"gal":1271,"ulaÃ§Ã£o":1272,"int":1273,"ze":1274,"Ġsistema":1275,"los":1276,"Ġbo":1277,"tre":1278,"ĠsÃ©culo":1279,"ĠPo":1280,"Ġpra":1281,"Ġestado":1282,"Ã¢ncia":1283,"Ġtornou":1284,"Ġ195":1285,"Ġvezes":1286,"Ġrecebe":1287,"igu":1288,"Ġfez":1289,"Ġ194":1290,"edade":1291,"Ġ(\"":1292,"ĠvÃ¡rios":1293,"and":1294,"Ġespecial":1295,"ĠtÃŃt":1296,"Ġresul":1297,"ĠinÃŃcio":1298,"ranÃ§a":1299,"Ġexem":1300,"ill":1301,"issÃ£o":1302,"Ġale":1303,"Ġcol":1304,"cado":1305,"elho":1306,"ĠCons":1307,"enh":1308,"ĠÃī":1309,"Ġapare":1310,"Ġgeral":1311,"mÃ£":1312,"br":1313,"oso":1314,"fre":1315,"Ġtrabalho":1316,"As":1317,"imo":1318,"ĠCas":1319,"Ġch":1320,"Ġsuper":1321,"ient":1322,"Ġval":1323,"Ġven":1324,"ress":1325,"Ġlocal":1326,"Ġtendo":1327,"Ġmud":1328,"ulho":1329,"para":1330,"ĠAnt":1331,"Ġsubs":1332,"ĠUnivers":1333,"Ġcontinu":1334,"Ġpla":1335,"ire":1336,"ĠRa":1337,"esse":1338,"unho":1339,"ologia":1340,"Ġcaus":1341,"Ġ\"\"":1342,"ĠsÃ³":1343,"ĠAm":1344,"ĠperÃŃodo":1345,"reira":1346,"ĠEx":1347,"tubro":1348,"tin":1349,"tÃ³rio":1350,"Ġquatro":1351,"hÃµes":1352,"..":1353,"Ġvers":1354,"ĠdÃ©c":1355,"Ġtar":1356,"Ġprograma":1357,"greja":1358,"Ġesti":1359,"Ġtemporada":1360,"Ġlugar":1361,"ĠBar":1362,"Ġisso":1363,"Ġmos":1364,"ÃŃpio":1365,"ifica":1366,"ila":1367,"mel":1368,"Ã©ci":1369,"und":1370,"tivas":1371,"esar":1372,"ĠfamÃŃlia":1373,"Ġproduz":1374,"Ġescol":1375,"ĠFoi":1376,"Ġmod":1377,"ik":1378,"gos":1379,"fica":1380,"ional":1381,"pri":1382,"Ġcur":1383,"ĠÃºn":1384,"Ġ193":1385,"Ġentanto":1386,"Ġmed":1387,"ane":1388,"ĠJos":1389,"The":1390,"ov":1391,"bora":1392,"ĠTe":1393,"rit":1394,"ident":1395,"Ġconta":1396,"ÃŃdo":1397,"Ġlev":1398,"Ġder":1399,"Ġcolo":1400,"reiro":1401,"Ġ12":1402,"Ġprincipal":1403,"Ġservi":1404,"fia":1405,"ell":1406,"veu":1407,"Ġperm":1408,"jo":1409,"par":1410,"ntre":1411,"bol":1412,"ĠÃģ":1413,"Ġpublic":1414,"ĠIs":1415,"Ġart":1416,"Ġpequ":1417,"duz":1418,"ciais":1419,"Ġru":1420,"ĠhÃ¡":1421,"meric":1422,"rias":1423,"Ġref":1424,"cri":1425,"pec":1426,"nas":1427,"lube":1428,"cou":1429,"ĠÃ¡rea":1430,"iva":1431,"erv":1432,"Ġlo":1433,"au":1434,"ĠcomeÃ§ou":1435,"Es":1436,"Ġcin":1437,"Ġcomun":1438,"Ġil":1439,"Ġdevido":1440,"ĠMe":1441,"ts":1442,"Ġoutro":1443,"Ġlado":1444,"Ġacordo":1445,"ich":1446,"Ġocorre":1447,"Ġata":1448,"Ã©l":1449,"Ġr":1450,"vis":1451,"Ġtur":1452,"Ġfim":1453,"Ġcontro":1454,"Ġdiz":1455,"ecess":1456,"ĠTo":1457,"Ġpassou":1458,"Ġtarde":1459,"osta":1460,"Ġtodo":1461,"ques":1462,"osa":1463,"Ġautor":1464,"Ġcara":1465,"tada":1466,"Ġvolta":1467,"nder":1468,"ĠvÃ¡rias":1469,"ĠDa":1470,"uÃ§Ã£o":1471,"Ġcerca":1472,"ĠestÃ£o":1473,"Ġaca":1474,"amb":1475,"Ġmorte":1476,"Ġ14":1477,"iano":1478,"ora":1479,"eita":1480,"000":1481,"bre":1482,"ndia":1483,"Ġ.":1484,"ixo":1485,"Ġencontra":1486,"iras":1487,"Ġnum":1488,"tante":1489,"minist":1490,"udo":1491,"ĠFa":1492,"Ġali":1493,"sos":1494,"aÃ§Ãµes":1495,"ÃŃda":1496,"Ã³n":1497,"Ġmelhor":1498,"mou":1499,"ins":1500,"Ġnecess":1501,"Ġnorte":1502,"cess":1503,"ry":1504,"Ġmuitos":1505,"Ġconhecido":1506,"Ġobje":1507,"pel":1508,"ĠSul":1509,"Ġsal":1510,"ĠCol":1511,"Ġmeio":1512,"iram":1513,"ĠOr":1514,"Ġvia":1515,"ndial":1516,"Ġfilho":1517,"rios":1518,"ivo":1519,"vid":1520,"ĠâĢĵ":1521,"ixa":1522,"ĠFranc":1523,"Ġsur":1524,"Ġresp":1525,"tural":1526,"Ġexemplo":1527,"Ġcapa":1528,"Ġtotal":1529,"Ġseguinte":1530,"anos":1531,"Ġ11":1532,"Ġsegunda":1533,"Ġmin":1534,"Ġequipe":1535,"ĠFer":1536,"De":1537,"ĠEuro":1538,"Na":1539,"Ġep":1540,"ĠIn":1541,"Ġped":1542,"Ġpassa":1543,"Ġnu":1544,"ĠFe":1545,"ĠtÃŃtulo":1546,"Ã¡tica":1547,"ĠHo":1548,"Ġ13":1549,"lus":1550,"ense":1551,"Ġoutubro":1552,"Ġtrabalh":1553,"ten":1554,"onato":1555,"anc":1556,"Ã³x":1557,"Ġecon":1558,".\"":1559,"ĠproduÃ§Ã£o":1560,"Ġalgumas":1561,"Ġing":1562,"Ġaju":1563,"olÃ³g":1564,"ĠmarÃ§o":1565,"Ġmen":1566,"ĠThe":1567,"ĠEstado":1568,"Ġfazer":1569,"Ġdesco":1570,"Ġafir":1571,"ang":1572,"Ġel":1573,"Ġdezembro":1574,"eno":1575,"Ġescri":1576,"rin":1577,"Ġjaneiro":1578,"mÃ£o":1579,"Ġportugu":1580,"cter":1581,"vereiro":1582,"ĠdÃ©cada":1583,"Ġtri":1584,"Ġterc":1585,"gens":1586,"sas":1587,"ĠJaneiro":1588,"Ġconte":1589,"Ġsetembro":1590,"up":1591,"vas":1592,"Ġseria":1593,"Ġva":1594,"Ġsign":1595,"Ġtele":1596,"ĠlanÃ§ado":1597,"peonato":1598,"gue":1599,"ĠmilhÃµes":1600,"vista":1601,"Ġtodas":1602,"Ã©rci":1603,"Ã¡l":1604,"terior":1605,"Ġgrav":1606,"ĠJoÃ£o":1607,"Ġlib":1608,"Ã©cn":1609,"ĠAss":1610,"Ġclass":1611,"Ġmenos":1612,"ĠMaria":1613,"Ġpare":1614,"Ġtre":1615,"ĠTa":1616,"ÃŃci":1617,"ke":1618,"Ġparticipa":1619,"ĠInter":1620,"Ġsitu":1621,"Ġgrandes":1622,"ulos":1623,"ÃŃl":1624,"Ġabril":1625,"Ġsucesso":1626,"usic":1627,"panha":1628,"ĠUniversidade":1629,"Ġlocaliz":1630,"Ġoficial":1631,"Ġfranc":1632,"dios":1633,"tebol":1634,"ale":1635,"Ġanter":1636,"Ġjulho":1637,"ĠPe":1638,"Ġnovembro":1639,"ĠespÃ©ci":1640,"Ġpois":1641,"Ġjunho":1642,"teg":1643,"tria":1644,"vaÃ§Ã£o":1645,"ĠpopulaÃ§Ã£o":1646,"Ġinflu":1647,"Ġdias":1648,"ĠTra":1649,"ĠNacional":1650,"Ġcole":1651,"gas":1652,"Ġsul":1653,"Ġagosto":1654,"tando":1655,"Ġseja":1656,"Ġ2010":1657,"Ġperman":1658,"Ġopera":1659,"riz":1660,"eio":1661,"ornal":1662,"ĠcrÃŃ":1663,"pais":1664,"ĠmunicÃŃpio":1665,"Ġescre":1666,"Ġpai":1667,"ĠNova":1668,"caÃ§Ã£o":1669,"Ġpresidente":1670,"Ġbas":1671,"Ġqualquer":1672,"ĠSegu":1673,"Ġnuma":1674,"ĠJosÃ©":1675,"ĠGa":1676,"mpre":1677,"Ġdispu":1678,"Ġchamado":1679,"ĠOu":1680,"Ġdefin":1681,"Ġmon":1682,"xo":1683,"tivamente":1684,"isa":1685,"nacional":1686,"tugal":1687,"Ġderro":1688,"Ġrecebeu":1689,"18":1690,"ĠCor":1691,"Ġincluindo":1692,"Ġoriginal":1693,"ĠvÃŃ":1694,"ime":1695,"Ġganh":1696,"Ġthe":1697,"bita":1698,"ari":1699,"Ġaqu":1700,"ud":1701,"unci":1702,"bra":1703,"inh":1704,"Ġdisso":1705,"ĠDes":1706,"tÃ©":1707,"Ġmaioria":1708,"Ġmor":1709,"Ġmesma":1710,"od":1711,"cionais":1712,"Ġexiste":1713,"Ġmuitas":1714,"imento":1715,"enÃ§a":1716,"Ġproble":1717,"ĠBe":1718,"Ġcaso":1719,"eses":1720,"ĠversÃ£o":1721,"Ġquais":1722,"Ġcoma":1723,"Ġativ":1724,"ÃŃa":1725,"Ġespa":1726,"ĠGuerra":1727,"tido":1728,"Ġlongo":1729,"Ġprincipais":1730,"Ġobs":1731,"tanto":1732,"pro":1733,"Ġcompe":1734,"ise":1735,"ĠMan":1736,"gado":1737,"ĠPortugal":1738,"igos":1739,"Ġcaracter":1740,"Ã©rcito":1741,"ff":1742,"Ġsent":1743,"Ġarqu":1744,"turas":1745,"rb":1746,"Ġcres":1747,"ĠAn":1748,"lica":1749,"Ġguerra":1750,"Ġprocesso":1751,"isco":1752,"red":1753,"Ġgen":1754,"ÃŃveis":1755,"Ġ0":1756,"inos":1757,"ric":1758,"ĠmÃ£":1759,"Ġcinco":1760,"Ġ2012":1761,"nce":1762,"Ġparticip":1763,"Ġacab":1764,"mbros":1765,"\")":1766,"ĠlanÃ§a":1767,"Ġpelas":1768,"ĠprÃ³x":1769,"Ġcarreira":1770,"ĠAd":1771,"Ġuso":1772,"mica":1773,"Ġformula":1774,"Se":1775,"Ġ2011":1776,"Ġrecon":1777,"gio":1778,"ĠCent":1779,"orma":1780,"Ġav":1781,"Ġef":1782,"ndas":1783,"Ġten":1784,"ĠOl":1785,"iÃµes":1786,"cil":1787,"nando":1788,"Ġprov":1789,"Ġcha":1790,"Ġfevereiro":1791,"Ġmer":1792,"Al":1793,"Ġlig":1794,"ay":1795,"Ġpouco":1796,"Ġvit":1797,"Ġens":1798,"ĠUm":1799,"Ġquar":1800,"Ġlim":1801,"Ã©rica":1802,"pas":1803,"ĠrelaÃ§Ã£o":1804,"Ġreal":1805,"Ġempresa":1806,"Ġrei":1807,"iana":1808,"Ġtermin":1809,"Ġconju":1810,"Ġclube":1811,"Ġgol":1812,"Ġfer":1813,"Ġlivro":1814,"Ġobra":1815,"ĠcanÃ§Ã£o":1816,"how":1817,"isÃ³":1818,"all":1819,"ĠposiÃ§Ã£o":1820,"Ġtoda":1821,"Ġsubstitu":1822,"Ap":1823,"ĠtÃ©cn":1824,"Ġnacional":1825,"Ġdesenvolvimento":1826,"Ġenvol":1827,"visÃ£o":1828,"icamente":1829,"Ġdiferentes":1830,"Ġterri":1831,"ph":1832,"Ġsempre":1833,"Ġficou":1834,"Ġ[":1835,"our":1836,"Ġrelig":1837,"hn":1838,"ĠFil":1839,"ĠpÃºblico":1840,"Ġ2009":1841,"Ġpromo":1842,"bilidade":1843,"mana":1844,"Ġprojeto":1845,"Ġz":1846,"Ġpapel":1847,"ĠEla":1848,"Ġ2013":1849,"eitos":1850,"ruz":1851,"ĠMas":1852,"endo":1853,"Ġ30":1854,"Ġint":1855,"ĠpaÃŃses":1856,"Ġretor":1857,"Ġrepresent":1858,"Ġdeter":1859,"Ġ2014":1860,"Ġ2008":1861,"ut":1862,"Ġcir":1863,"Ġalc":1864,"Ġ25":1865,"ĠmÃ¡":1866,"Ġintegra":1867,"ĠconstruÃ§Ã£o":1868,"oss":1869,"Ġ192":1870,"Ġcomer":1871,"rÃ£o":1872,"Ġcorre":1873,"ian":1874,"ibil":1875,"ĠpolÃŃtica":1876,"ĠGrande":1877,"Ġfrequ":1878,"ĠJu":1879,"ilo":1880,"agens":1881,"mina":1882,"Ġcompos":1883,"Ġmembros":1884,"ĠepisÃ³":1885,"fo":1886,"Co":1887,"tamento":1888,"ĠEl":1889,"ndida":1890,"Ġconstitu":1891,"ĠPer":1892,"form":1893,"Ġpossui":1894,"deral":1895,"Ġfora":1896,"peri":1897,"cido":1898,"Ġauto":1899,"Ġestru":1900,"Ġquase":1901,"Ġorganiz":1902,"Ġcorpo":1903,"Ġjov":1904,"Ġrefer":1905,"Ġpad":1906,"ub":1907,"Ġaconte":1908,"istÃªncia":1909,"eles":1910,"Ġtec":1911,"Ġhoje":1912,"amento":1913,"Ġimportante":1914,"Ġima":1915,"Ġaber":1916,"iores":1917,"one":1918,"Ġprimeiros":1919,"Ġembora":1920,"Ġmostra":1921,"ĠSanta":1922,"ĠAnd":1923,"ĠEsta":1924,"Ġdentro":1925,"Ġexec":1926,"Ġtal":1927,"ick":1928,"Âª":1929,"ĠtÃªm":1930,"Ġoutra":1931,"ses":1932,"ificaÃ§Ã£o":1933,"ĠApÃ³s":1934,"ĠporÃ©m":1935,"ÃŃf":1936,"ĠlÃŃ":1937,"Ġcapital":1938,"Ġadminist":1939,"Ġinde":1940,"Ġinterpre":1941,"Ġgera":1942,"ĠII":1943,"Ġprec":1944,"Ġpal":1945,"ron":1946,"Ġ2015":1947,"sia":1948,"inado":1949,"Ġobras":1950,"Ãºblica":1951,"Ġsignifica":1952,"pla":1953,"Ġjogos":1954,"iver":1955,"ong":1956,"10":1957,"ĠCan":1958,"asse":1959,"Ġtipo":1960,"Ġ2016":1961,"Ġinforma":1962,"Ġesse":1963,"ka":1964,"Ġdem":1965,"ritÃ¢n":1966,"eiras":1967,"Ġlin":1968,"cais":1969,"Ġleva":1970,"ĠMin":1971,"Ġ2007":1972,"Ġide":1973,"nÃ§as":1974,"quia":1975,"ĠDo":1976,"Ġmorre":1977,"Ġconhe":1978,"Ġessa":1979,"uman":1980,"Ġjornal":1981,"gaÃ§Ã£o":1982,"ĠIgreja":1983,"ntas":1984,"com":1985,"Ġquad":1986,"Ġregist":1987,"Ġprincipalmente":1988,"emin":1989,"Ġfra":1990,"tiu":1991,"ĠDu":1992,"Ġdesa":1993,"ex":1994,"Ġanunci":1995,"ĠrÃ¡":1996,"cel":1997,"ua":1998,"Ġpesquis":1999,"Ġdisse":2000,"ĠPed":2001,"ene":2002,"Ġbar":2003,"reas":2004,"ndente":2005,"Ġbrasileiro":2006,"ĠprÃ³prio":2007,"land":2008,"Ġprog":2009,"Ġameric":2010,"ĠBer":2011,"Ġand":2012,"Ġpontos":2013,"Ġja":2014,"ĠlÃŃn":2015,"Ġvi":2016,"Ġcal":2017,"ĠFranÃ§a":2018,"ĠSal":2019,"Ã´nia":2020,"ly":2021,"Ġsocial":2022,"Ġpropri":2023,"ambÃ©m":2024,"Ã¡veis":2025,"adora":2026,"pol":2027,"xim":2028,"ĠHa":2029,"cho":2030,"iel":2031,"Ġmater":2032,"Ġquem":2033,"Ġhabita":2034,"ĠÃºltimo":2035,"Ġtent":2036,"Ġri":2037,"Ġ2006":2038,"Ġasso":2039,"ĠVer":2040,"ĠÃ¡gua":2041,"Ġexperi":2042,"Ġcentro":2043,"ĠAlÃ©m":2044,"ĠIns":2045,"ind":2046,"Ġtanto":2047,"Ġlinha":2048,"ĠâĢĶ":2049,"Ġconqu":2050,"Ġdirig":2051,"Ġfica":2052,"eria":2053,"Ġdeve":2054,"ĠCl":2055,"ĠEste":2056,"Ġjunto":2057,"ĠUma":2058,"tel":2059,"ĠSen":2060,"Ġdeu":2061,"ĠBrasile":2062,"Ġinstitu":2063,"vesti":2064,"ĠPol":2065,"pend":2066,"rais":2067,"Ġpopular":2068,"ustr":2069,"Ġanima":2070,"nca":2071,"cha":2072,"iri":2073,"Ġponto":2074,"ulares":2075,"berto":2076,"Ġrelacion":2077,"vio":2078,"Ġnovamente":2079,"ionais":2080,"Ġating":2081,"ĠGe":2082,"ndeu":2083,"ht":2084,"Ġrevel":2085,"Ġorigem":2086,"ĠCal":2087,"ĠEd":2088,"ĠEntre":2089,"iar":2090,"pen":2091,"Ġestavam":2092,"inais":2093,"Ġluta":2094,"posiÃ§Ã£o":2095,"tens":2096,"Ġproc":2097,"Ġsus":2098,"Ġcant":2099,"Ġinicia":2100,"bri":2101,"ĠediÃ§Ã£o":2102,"ĠEuropa":2103,"entos":2104,"Ġanterior":2105,"km":2106,"Ġamp":2107,"Ġeleito":2108,"tual":2109,"adamente":2110,"200":2111,"eric":2112,"tem":2113,"ner":2114,"Ġpovo":2115,"ĠFu":2116,"ĠCarlos":2117,"pira":2118,"ĠEsc":2119,"Ġident":2120,"Ġchegou":2121,"ciedade":2122,"Ġconhecida":2123,"ĠAc":2124,"ĠImp":2125,"ĠNorte":2126,"Ġfin":2127,"Ġexib":2128,"ingle":2129,"pÃºblica":2130,"Ġexpl":2131,"Ã©tica":2132,"Ġchamada":2133,"tif":2134,"ĠSil":2135,"Ġinv":2136,"reg":2137,"Ġlogo":2138,"ped":2139,"Ġlhe":2140,"ĠSh":2141,"Ġpala":2142,"ĠMundial":2143,"Ã³rias":2144,"Ġ2017":2145,"Ġneg":2146,"Ġdecid":2147,"ĠAmÃ©rica":2148,"Ġporque":2149,"Ġga":2150,"vida":2151,"essa":2152,"ĠTV":2153,"Ã´nio":2154,"Ġmelho":2155,"lic":2156,"itor":2157,"Ġ24":2158,"Ġmeses":2159,"Ġfuncion":2160,"Ġop":2161,"Ġpersonagem":2162,"Ġforte":2163,"ĠFre":2164,"upa":2165,"Ġestad":2166,"Ġseis":2167,"Ġmovimento":2168,"ĠWil":2169,"vento":2170,"gues":2171,"Ġtransm":2172,"che":2173,"Ġfato":2174,"Ġcomb":2175,"art":2176,"Ġdetermin":2177,"xto":2178,"Ġfro":2179,"heres":2180,"Ġindiv":2181,"Ġdiversas":2182,"Ġdiversos":2183,"15":2184,"ĠFo":2185,"teriormente":2186,"ĠComo":2187,"ĠAb":2188,"ĠMÃ©":2189,"ĠirmÃ£":2190,"ÃŃstica":2191,"radas":2192,"mentar":2193,"ĠReino":2194,"ĠRoma":2195,"ĠCopa":2196,"ĠBra":2197,"Ġrepresenta":2198,"olo":2199,"inham":2200,"Ã£os":2201,"Ġescola":2202,"Ġmoder":2203,"ĠlanÃ§amento":2204,"Ġempre":2205,"Ã³d":2206,"ĠPal":2207,"Ġcultura":2208,"posta":2209,"tan":2210,"Ġespec":2211,"duÃ§Ã£o":2212,"talha":2213,"Ġidade":2214,"vem":2215,"entemente":2216,"cendo":2217,"adeira":2218,"nador":2219,"ĠÃŃ":2220,"ĠAu":2221,"Ġdeno":2222,"Ġdesem":2223,"eb":2224,"gora":2225,"Ã¢ne":2226,"ulas":2227,"ĠGo":2228,"ley":2229,"Ġtenta":2230,"Ġconjunto":2231,"inema":2232,"Ġpint":2233,"Ġgrupos":2234,"ĠSua":2235,"ĠsÃŃ":2236,"tiz":2237,"ĠPr":2238,"iente":2239,"Ġprofiss":2240,"ĠmÃ£e":2241,"wn":2242,"ĠReg":2243,"ĠpossÃŃvel":2244,"ĠQuando":2245,"Ġdeste":2246,"Ġhomens":2247,"ĠDepois":2248,"ki":2249,"Ġfeito":2250,"Ġpalav":2251,"Ġfase":2252,"ĠprÃ©":2253,"gon":2254,"Ã¡ss":2255,"ĠDurante":2256,"Ġrio":2257,"Ġinicial":2258,"17":2259,"urso":2260,"boa":2261,"ples":2262,"Ġexpres":2263,"Ġfutebol":2264,"Ġestilo":2265,"cle":2266,"cto":2267,"Ġofere":2268,"Ġmomento":2269,"gi":2270,"Ġcanto":2271,"ĠcriaÃ§Ã£o":2272,"oro":2273,"cam":2274,"culo":2275,"Ġ2005":2276,"ĠPri":2277,"xa":2278,"Ġvel":2279,"Ġmaiores":2280,"Ġcampo":2281,"ĠMil":2282,"estÃ£o":2283,"ĠAo":2284,"dores":2285,"Ġinvesti":2286,"Com":2287,"orr":2288,"Ġresta":2289,"ÃŃnio":2290,"Ġatual":2291,"Ã¡cio":2292,"Ġlei":2293,"Ġnenh":2294,"Ã¼":2295,"entu":2296,"bele":2297,"\"),":2298,"Ġdecl":2299,"Ġquanto":2300,"Ġcos":2301,"ardo":2302,"Ġmilitar":2303,"Ġreun":2304,"rÃ¡f":2305,"Ġcompeti":2306,"ork":2307,"ĠCampeonato":2308,"'s":2309,"ĠÃ¡reas":2310,"erva":2311,"Ġ21":2312,"Ġplane":2313,"Ġassum":2314,"Ġafirma":2315,"melha":2316,"ĠforÃ§a":2317,"tt":2318,"rados":2319,"ys":2320,"ĠLis":2321,"ĠSeu":2322,"Ġcampe":2323,"mara":2324,"Ġ22":2325,"nia":2326,"ĠnÃŃvel":2327,"ĠÃºnico":2328,"Ġfilha":2329,"Ġfilhos":2330,"Ġinici":2331,"ler":2332,"Ġado":2333,"Ġbus":2334,"Ġ190":2335,"vor":2336,"zo":2337,"Ġperde":2338,"ĠComp":2339,"izado":2340,"Ġcidades":2341,"zes":2342,"ava":2343,"ĠJohn":2344,"Ġdisco":2345,"ivil":2346,"Ġdistribu":2347,"ĠXV":2348,"Ãªmio":2349,"Ġcateg":2350,"Ġvalor":2351,"Ġgeralmente":2352,"ntamente":2353,"Ġmusic":2354,"ier":2355,"isso":2356,"Ġconseguiu":2357,"ĠTambÃ©m":2358,"ĠNos":2359,"Ġnorma":2360,"ĠAng":2361,"Ġrespons":2362,"manha":2363,"Ġconsiderado":2364,"ĠbritÃ¢n":2365,"ger":2366,"ĠprÃ³pria":2367,"vil":2368,"ĠIng":2369,"quele":2370,"lores":2371,"Ġcient":2372,"Ġer":2373,"Ġsimples":2374,"ĠBu":2375,"bar":2376,"ĠAt":2377,"12":2378,"ft":2379,"ĠPedro":2380,"Ġmodo":2381,"atos":2382,"Ġdocu":2383,"elas":2384,"orge":2385,"Ġ2018":2386,"Ġsele":2387,"porte":2388,"Ġprova":2389,"Ġcausa":2390,"Ġinstru":2391,"Ġfos":2392,"Ġ100":2393,"den":2394,"ĠÃºltima":2395,"Ġ23":2396,"Ġexecu":2397,"Ġconse":2398,"ÃŃsticas":2399,"Ġedu":2400,"ĠRepÃºblica":2401,"gn":2402,"Ġperte":2403,"ĠDire":2404,"uais":2405,"ĠforÃ§as":2406,"essor":2407,"Ġjogador":2408,"mais":2409,"americ":2410,"\"\"":2411,"ĠtelevisÃ£o":2412,"16":2413,"ĠFor":2414,"ĠPorto":2415,"ĠRec":2416,"Ġapoio":2417,"Ġdom":2418,"Ġvoc":2419,"ĠhistÃ³r":2420,"Ġ2000":2421,"Ġmant":2422,"bur":2423,"ĠespaÃ§o":2424,"Ã´m":2425,"Ġmulheres":2426,"Ġvari":2427,"Ġnunca":2428,"dou":2429,"ĠPres":2430,"Ġterceiro":2431,"Ġshow":2432,"Ġarte":2433,"har":2434,"Ġdireito":2435,"Ġpermane":2436,"ĠSer":2437,"velmente":2438,"Ġestrutura":2439,"Ġfrente":2440,"Ġrevista":2441,"ĠFrancisco":2442,"Ġid":2443,"Ġpen":2444,"ĠHe":2445,"Ġ'":2446,"Ġet":2447,"Ġener":2448,"Ġdados":2449,"lub":2450,"dar":2451,"Ġestabele":2452,"Ġher":2453,"Ġhuman":2454,"lÃ¢":2455,"Ġroma":2456,"cada":2457,"Ġvaria":2458,"Ġmarca":2459,"ĠvitÃ³ria":2460,"Ġlidera":2461,"Re":2462,"tualmente":2463,"intes":2464,"Ġpref":2465,"Ġhomem":2466,"Ġproblemas":2467,"ĠAlemanha":2468,"Ġ189":2469,"Ġtradic":2470,"vos":2471,"Ġ2004":2472,"âĢĵ":2473,"Ġsurg":2474,"ultura":2475,"Ġcompanh":2476,"voluÃ§Ã£o":2477,"rist":2478,"Ġganhou":2479,"reto":2480,"ĠLisboa":2481,"ApÃ³s":2482,"ĠSuper":2483,"seu":2484,"Ãºde":2485,"Ġresultado":2486,"cidade":2487,"Ġreligios":2488,"ĠformaÃ§Ã£o":2489,"ren":2490,"ĠPaul":2491,"Ġtinham":2492,"pare":2493,"Ġbair":2494,"ĠInstitu":2495,"Ġmetros":2496,"ipal":2497,"Ġcola":2498,"lÃªs":2499,"Ġcargo":2500,"tenÃ§Ã£o":2501,"mental":2502,"ĠalcanÃ§":2503,"raÃ§Ãµes":2504,"14":2505,"Ġol":2506,"icion":2507,"culos":2508,"tur":2509,"Ġdivid":2510,"Ġdiretor":2511,"ya":2512,"ĠexÃ©rcito":2513,"ÃŃg":2514,"ĠAg":2515,"Ġfilmes":2516,"omia":2517,"ĠvÃŃde":2518,"Ġnovos":2519,"Ġtermo":2520,"ĠterritÃ³rio":2521,"ward":2522,"Ġson":2523,"ĠEn":2524,"idÃªncia":2525,"ok":2526,"Ġdefe":2527,"ĠHen":2528,"bert":2529,"Ġprinc":2530,"ĠSte":2531,"Ġliber":2532,"ese":2533,"ntemente":2534,"ĠmÃ©dia":2535,"han":2536,"bate":2537,"Ġcandida":2538,"ciaÃ§Ã£o":2539,"menta":2540,"ĠÃºnica":2541,"Ġexp":2542,"Ġusado":2543,"Ġdestru":2544,"ced":2545,"Ġapesar":2546,"ĠfunÃ§Ã£o":2547,"Ġmembro":2548,"jas":2549,"Ġdele":2550,"Ġlocais":2551,"Ġvir":2552,"ĠirmÃ£o":2553,"hÃ£o":2554,"Ġacabou":2555,"Ġimportantes":2556,"Ãī":2557,"ĠepisÃ³dio":2558,"Ġconver":2559,"Ġteria":2560,"ntar":2561,"maz":2562,"Ġcontrole":2563,"Ġsede":2564,"ĠparticipaÃ§Ã£o":2565,"Ġgre":2566,"Ġ28":2567,"ĠVal":2568,"Ġmusical":2569,"ĠmÃ©d":2570,"iado":2571,"fr":2572,"Ġfigu":2573,"Ġdenomin":2574,"Ġsepara":2575,"Ġ26":2576,"ĠlÃŃngua":2577,"Ġagora":2578,"ater":2579,"11":2580,"ĠFederal":2581,"ĠLei":2582,"Ã©tr":2583,"Ġcomum":2584,"Ġterra":2585,"ĠSou":2586,"nsa":2587,"ture":2588,"ĠlanÃ§ou":2589,"Ġge":2590,"ity":2591,"hou":2592,"ĠCap":2593,"Ġrede":2594,"vado":2595,"ĠespÃ©cies":2596,"ĠestÃº":2597,"izada":2598,"cra":2599,"ĠMad":2600,"Ġbrasileira":2601,"Ġtime":2602,"ames":2603,"Ġespera":2604,"Ġarquite":2605,"Ġestudos":2606,"Ġmodelo":2607,"tÃŃ":2608,"Ġeuro":2609,"ĠAlex":2610,"Ġnovas":2611,"Ġigreja":2612,"rando":2613,"Ġquant":2614,"ĠNew":2615,"ĠserviÃ§o":2616,"Ġ27":2617,"ificado":2618,"Ġcontribu":2619,"Ġprote":2620,"...":2621,"lmente":2622,"ney":2623,"Â°":2624,"vendo":2625,"Ã¢mara":2626,"pida":2627,"ĠdireÃ§Ã£o":2628,"Ġespanh":2629,"Ġbranc":2630,"Ġapre":2631,"belec":2632,"ĠPra":2633,"Ġacred":2634,"Um":2635,"iter":2636,"ceram":2637,"ĠtÃ£o":2638,"resso":2639,"inhos":2640,"ĠfÃŃs":2641,"Ġseguintes":2642,"Ġfosse":2643,"Ġinteres":2644,"mada":2645,"Ġcrist":2646,"tÃ£o":2647,"ntou":2648,"Ġital":2649,"uel":2650,"tri":2651,"Ġordem":2652,"guas":2653,"tÃ¢ncia":2654,"ĠBro":2655,"Ġunivers":2656,"Ġsex":2657,"Ġlevou":2658,"Ġantiga":2659,"tam":2660,"mbora":2661,"Ġedif":2662,"Ġacomp":2663,"Ġhabitantes":2664,"su":2665,"Ġilha":2666,"ĠDeus":2667,"terra":2668,"Ġespos":2669,"Ġmulher":2670,"Ġw":2671,"13":2672,"Ġdispon":2673,"ĠgÃªn":2674,"vada":2675,"Ã¢nia":2676,"iza":2677,"Ġexc":2678,"Ġtransfer":2679,"men":2680,"Ġdisc":2681,"Ġequip":2682,"Ãºn":2683,"rÃ©":2684,"Ġconquista":2685,"Ġdescre":2686,"iveram":2687,"Ġambos":2688,"ÃŃcios":2689,"Ġseguida":2690,"Ġviv":2691,"Ġsofre":2692,"Ġreti":2693,"perador":2694,"fici":2695,"Ġenvi":2696,"Ġtenha":2697,"ĠXI":2698,"ĠEdu":2699,"inc":2700,"Ġenfre":2701,"Ġescreveu":2702,"Ġdel":2703,"Foi":2704,"ramas":2705,"Ġsomente":2706,"pÃ£o":2707,"itado":2708,"Ġantigo":2709,"ĠinglÃªs":2710,"sen":2711,"mado":2712,"ĠcomeÃ§a":2713,"Ġobjetivo":2714,"Ġleg":2715,"Ġintro":2716,"inar":2717,"]]":2718,"Ġcinema":2719,"ĠMel":2720,"cente":2721,"Ġinternacional":2722,"ĠMed":2723,"Ġpersonagens":2724,"Ġtais":2725,"Ġcampanha":2726,"Ġenergia":2727,"estiv":2728,"xe":2729,"dap":2730,"Ġ188":2731,"ĠpresenÃ§a":2732,"Ġajuda":2733,"ursos":2734,"Ġapresenta":2735,"Ġ2003":2736,"ĠImpÃ©rio":2737,"Ġfazendo":2738,"ĠDan":2739,"cida":2740,"Ġjovem":2741,"Ġabs":2742,"Ġescrito":2743,"ĠUniÃ£o":2744,"Por":2745,"ĠserviÃ§os":2746,"Ġigu":2747,"Ġvice":2748,"eias":2749,"Ġ50":2750,"Ġdever":2751,"ĠpolÃŃtico":2752,"ĠItÃ¡":2753,"Ġpais":2754,"Ġmilita":2755,"Ġhe":2756,"iciais":2757,"Ġban":2758,"ps":2759,"Ġreceb":2760,"Ġparticular":2761,"Ġexer":2762,"Ġatribu":2763,"50":2764,"quÃªncia":2765,"Ġnasceu":2766,"Ġpoderia":2767,"Ġcentral":2768,"ĠalemÃ£":2769,"Para":2770,"cios":2771,"ĠEles":2772,"Ġatividades":2773,"Ġdese":2774,"Ġalta":2775,"Ġgara":2776,"Ġeu":2777,"Ġsemana":2778,"Ġnatural":2779,"Ã£s":2780,"can":2781,"Ġate":2782,"tadores":2783,"Ġprop":2784,"Ġrecu":2785,"Ġinterior":2786,"Ġhuma":2787,"ixas":2788,"ĠÃ³":2789,"Ġfavor":2790,"Ġ2002":2791,"Ġtecn":2792,"ĠorganizaÃ§Ã£o":2793,"Ġsociedade":2794,"arÃ¡":2795,"ider":2796,"Ã´nica":2797,"Ġbi":2798,"Ġvai":2799,"ouve":2800,"Ġpessoa":2801,"Ġabri":2802,"Ġnomeado":2803,"Ġespecialmente":2804,"ĠEspanha":2805,"ĠParis":2806,"ĠportuguÃªs":2807,"umb":2808,"diÃ§Ã£o":2809,"Ġevento":2810,"ĠMinist":2811,"pÃ§Ã£o":2812,"hes":2813,"ibilidade":2814,"Ġ29":2815,"Ġ&":2816,"Ã´me":2817,"ĠItÃ¡lia":2818,"Ġmont":2819,"Ġestabelec":2820,"tim":2821,"Ġdeclara":2822,"Ġcomercial":2823,"Ġserem":2824,"Ġesposa":2825,"eta":2826,"cando":2827,"Ġresol":2828,"ori":2829,"laterra":2830,"Ġlar":2831,"ĠmÃºsicas":2832,"Ġposteriormente":2833,"into":2834,"ĠHar":2835,"Ġexplo":2836,"ĠAssim":2837,"ĠLond":2838,"ĠTer":2839,"una":2840,"Ġ2019":2841,"ĠPartido":2842,"Ġmaneira":2843,"estival":2844,"lhe":2845,"rang":2846,"tadas":2847,"Ġeng":2848,"Ġaband":2849,"ash":2850,"ume":2851,"Ġdata":2852,"Ġcriado":2853,"Ġdeixou":2854,"Ġcasos":2855,"Ġelementos":2856,"augu":2857,"ith":2858,"Ġimpor":2859,"gent":2860,"Ġhos":2861,"Ġprimeiras":2862,"erais":2863,"ĠApesar":2864,"Ã¡tico":2865,"ĠInglaterra":2866,"ĠMc":2867,"ÃŃdos":2868,"Ġ1990":2869,"wa":2870,"ĠFl":2871,"Ġfunda":2872,"Ġempresas":2873,"Ġdesign":2874,"volu":2875,"ĠInternacional":2876,"ĠJapÃ£o":2877,"ndido":2878,"by":2879,"ulado":2880,"ĠTri":2881,"iais":2882,"Ġinaugu":2883,"enos":2884,"Ġinterna":2885,"ĠIl":2886,"terna":2887,"Ġremo":2888,"ĠTerra":2889,"Ġ2001":2890,"ĠBen":2891,"ĠTem":2892,"Ġhomena":2893,"ĠresponsÃ¡vel":2894,"Ġinsta":2895,"Ġatualmente":2896,"ĠCont":2897,"Ġnem":2898,"ĠUnido":2899,"Ġdedic":2900,"Ġconfir":2901,"Ġpartida":2902,"ĠÃ³r":2903,"Ġocorreu":2904,"ĠAlgu":2905,"Ġmorreu":2906,"taram":2907,"inou":2908,"cal":2909,"Ġtempera":2910,"izar":2911,"199":2912,"Ġbastante":2913,"Ġadap":2914,"mea":2915,"Ġminu":2916,"Ġcus":2917,"Ġsucess":2918,"Ġestar":2919,"pes":2920,"ĠinfluÃªncia":2921,"Ġestuda":2922,"Ġlista":2923,"ld":2924,"Ġconclu":2925,"Ġindic":2926,"usti":2927,"Ġpartes":2928,"uz":2929,"jam":2930,"ĠHer":2931,"ĠMic":2932,"Ġdig":2933,"cados":2934,"ĠespÃ©cie":2935,"atÃ³":2936,"Ġtrabalhos":2937,"respo":2938,"Ã¡r":2939,"Ġapar":2940,"ĠInstituto":2941,"ispo":2942,"Ġretorn":2943,"Ġassass":2944,"ores":2945,"inheiro":2946,"ĠUS":2947,"Ġaproxim":2948,"ĠCha":2949,"Ġaltura":2950,"Ġtornando":2951,"rus":2952,"ĠvÃŃdeo":2953,"Ġensino":2954,"mentaÃ§Ã£o":2955,"ĠserÃ¡":2956,"Ġcapacidade":2957,"Ġalte":2958,"Ġexce":2959,"Ġdesse":2960,"Ġsuperior":2961,"ensÃ£o":2962,"Ġdeles":2963,"ĠSanto":2964,"gou":2965,"Ġfaixa":2966,"Ġarti":2967,"ty":2968,"tima":2969,"cem":2970,"ĠMunic":2971,"Ġacesso":2972,"Ġprocura":2973,"Ġurb":2974,"Ã©tico":2975,"tÃ³rios":2976,"Ġprofessor":2977,"Ġmundial":2978,"Ġsan":2979,"Ġtudo":2980,"Ġfeita":2981,"âĢĿ,":2982,"Ġextens":2983,"III":2984,"Ġterceira":2985,"Ġhoras":2986,"Ġcantora":2987,"ĠPla":2988,"Ġocas":2989,"Ġrefere":2990,"Ġmercado":2991,"Uma":2992,"ko":2993,"rilha":2994,"ĠSan":2995,"ĠcrianÃ§as":2996,"tia":2997,"Ġelas":2998,"hado":2999,"Ġparticipou":3000,"ĠMais":3001,"ĠÃį":3002,"isla":3003,"ĠCentro":3004,"Ġime":3005,"ĠestÃºdio":3006,"Ġdar":3007,"Ġflu":3008,"ĠlÃ¡":3009,"ÃŃdu":3010,"hia":3011,"Ġvoltou":3012,"Ã¡ticas":3013,"ÃŃnci":3014,"ĠaÃ§Ã£o":3015,"ĠGal":3016,"Ġjapon":3017,"ĠJe":3018,"ites":3019,"fon":3020,"ĠIr":3021,"Ġadqu":3022,"Ġdireitos":3023,"telo":3024,"pendente":3025,"ĠRoc":3026,"Ġjuntamente":3027,"ÃŃlio":3028,"Ġ187":3029,"var":3030,"Ġabandon":3031,"inaÃ§Ã£o":3032,"Ġnoite":3033,"icul":3034,"Ġestreia":3035,"Ġmenor":3036,"ĠYou":3037,"Ġcaval":3038,"ÃŃpios":3039,"Ġanunciou":3040,"net":3041,"ĠprÃ³ximo":3042,"Ġestudo":3043,"Ġcontrato":3044,"arda":3045,"Ġbairro":3046,"ciado":3047,"ĠSegundo":3048,"Ġflores":3049,"Ġsecre":3050,"ĠBel":3051,"ĠKa":3052,"\").":3053,"ÃŃstico":3054,"Ã¡lia":3055,"ĠsituaÃ§Ã£o":3056,"osos":3057,"Ġdessa":3058,"Ġcasamento":3059,"ndendo":3060,"Ġfemin":3061,"Durante":3062,"Ġeventos":3063,"ini":3064,"grafia":3065,"Ġperto":3066,"30":3067,"Ġmelhores":3068,"zer":3069,"ĠRod":3070,"anÃ§as":3071,"ight":3072,"ÃŃncia":3073,"ple":3074,"Ġacredita":3075,"ĠPrime":3076,"ĠCruz":3077,"Ġacus":3078,"ĠcondiÃ§Ãµes":3079,"Ġlivros":3080,"nco":3081,"ĠfrancÃªs":3082,"rel":3083,"ĠCu":3084,"emia":3085,"Ġfec":3086,"Ġpresente":3087,"Ġjogadores":3088,"Ġoito":3089,"Ġcorrespo":3090,"ĠJes":3091,"Ġobserv":3092,"Ġmaterial":3093,"Ġemisso":3094,"Ã©is":3095,"ĠSilva":3096,"Ġreduz":3097,"Ġartistas":3098,"Ġalto":3099,"Ġsemelha":3100,"Ġconfl":3101,"Ġreconhec":3102,"Ġouro":3103,"Ġteoria":3104,"ĠclÃ¡ss":3105,"Ġce":3106,"Ġrealizado":3107,"teiro":3108,"orda":3109,"Ġmante":3110,"ĠdivisÃ£o":3111,"ky":3112,"cl":3113,"Ġcic":3114,"Ã©d":3115,"Ġblo":3116,"ĠMat":3117,"Ġentrou":3118,"Ġ186":3119,"ĠmÃªs":3120,"ĠregiÃµes":3121,"ĠSantos":3122,"Ġps":3123,"Ġtornar":3124,"Ġconvid":3125,"Ġturn":3126,"Ġelim":3127,"ĠSch":3128,"ĠXX":3129,"ivos":3130,"Ġsingle":3131,"Ġsolo":3132,"bun":3133,"Ġferro":3134,"Ġtropas":3135,"ĠNÃ£o":3136,"mi":3137,"Ġequipa":3138,"Ġcabe":3139,"Ġcategoria":3140,"Ġocupa":3141,"manas":3142,"ĠBan":3143,"cÃ§Ã£o":3144,"ĠAsso":3145,"eitas":3146,"ĠMag":3147,"todo":3148,"UA":3149,"ĠCasa":3150,"ĠWal":3151,"eza":3152,"Ġartista":3153,"Ġtorna":3154,"Ġrespec":3155,"ĠcompetiÃ§Ã£o":3156,"mbra":3157,"Ġlivre":3158,"ĠEsp":3159,"ical":3160,"Ġconven":3161,"van":3162,"pital":3163,"Ġraz":3164,"Ġmis":3165,"jec":3166,"ĠConselho":3167,"Ġviol":3168,"Ġbatalha":3169,"Ġprepara":3170,"Ġminist":3171,"cima":3172,"Ġmudou":3173,"Ġataque":3174,"Ġ1980":3175,"ĠChar":3176,"sh":3177,"ĠRecord":3178,"Ġx":3179,"ĠcanÃ§Ãµes":3180,"icais":3181,"ĠdecisÃ£o":3182,"Ġextra":3183,"Ġcanal":3184,"Ġestes":3185,"ker":3186,"ĠEscola":3187,"Ġ40":3188,"ood":3189,"Ã³l":3190,"Ġdura":3191,"jos":3192,"Ġorient":3193,"Ġpermi":3194,"Ġdemons":3195,"ĠGlo":3196,"Ġsobrev":3197,"Ġmal":3198,"cent":3199,"ĠSam":3200,"ĠAra":3201,"ĠMal":3202,"ĠcaracterÃŃsticas":3203,"Ġperce":3204,"icaÃ§Ãµes":3205,"Ãºssia":3206,"ĠVi":3207,"rol":3208,"xima":3209,"Ġgarant":3210,"ĠGover":3211,"Ġvotos":3212,"Ġatra":3213,"Ġ1970":3214,"ticamente":3215,"Ġvista":3216,"rique":3217,"ĠCÃ¢mara":3218,"Ġideia":3219,"ĠYork":3220,"Ġpermite":3221,"ĠAlexand":3222,"Ca":3223,"Ġcomando":3224,"ung":3225,"Ġ1999":3226,"Ġinspira":3227,"enn":3228,"Ġsen":3229,"ĠLou":3230,"ws":3231,"liam":3232,"rim":3233,"ĠMor":3234,"Ġcivil":3235,"Ġcomunidade":3236,"Ġrealizada":3237,"Ġverd":3238,"Ġeurope":3239,"Ġvenceu":3240,"ĠindÃºs":3241,"idad":3242,"Ġobte":3243,"Ġanimais":3244,"Ġpesquisa":3245,"Ġinclus":3246,"Ġtransforma":3247,"Ġprodutos":3248,"col":3249,"Ġconcent":3250,"Ġexig":3251,"Ġon":3252,"Ġdemo":3253,"hora":3254,"Ġquarto":3255,"frica":3256,"Ġterras":3257,"ĠpÃ¡":3258,"Ġpequena":3259,"Ã©rcio":3260,"Ġreconhe":3261,"Ġmilitares":3262,"Ġpartido":3263,"Ġcombate":3264,"ĠestaÃ§Ã£o":3265,"Ġcolon":3266,"usÃ£o":3267,"Ġdepu":3268,"bas":3269,"Ġdivul":3270,"ĠChina":3271,"Ġintit":3272,"Ġiniciou":3273,"Ġneste":3274,"como":3275,"tureza":3276,"Ġ1998":3277,"ĠsaÃºde":3278,"Ġprocess":3279,"ÃŃncipe":3280,"ref":3281,"ĠLondres":3282,"ĠSant":3283,"Ġtrabalhar":3284,"Ġestreou":3285,"ĠJesus":3286,"elos":3287,"Ġtrabalha":3288,"Ġcriar":3289,"Ġfalta":3290,"Ġamor":3291,"len":3292,"vela":3293,"Ġocup":3294,"ĠcampeÃ£o":3295,"lam":3296,"mor":3297,"Ã³lo":3298,"uta":3299,"Ġsistemas":3300,"Ġante":3301,"ĠSol":3302,"fil":3303,"Ġsociais":3304,"Ġ[[":3305,"Ġchama":3306,"Ġreno":3307,"Ã©u":3308,"gus":3309,"li":3310,"Ġprogramas":3311,"Ġtema":3312,"Ġalgum":3313,"ÃŃfico":3314,"ingu":3315,"Ġalgo":3316,"ĠLuÃŃs":3317,");":3318,"Ġvisita":3319,"ĠTur":3320,"manos":3321,"Ġarmas":3322,"Ġsuperf":3323,"Ġlingu":3324,"Ġinteresse":3325,"rÃŃ":3326,"ĠReal":3327,"itada":3328,"ĠlÃŃder":3329,"risto":3330,"Ġretra":3331,"Ġclassific":3332,"Ġobrig":3333,"Ġterminou":3334,"Ġminutos":3335,"Ġgovernador":3336,"ĠOri":3337,"Ġesco":3338,"Ġrus":3339,"Ġmanter":3340,"Ġcriada":3341,"ustiÃ§a":3342,"Ġplano":3343,"ĠfÃ¡":3344,"gada":3345,"rupo":3346,"Ġesca":3347,"Ġcen":3348,"ĠseguranÃ§a":3349,"Ġmus":3350,"ĠÃºltimos":3351,"dados":3352,"Ġmet":3353,"Ġentrada":3354,"Ġestra":3355,"Ġrecursos":3356,"iaÃ§Ã£o":3357,"ÃŃdas":3358,"ĠprÃ¡tica":3359,"Ġafirmou":3360,"Ġaproximadamente":3361,"ÃŃcia":3362,"ustra":3363,"Ġfiz":3364,"Ġsens":3365,"lec":3366,"erg":3367,"Ġcompara":3368,"ĠExÃ©rcito":3369,"Ġfronte":3370,"Ġbil":3371,"ĠHu":3372,"lan":3373,"Ġtiveram":3374,"Ġdecidiu":3375,"Ã´s":3376,"Ġprofissional":3377,".,":3378,"Ġboa":3379,"Ġfol":3380,"ĠLib":3381,"ĠturnÃª":3382,"idental":3383,"bi":3384,"Ġ31":3385,"Ġimagem":3386,"Ġtermos":3387,"ĠSec":3388,"alidade":3389,"Ġescrita":3390,"ĠÃģfrica":3391,"ĠcomeÃ§aram":3392,"Ġmassa":3393,"ĠGar":3394,"Ġnomes":3395,"Ġcrescimento":3396,"ĠRu":3397,"Ġoeste":3398,"anas":3399,"Ġacima":3400,"ĠAcad":3401,"ĠpÃºblica":3402,"ĠDiv":3403,"pendÃªncia":3404,"Ġimperador":3405,"Ġquer":3406,"Ġformas":3407,"gh":3408,"rank":3409,"ĠIII":3410,"Ġusu":3411,"Ġfinanc":3412,"turo":3413,"Ġusa":3414,"ac":3415,"ĠHist":3416,"Ġsat":3417,"Ġsentido":3418,"Ġci":3419,"ES":3420,"Ġvivo":3421,"ĠPorÃ©m":3422,"pidamente":3423,"tad":3424,"quela":3425,"ĠMundo":3426,"ĠindivÃŃdu":3427,"Ġcontinuou":3428,"ĠcÃ³p":3429,"Ġvisto":3430,"ĠBrasileiro":3431,"ĠSegunda":3432,"ot":3433,"Ġbaixo":3434,"Ġpequeno":3435,"Ġama":3436,"Ġeconomia":3437,"ĠInd":3438,"ĠSim":3439,"encia":3440,"orias":3441,"Ġamea":3442,"ÃŃmp":3443,"ĠWilliam":3444,"Ġconsiderada":3445,"Ġ/":3446,"culdade":3447,"ĠimportÃ¢ncia":3448,"my":3449,"ĠTh":3450,"ĠIsso":3451,"Ġrecus":3452,"ndos":3453,"Ġhouve":3454,"ĠeducaÃ§Ã£o":3455,"Ġgeneral":3456,"Ġimedia":3457,"vers":3458,"Ġqualidade":3459,"ĠDis":3460,"Ġinstal":3461,"Ex":3462,"Ġvive":3463,"Ġveloc":3464,"lubes":3465,"Ġcomu":3466,"Ġusando":3467,"Ġescolh":3468,"ĠdÃ¡":3469,"Ġarre":3470,"Ġtipos":3471,"orde":3472,"edades":3473,"Ġcriou":3474,"rÃ¡fica":3475,"Ġinicialmente":3476,"Ġnatureza":3477,"Ġclasse":3478,"Ġbusca":3479,"Ġliga":3480,"Ġmovi":3481,"Ġextre":3482,"tividade":3483,"isto":3484,"gÃ£o":3485,"Ġfacil":3486,"Ġhor":3487,"ĠRos":3488,"Ġvig":3489,"Ġcruz":3490,"ĠXIX":3491,"Ġreco":3492,"xico":3493,"ance":3494,"onel":3495,"vidos":3496,"ĠeleiÃ§Ãµes":3497,"ĠPortugu":3498,"Ġdistrito":3499,"ĠEUA":3500,"ĠgÃªnero":3501,"plos":3502,"ree":3503,"Ġincluem":3504,"uss":3505,"Ġdescri":3506,"Ġteste":3507,"blic":3508,"Ġpermit":3509,"ĠinformaÃ§Ãµes":3510,"ling":3511,"Ġaval":3512,"Ġente":3513,"aran":3514,"Ġverdade":3515,"Ġdificul":3516,"ks":3517,"Ã©n":3518,"Ġutilizado":3519,"Ġrev":3520,"Ġjur":3521,"rom":3522,"Ġdomin":3523,"ĠrelaÃ§Ãµes":3524,"Ġfinalmente":3525,"Ġusar":3526,"Ġmanif":3527,"ĠMonte":3528,"ĠNor":3529,"ĠDou":3530,"Ġk":3531,"Ġmetade":3532,"Ġcaminho":3533,"Ġproblema":3534,"ÃŃfica":3535,"iote":3536,"Ã£es":3537,"old":3538,"bos":3539,"ĠlanÃ§ada":3540,"ĠVila":3541,"Como":3542,"TV":3543,"ique":3544,"itora":3545,"Ġacei":3546,"Ġrapidamente":3547,"Ġluz":3548,"Ġ1997":3549,"ilar":3550,"rama":3551,"Ġdim":3552,"ĠMer":3553,"NA":3554,"\"\".":3555,"Ġnenhum":3556,"ĠNas":3557,"ĠalemÃ£o":3558,"alo":3559,"Ar":3560,"Ġpublicado":3561,"Ġatividade":3562,"Ġposi":3563,"Ġtorno":3564,"orld":3565,"ĠMusic":3566,"mentou":3567,"âĢĿ.":3568,"olÃ³gico":3569,"Ġzona":3570,"ome":3571,"itou":3572,"Ġesses":3573,"esas":3574,"Ġrecupera":3575,"Ġrefor":3576,"ĠEmbora":3577,"rÃ¡fico":3578,"Ġunidades":3579,"itaÃ§Ã£o":3580,"Ġquantidade":3581,"Ġinim":3582,"Ġanal":3583,"Ġintroduz":3584,"Ġcurso":3585,"amente":3586,"Ġaumento":3587,"Ġmanda":3588,"Ġconhecimento":3589,"ĠEu":3590,"Ġacompanh":3591,"Ġ1996":3592,"ÃŃcie":3593,"ncial":3594,"imos":3595,"trÃ¡s":3596,"Ġatriz":3597,"Ġ1960":3598,"Ġaba":3599,"Ġportanto":3600,"Ġveio":3601,"tora":3602,"Ġderi":3603,"Ġmens":3604,"Ġisto":3605,"Ġestados":3606,"Ġesquer":3607,"adÃ¡":3608,"timo":3609,"Ġvence":3610,"ĠÂ":3611,"Ġleste":3612,"Ġtempos":3613,"Ġemissora":3614,"Ġdado":3615,"Ã³nio":3616,"Ġdinheiro":3617,"ĠJÃ¡":3618,"âĢĻ":3619,"Ġmand":3620,"Ġcele":3621,"\"\",":3622,"tus":3623,"Depois":3624,"Ġescolas":3625,"Ġestrang":3626,"oa":3627,"issÃµes":3628,"ÃŃb":3629,"Des":3630,"Ã¢nt":3631,"ĠedifÃŃcio":3632,"Ġnar":3633,"rimento":3634,"alha":3635,"ĠDom":3636,"Ġencontrar":3637,"Ġexistem":3638,"ĠcrÃŃtica":3639,"lin":3640,"ish":3641,"nam":3642,"ĠanÃ¡l":3643,"ĠJog":3644,"Ġpilo":3645,"ÃŃm":3646,"Ġpropriedade":3647,"ĠMunicipal":3648,"tÃ¡rio":3649,"Ġhon":3650,"Ġaer":3651,"Ġbal":3652,"ĠMon":3653,"Ġnave":3654,"ĠfunÃ§Ãµes":3655,"uncia":3656,"Ġtaman":3657,"erto":3658,"ÃŃd":3659,"itÃ£o":3660,"Ġdiminu":3661,"Ġindependente":3662,"Ãºl":3663,"radores":3664,"Ġmedida":3665,"ianos":3666,"Ġprovo":3667,"Ġjovens":3668,"Ġprovavelmente":3669,"ĠBru":3670,"Ġator":3671,"idro":3672,"lor":3673,"ĠprovÃŃncia":3674,"Ġeletr":3675,"ĠAntÃ´nio":3676,"ĠÃŃnd":3677,"Ġfoto":3678,"amos":3679,"Ġcontr":3680,"Ġcuja":3681,"ĠGeral":3682,"ĠmudanÃ§a":3683,"orme":3684,"Ġ1994":3685,"Ġguitar":3686,"Ġlite":3687,"unha":3688,"cip":3689,"Ma":3690,"Ġrele":3691,"Ġdefesa":3692,"Ġdou":3693,"ĠConstitu":3694,"tais":3695,"Ã©ia":3696,"esc":3697,"Ġade":3698,"ĠMinas":3699,"ĠpadrÃ£o":3700,"Mar":3701,"ĠRede":3702,"ĠexistÃªncia":3703,"forme":3704,"gamento":3705,"Ġpalavra":3706,"ĠavanÃ§":3707,"tida":3708,"ceria":3709,"ust":3710,"Ġfabr":3711,"Ġadministra":3712,"vidas":3713,"ĠRei":3714,"titude":3715,"Ġinstala":3716,"Ġ80":3717,"ĠcÃ©l":3718,"ĠFernando":3719,"Ġambiente":3720,"Ġaprov":3721,"ted":3722,"Ġdisputa":3723,"198":3724,"ĠreferÃªncia":3725,"Ġconceito":3726,"tant":3727,"Ġpropor":3728,"Ġlonga":3729,"Ġfrequentemente":3730,"Ġcaptura":3731,"ĠTom":3732,"Ġaparece":3733,"tun":3734,"ĠaÃ§Ãµes":3735,"Ġ60":3736,"Ġexclus":3737,"Ã¶":3738,"Ġrea":3739,"Ġlinhas":3740,"ĠAna":3741,"Ġcircu":3742,"Ġquil":3743,"ĠDem":3744,"vios":3745,"40":3746,"Ġequipes":3747,"ferÃªncia":3748,"ĠVic":3749,"ĠBrasileira":3750,"Ġsemanas":3751,"Ġportuguesa":3752,"Ġgas":3753,"ington":3754,"isas":3755,"ĠJack":3756,"Ġdescobri":3757,"ĠBat":3758,"Ġ1995":3759,"ndeira":3760,"Ġesfor":3761,"Ġdiferente":3762,"Ġetc":3763,"Ġdemais":3764,"quistou":3765,"ecer":3766,"ÃŃram":3767,"Ġargu":3768,"xas":3769,"olÃ³gica":3770,"Ã©gio":3771,"bs":3772,"ony":3773,"Entre":3774,"ĠMartin":3775,"Ġcujo":3776,"bunal":3777,"ĠAward":3778,"ĠDavid":3779,"ĠCi":3780,"Ã¢nica":3781,"Ġpossuem":3782,"igra":3783,"Ġcampeonato":3784,"posto":3785,"ĠClube":3786,"Ã¢me":3787,"emble":3788,"BC":3789,"Ġcomporta":3790,"bor":3791,"ĠGre":3792,"Ġtes":3793,"berg":3794,"Ġespor":3795,"unda":3796,"ĠrÃ¡dio":3797,"Ġusada":3798,"Ãªnio":3799,"Ġpalavras":3800,"imes":3801,"ans":3802,"ĠEnquanto":3803,"ustrial":3804,"Ġapresentou":3805,"Ġiria":3806,"Ġnesta":3807,"ĠJames":3808,"cend":3809,"Ġaspec":3810,"ĠMÃ©xico":3811,"ientes":3812,"Ġvem":3813,"vin":3814,"estre":3815,"tific":3816,"igas":3817,"berta":3818,"ervaÃ§Ã£o":3819,"ĠMuseu":3820,"lares":3821,"Ġhaviam":3822,"Ġessas":3823,"ĠÃ¢":3824,"ĠmissÃ£o":3825,"Ġdestaque":3826,"ĠcatÃ³":3827,"Ġindivid":3828,"Ġdesempen":3829,"Ġanteriores":3830,"ĠSete":3831,"Ġamericano":3832,"hael":3833,"ĠFutebol":3834,"vir":3835,"ĠBas":3836,"Ġchefe":3837,"ĠCosta":3838,"ĠtÃŃtulos":3839,"Ġcostu":3840,"ĠeconÃ´m":3841,"Ġocorr":3842,"uras":3843,"venÃ§Ã£o":3844,"ĠPh":3845,"taria":3846,"onas":3847,"Ġaplic":3848,"tagon":3849,"ĠOc":3850,"Ġpote":3851,"ĠEssa":3852,"Ġhumanos":3853,"ĠatrÃ¡s":3854,"Ġamigo":3855,"ĠOrdem":3856,"Ã³is":3857,"izou":3858,"Ġengenh":3859,"Ġsite":3860,"Ġaz":3861,"ĠpolÃŃticas":3862,"Ġdemonstra":3863,"Ġperdeu":3864,"ĠWar":3865,"Ġcomposta":3866,"Ġpertenc":3867,"mando":3868,"assem":3869,"mba":3870,"gen":3871,"Ġoficiais":3872,"Ġorden":3873,"ental":3874,"ratura":3875,"Ġcarta":3876,"ĠRib":3877,"tle":3878,"ĠdifÃŃ":3879,"deraÃ§Ã£o":3880,"ĠLiga":3881,"Ġesqu":3882,"Ġchegar":3883,"ĠPresidente":3884,"triz":3885,"Ġinteress":3886,"Ġtradicional":3887,"Ġ1992":3888,"Ġpassado":3889,"ivamente":3890,"ĠsequÃªncia":3891,"Ġinclui":3892,"ĠComun":3893,"eram":3894,"ĠGrupo":3895,"Ġresid":3896,"Ġgols":3897,"Ġamigos":3898,"Ġunidade":3899,"Ġrep":3900,"Ġcultural":3901,"end":3902,"ÃŃlias":3903,"Ġhomenagem":3904,"ĠdÃ³":3905,"mens":3906,"guesia":3907,"op":3908,"ous":3909,"Ġcarro":3910,"ue":3911,"tina":3912,"Ġabertura":3913,"ĠSha":3914,"Ġintens":3915,"ĠGlobo":3916,"ĠHol":3917,"Quando":3918,"ioc":3919,"Ġgo":3920,"Ġcontrol":3921,"tÃ¡vel":3922,"nÃ¡":3923,"Ġreceber":3924,"ĠSenhora":3925,"Ġasse":3926,"ĠirmÃ£os":3927,"Ġfuturo":3928,"Ġdiss":3929,"istem":3930,"ival":3931,"ĠcabeÃ§a":3932,"ĠveÃŃ":3933,"ĠIsa":3934,"ĠindÃºstria":3935,"gados":3936,"ĠRÃºssia":3937,"Ġtrabalhou":3938,"Ã´mica":3939,"Ġbaseado":3940,"gentina":3941,"ĠMes":3942,"Ġsufici":3943,"imentos":3944,"Ġconquistou":3945,"izados":3946,"Ġtratamento":3947,"Ġdescon":3948,"partamento":3949,"Ġefeito":3950,"Ġoficialmente":3951,"Ġvelocidade":3952,"Ġprecisa":3953,"Ġfala":3954,"Ã§ado":3955,"Ġcre":3956,"ĠDia":3957,"ĠadministraÃ§Ã£o":3958,"Ġteatro":3959,"ĠpeÃ§as":3960,"Ġmol":3961,"Ele":3962,"ides":3963,"Ġacad":3964,"Ġarm":3965,"ĠatenÃ§Ã£o":3966,"Ġprotes":3967,"Ġsoldados":3968,"Ġviz":3969,"Ġnego":3970,"mon":3971,"Ġtamanho":3972,"osas":3973,"25":3974,"Ġ1991":3975,"Sa":3976,"Ġnesse":3977,"ndem":3978,"Ġobteve":3979,"Ġris":3980,"fic":3981,"Ã©dia":3982,"tional":3983,"reia":3984,"Ġinvas":3985,"orpo":3986,"Ġpassando":3987,"ĠcontrÃ¡rio":3988,"tio":3989,"Ġchin":3990,"ificar":3991,"Ġmem":3992,"Ġesteve":3993,"Ġresultados":3994,"Ġelenco":3995,"Ġelo":3996,"ĠMinistÃ©rio":3997,"Ġlocalizado":3998,"Ġmarcou":3999,"Ġinfer":4000,"cimentos":4001,"osofia":4002,"ÃŃrito":4003,"ĠJorge":4004,"Ġentra":4005,"hi":4006,"ĠcomÃ©rcio":4007,"erial":4008,"Ġmic":4009,"Ġpassar":4010,"bliote":4011,"Ġdevem":4012,"ĠFestival":4013,"Ġacer":4014,"Ġrefle":4015,"veram":4016,"Ġoriginalmente":4017,"Ao":4018,"Ġdeco":4019,"Ġcorte":4020,"Ġtransporte":4021,"ĠpÃ³s":4022,"Ã³rio":4023,"Ġseguir":4024,"rael":4025,"Ġaux":4026,"Ġprotagon":4027,"Ġ185":4028,"porto":4029,"ast":4030,"Ġforne":4031,"Ġexa":4032,"Ġestas":4033,"Ġestadual":4034,"ĠMos":4035,"nes":4036,"Ġantigos":4037,"yo":4038,"Ã§ar":4039,"Pa":4040,"Ġmotor":4041,"Ġprojetos":4042,"Ġpoucos":4043,"Ġmeados":4044,"gica":4045,"Segu":4046,"eraÃ§Ã£o":4047,"Ġdestin":4048,"ĠCD":4049,"Ġcorr":4050,"Ġimpre":4051,"Ġcidad":4052,"orden":4053,"Ġdela":4054,"unos":4055,"gresso":4056,"Ġtraz":4057,"Ġgal":4058,"ĠpolÃŃticos":4059,"ĠnÂº":4060,"ĠvocÃª":4061,"ĠclassificaÃ§Ã£o":4062,"Ġclubes":4063,"ĠvisÃ£o":4064,"ĠtrÃ¡":4065,"Ġeta":4066,"ĠCentral":4067,"ĠnecessÃ¡rio":4068,"ĠVol":4069,"Ġefe":4070,"Ġassumiu":4071,"ĠSp":4072,"ianÃ§a":4073,"Ġterre":4074,"Ġefeitos":4075,"iqu":4076,"Ġtentativa":4077,"way":4078,"ĠCe":4079,"ĠEra":4080,"Ġassoci":4081,"60":4082,"ĠdÃ³lares":4083,"Ġcontemp":4084,"isÃµes":4085,"ĠBal":4086,"ĠHenrique":4087,"Ġjul":4088,"ĠÃ¡r":4089,"FA":4090,"ĠprisÃ£o":4091,"deu":4092,"Ġfederal":4093,"ĠPen":4094,"Ġnenhuma":4095,"Ġpessoal":4096,"ĠepisÃ³dios":4097,"Ã³digo":4098,"ĠAlguns":4099,"Ã¡b":4100,"iguel":4101,"Le":4102,"ĠBla":4103,"ĠAinda":4104,"Ġrealizar":4105,"ĠEr":4106,"ĠWorld":4107,"ni":4108,"ĠtradiÃ§Ã£o":4109,"Ġnada":4110,"Ġbat":4111,"onal":4112,"trÃ³":4113,"ĠManuel":4114,"Ġ1993":4115,"Ġfonte":4116,"Ġdando":4117,"ĠnegÃ³":4118,"Ġrespeito":4119,"Ġrepe":4120,"ĠPos":4121,"Ġrock":4122,"dades":4123,"ĠAustr":4124,"Ġrespo":4125,"Ou":4126,"Ġ70":4127,"ĠOliv":4128,"ĠRodri":4129,"ĠexperiÃªncia":4130,"Ġprecis":4131,"ĠCalif":4132,"Ġartes":4133,"igh":4134,"Ġassu":4135,"Ġpermaneceu":4136,"ĠLos":4137,"Ġalguma":4138,"zz":4139,"we":4140,"Ġviagem":4141,"ĠMont":4142,"Ġbaixa":4143,"Ġmencion":4144,"vaÃ§Ãµes":4145,"ĠsuperfÃŃcie":4146,"Ġpensa":4147,"ware":4148,"Ġopor":4149,"Ã©re":4150,"ĠprÃªmio":4151,"ĠJogos":4152,"Ġsom":4153,"ĠdistribuiÃ§Ã£o":4154,"ltra":4155,"ĠBill":4156,"ĠcÃ³pias":4157,"pp":4158,"Ġinver":4159,"AS":4160,"ĠVen":4161,"ogra":4162,"Ġaplica":4163,"Ġdizendo":4164,"Ġhistori":4165,"Ã´nico":4166,"ĠCanadÃ¡":4167,"Ġapos":4168,"ustria":4169,"Ġcompanhia":4170,"Ġpassaram":4171,"ĠCla":4172,"tilh":4173,"ĠChe":4174,"ĠSecre":4175,"itÃ¡rio":4176,"ĠtÃ©cnico":4177,"In":4178,"ĠGen":4179,"illa":4180,"ntu":4181,"Ġsusp":4182,"Ġperf":4183,"ĠLiv":4184,"Ġinclusive":4185,"ĠhistÃ³rias":4186,"Ġabaixo":4187,"ĠfamÃŃlias":4188,"Ġderrota":4189,"ilia":4190,"Ġlic":4191,"Ġpresid":4192,"Ġespanhol":4193,"Ġampla":4194,"Ġavi":4195,"Ġdupla":4196,"Ġple":4197,"ĠestratÃ©":4198,"ĠcrÃŃticas":4199,"ĠGon":4200,"ator":4201,"ĠDel":4202,"Ġbol":4203,"ndante":4204,"board":4205,"Ġempa":4206,"Ġrestaura":4207,"ĠmÃ£o":4208,"Ġingles":4209,"Ġtorneio":4210,"ĠSta":4211,"Ġcomposto":4212,"ĠconstruÃŃdo":4213,"public":4214,"ny":4215,"Ġgradu":4216,"Ġpublicou":4217,"ĠEsse":4218,"Ġfontes":4219,"ĠAugus":4220,"Ġpros":4221,"ĠAmeric":4222,"enci":4223,"ĠrazÃ£o":4224,"Ġregime":4225,"Ġtemperatura":4226,"ĠMen":4227,"Ġencontram":4228,"ĠDesde":4229,"Nas":4230,"Ġconstante":4231,"ĠConc":4232,"melho":4233,"Ġcasou":4234,"Ġescrav":4235,"Ġformato":4236,"idÃ£o":4237,"Ġmarido":4238,"ĠmudanÃ§as":4239,"Ġcosta":4240,"ĠcomunicaÃ§Ã£o":4241,"La":4242,"Ġvalores":4243,"Ġparece":4244,"ĠSocial":4245,"trou":4246,"Ġcasas":4247,"Ġkm":4248,"Ġaerona":4249,"Ġ183":4250,"Ġ90":4251,"Ġ184":4252,"Ġdiretamente":4253,"ges":4254,"Ġhi":4255,"Ġtrein":4256,"Ġnove":4257,"Ġfigura":4258,"ĠdoenÃ§a":4259,"Ġtexto":4260,"ĠJer":4261,"ĠTho":4262,"Ġdeus":4263,"Ġromance":4264,"Ġbom":4265,"ĠNossa":4266,"Ã¡u":4267,"pia":4268,"Ġjo":4269,"Ġnecessidade":4270,"ĠRich":4271,"Ãµe":4272,"Ġrealizou":4273,"ĠelÃ©tr":4274,"Ġfizeram":4275,"Ã¡ticos":4276,"ĠVir":4277,"Ġcapaz":4278,"Ġconhecidos":4279,"Ġguer":4280,"ĠquestÃ£o":4281,"Ġadul":4282,"ono":4283,"Ġdispos":4284,"tantes":4285,"ĠtÃ©cnica":4286,"embleia":4287,"Ġ1988":4288,"ixos":4289,"eix":4290,"Ġinfant":4291,"Ġapareceu":4292,"Ġcantor":4293,"Ġbene":4294,"ku":4295,"Ġpodia":4296,"Ġcena":4297,"alizaÃ§Ã£o":4298,"quim":4299,"now":4300,"ĠCham":4301,"Ġ1950":4302,"Ġcompar":4303,"Ġ1989":4304,"ĠpressÃ£o":4305,"cular":4306,"Ġnormalmente":4307,"ĠÃįndia":4308,"riamente":4309,"Ġconsiste":4310,"ĠPrimeira":4311,"Ġpreoc":4312,"ĠEntretanto":4313,"polita":4314,"vore":4315,"Ġproduzido":4316,"Ġexpress":4317,"Ġrespectivamente":4318,"ĠanÃ¡lise":4319,"Ġprete":4320,"Ġtel":4321,"Ġresposta":4322,"Ġchega":4323,"ĠWe":4324,"Ġimagens":4325,"Ġcontin":4326,"Ġdeputado":4327,"ford":4328,"Ġfundada":4329,"Ġpens":4330,"ĠdistÃ¢ncia":4331,"ĠIta":4332,"Ġmandato":4333,"Con":4334,"Ġartigo":4335,"Ġproteg":4336,"Ġsemelhante":4337,"Ġdesapare":4338,"ones":4339,"bras":4340,"Ġgoverna":4341,"Ġprefeito":4342,"ĠAssociaÃ§Ã£o":4343,"Ġtit":4344,"turais":4345,"cialmente":4346,"ĠPu":4347,"ĠMichael":4348,"Ġentrevista":4349,"ĠconteÃº":4350,"ĠIor":4351,"Ġescritor":4352,"gares":4353,"Ġchu":4354,"let":4355,"ĠDireito":4356,"ĠEurope":4357,"ĠEg":4358,"Ġtotalmente":4359,"fra":4360,"Ġfaixas":4361,"Ġord":4362,"Pro":4363,"ĠseleÃ§Ã£o":4364,"Ġdecla":4365,"ĠCrist":4366,"ĠKe":4367,"Ġpat":4368,"ĠCristo":4369,"dy":4370,"Ġemp":4371,"Ġigual":4372,"inta":4373,"crito":4374,"Ġexplic":4375,"ĠMiguel":4376,"ĠGoverno":4377,"Ġdisti":4378,"Ġpassagem":4379,"ĠEstÃ¡":4380,"Ġnega":4381,"ĠPop":4382,"Ġperc":4383,"ĠGerais":4384,"Ġregular":4385,"mal":4386,"Ġec":4387,"Ã¢nico":4388,"ĠLat":4389,"ĠTal":4390,"ĠAustrÃ¡lia":4391,"Ġsinal":4392,"Ã¢nea":4393,"inhas":4394,"ĠBor":4395,"ĠcontÃ©m":4396,"tude":4397,"anhas":4398,"ĠinformaÃ§Ã£o":4399,"ventu":4400,"Ġsabe":4401,"ĠAnton":4402,"ĠAmb":4403,"ĠBol":4404,"CA":4405,"vez":4406,"Ġconce":4407,"ĠversÃµes":4408,"Ġtecnologia":4409,"ĠIorque":4410,"tino":4411,"buns":4412,"Do":4413,"ĠFund":4414,"197":4415,"Ġprodutor":4416,"ĠeleiÃ§Ã£o":4417,"Ġsuste":4418,"To":4419,"leo":4420,"Ġlocalizada":4421,"ings":4422,"Ġcompletamente":4423,"Ġcolabo":4424,"Ġagra":4425,"ĠdÃ©cadas":4426,"ĠHor":4427,"rid":4428,"Ġalunos":4429,"Ġbio":4430,"mentais":4431,"essem":4432,"ies":4433,"ĠPere":4434,"Ġdisp":4435,"Ġconflito":4436,"Ġvoz":4437,"Ġparceria":4438,"ĠAcademia":4439,"ĠAbril":4440,"Nos":4441,"ĠEng":4442,"formula":4443,"Ã¢ncias":4444,"taÃ§Ãµes":4445,"ĠHel":4446,"22":4447,"ĠBranc":4448,"gando":4449,"Ġpequenas":4450,"Ġconduz":4451,"iliar":4452,"Ġparticipar":4453,"ares":4454,"Ġpaci":4455,"ĠPapa":4456,"leta":4457,"Ġformado":4458,"Ġoportun":4459,"ĠMaio":4460,"ordeste":4461,"iou":4462,"Ġdiante":4463,"Ġdeclarou":4464,"caram":4465,"ĠpeÃ§a":4466,"Ġvas":4467,"ĠNovo":4468,"Ġdete":4469,"essÃ£o":4470,"tua":4471,"Ġger":4472,"Ġdeveria":4473,"Ġtrop":4474,"Ġentrar":4475,"Ġparal":4476,"Ġconden":4477,"Ġmanifesta":4478,"teu":4479,"ĠGil":4480,"Ġdeixar":4481,"itores":4482,"Ã±":4483,"ĠRes":4484,"ĠJul":4485,"Â²":4486,"Ġtemas":4487,"Ġreais":4488,"Ġbre":4489,"Ġproib":4490,"AlÃ©m":4491,"Ġcel":4492,"ĠPeter":4493,"ĠinstituiÃ§Ã£o":4494,"mia":4495,"ĠCamp":4496,"Ġdesses":4497,"rest":4498,"Ġlegisla":4499,"lim":4500,"ĠsÃŃmb":4501,"vador":4502,"Ġfeitas":4503,"Ġfug":4504,"Ġalterna":4505,"ĠdomÃŃnio":4506,"Ġvila":4507,"Ġhip":4508,"ĠhistÃ³rico":4509,"tuais":4510,"Ġadicion":4511,"Ġfen":4512,"Ġafe":4513,"ĠPat":4514,"ĠRobert":4515,"ĠArgentina":4516,"Ġperd":4517,"Ġproduto":4518,"Ġpresentes":4519,"Ġcump":4520,"Ġimprensa":4521,"wood":4522,"ĠBur":4523,"port":4524,"ure":4525,"Ġrod":4526,"ĠInte":4527,"Ġprim":4528,"mun":4529,"Ġporta":4530,"Ġencerra":4531,"Ġnavio":4532,"viÃ©tica":4533,"hada":4534,"Ġafas":4535,"estÃµes":4536,"ĠmÃ£os":4537,"pal":4538,"Ġ1986":4539,"Ġnota":4540,"ĠinÃº":4541,"Ġvide":4542,"Ġusados":4543,"Ġaconteceu":4544,"ĠDist":4545,"erson":4546,"bres":4547,"Ġprofesso":4548,"Ġevitar":4549,"ĠDr":4550,"Ġcuid":4551,"onstru":4552,"Ġrebel":4553,"ĠStu":4554,"Ġincorpo":4555,"izant":4556,"Ġtiv":4557,"Ġinten":4558,"ĠCidade":4559,"Ġposto":4560,"bia":4561,"Ġcontinua":4562,"Ch":4563,"Ġseguido":4564,"Ġobter":4565,"Â»":4566,"ĠnÃºcle":4567,"single":4568,"Ġrepro":4569,"Ġvocal":4570,"fera":4571,"Ġimped":4572,"isc":4573,"23":4574,"ntado":4575,"its":4576,"umo":4577,"Ġbra":4578,"ror":4579,"Ġcerim":4580,"ĠsÃ©culos":4581,"Ġdirigido":4582,"VD":4583,"vent":4584,"unid":4585,"ĠalcanÃ§ou":4586,"iada":4587,"Ġficar":4588,"ĠGeorge":4589,"Ġespeci":4590,"uÃŃ":4591,"Ġnavios":4592,"Ġdepe":4593,"Ġinternacionais":4594,"imas":4595,"ismos":4596,"Ġcoisas":4597,"ĠHÃ¡":4598,"uros":4599,"mu":4600,"SP":4601,"Ġfru":4602,"Ġestrelas":4603,"ĠCatÃ³":4604,"estra":4605,"Ġproposta":4606,"ĠBahia":4607,"eiÃ§Ã£o":4608,"ĠCatar":4609,"Ġanunciado":4610,"Ġfazem":4611,"Ġhum":4612,"Ġpequenos":4613,"ĠCou":4614,"cidos":4615,"SÃ£o":4616,"Ġdesempenho":4617,"24":4618,"Ġcla":4619,"itais":4620,"21":4621,"ÃŃdia":4622,"ĠpolÃŃcia":4623,"ĠComissÃ£o":4624,"ĠsaÃŃda":4625,"ĠnÃºmeros":4626,"ansÃ£o":4627,"iki":4628,"ĠdifÃŃcil":4629,"eroporto":4630,"vÃ£o":4631,"tale":4632,"ester":4633,"Ġajudar":4634,"Ġadm":4635,"Ġconsider":4636,"ĠGr":4637,"emas":4638,"ĠDez":4639,"onte":4640,"Ġmanteve":4641,"ĠÃ¡lbuns":4642,"Ġlugares":4643,"Ġdetal":4644,"istir":4645,"Ġpersegu":4646,"Ġmadeira":4647,"Ġadvo":4648,"Ġplata":4649,"pul":4650,"ĠNeste":4651,"gin":4652,"ivas":4653,"tudo":4654,"ĠoperaÃ§Ãµes":4655,"Ġrecorde":4656,"Ġextrema":4657,"Ġaudi":4658,"Ã³rnia":4659,"gro":4660,"ĠAngeles":4661,"Ġseriam":4662,"Ġdaquele":4663,"ĠinstituiÃ§Ãµes":4664,"Ġtira":4665,"Ġdeixando":4666,"Ġdestes":4667,"yer":4668,"ĠoperaÃ§Ã£o":4669,"ĠmÃ¡qu":4670,"Apesar":4671,"ĠcÃ©lulas":4672,"questra":4673,"Ġesquerda":4674,"ĠTrans":4675,"gios":4676,"Ġcores":4677,"Ġpintura":4678,"So":4679,"ĠmÃ©dio":4680,"Ġchegada":4681,"Ġhumano":4682,"ĠFaculdade":4683,"80":4684,"\";":4685,"Ġ1985":4686,"tis":4687,"ĠAtualmente":4688,"Ġglo":4689,"ĠTele":4690,"ĠfÃ£s":4691,"ĠAma":4692,"ĠDar":4693,"Ġtex":4694,"Ġcasal":4695,"Ġacaba":4696,"Ne":4697,"postas":4698,"graf":4699,"ĠtÃ©cnicas":4700,"ardim":4701,"ĠmÃ©todo":4702,"ĠJulho":4703,"ĠbÃ¡s":4704,"ĠTr":4705,"ĠconstruÃŃda":4706,"Ġpers":4707,"ĠSerra":4708,"Ġbomb":4709,"ĠpalÃ¡cio":4710,"ls":4711,"icidade":4712,"Ġforn":4713,"iverso":4714,"burgo":4715,"Ġhumana":4716,"Ġmusicais":4717,"Ġtaxa":4718,"Ġcomuns":4719,"ĠprÃŃncipe":4720,"ĠexpressÃ£o":4721,"Ġliteratura":4722,"Ġintitulado":4723,"ĠIV":4724,"Segundo":4725,"ĠapresentaÃ§Ã£o":4726,"Ġrainha":4727,"ĠgeraÃ§Ã£o":4728,"Ġataques":4729,"ĠBern":4730,"ĠVit":4731,"fonso":4732,"anhia":4733,"ĠIsto":4734,"Ġfinais":4735,"Ġembar":4736,"Ġvest":4737,"Ġmetal":4738,"Ġdor":4739,"Ġliberdade":4740,"cy":4741,"Ġpopula":4742,"redo":4743,"ĠPas":4744,"cro":4745,"ĠpÃ¡g":4746,"Ġreino":4747,"nores":4748,"ĠIm":4749,"Ġvinte":4750,"Ġrealidade":4751,"Ã³rm":4752,"Ġencar":4753,"ĠbritÃ¢nico":4754,"Ġfreguesia":4755,"ĠnÃŃveis":4756,"ĠPaulista":4757,"Ġtranspor":4758,"ĠMelhor":4759,"ĠOutubro":4760,"Ġtransmit":4761,"Ã¨":4762,"ĠcrÃŃticos":4763,"ĠNov":4764,"ĠexpansÃ£o":4765,"Ġcontexto":4766,"umin":4767,"Ġconfro":4768,"Ġpaz":4769,"urs":4770,"Ġ1987":4771,"Ġ1930":4772,"Ġbrasileiros":4773,"ĠpublicaÃ§Ã£o":4774,"Ġautores":4775,"ĠoposiÃ§Ã£o":4776,"Ġcenas":4777,"ĠTro":4778,"ĠPl":4779,"ĠRecords":4780,"ĠVe":4781,"ĠprogramaÃ§Ã£o":4782,"enses":4783,"ĠWh":4784,"Ġmodelos":4785,"Ġfundo":4786,"ĠmunicÃŃpios":4787,"ĠprÃ³xima":4788,"ĠcomposiÃ§Ã£o":4789,"ÃŃr":4790,"line":4791,"Ġmascul":4792,"ĠCalifÃ³rnia":4793,"Ġsetor":4794,"Ġcomemo":4795,"ĠsÃ©":4796,"ĠDra":4797,"ike":4798,"Ġescrever":4799,"Ġretornou":4800,"ĠSetembro":4801,"ĠmÃ©dico":4802,"ield":4803,"tava":4804,"Ġnacionais":4805,"ĠDec":4806,"baix":4807,"Ġfronteira":4808,"ĠTre":4809,"Ġaument":4810,"Ġcomprimento":4811,"Ġestrela":4812,"ĠgravaÃ§Ã£o":4813,"Ġcomand":4814,"ĠOliveira":4815,"Ġvelho":4816,"Ġsejam":4817,"Ġobjetos":4818,"ĠextensÃ£o":4819,"ÃŃtulo":4820,"Ġsin":4821,"Ġmovimentos":4822,"Ġrua":4823,"ĠMilitar":4824,"Ġanteriormente":4825,"istia":4826,"ionalmente":4827,"itando":4828,"Ġletras":4829,"ÃŃss":4830,"Ġpartidas":4831,"ĠBi":4832,"ĠNesse":4833,"Ã§ou":4834,"Ġaproxima":4835,"Ġjornalista":4836,"Ġsug":4837,"Ġproduzir":4838,"tropolita":4839,"Ã©rios":4840,"uls":4841,"ĠBre":4842,"Ġpsic":4843,"ĠcomeÃ§o":4844,"Ġprocessos":4845,"Ġescala":4846,"Ġitaliano":4847,"yn":4848,"Ġtentou":4849,"ĠPan":4850,"Ġdiplo":4851,"ĠTor":4852,"ĠcarÃ¡":4853,"MA":4854,"ĠStar":4855,"eitura":4856,"ĠPi":4857,"Ġpedido":4858,"Ġvin":4859,"Ġtroca":4860,"ĠFrank":4861,"ĠligaÃ§Ã£o":4862,"Ġcompree":4863,"Ġnaquele":4864,"ĠÃ¡ra":4865,"Ġbranco":4866,"Ġutilizada":4867,"Ġindustrial":4868,"ĠCongresso":4869,"Ġdizer":4870,"ĠlÃŃnguas":4871,"Ġimpa":4872,"deus":4873,"Car":4874,"Ġredes":4875,"Ġ180":4876,"Ġqueria":4877,"Ġdessas":4878,"ĠFerro":4879,"ĠKo":4880,"erta":4881,"Ġcru":4882,"Ġindica":4883,"isf":4884,"Ġmatem":4885,"Ġsobreviv":4886,"americano":4887,"ĠÂ«":4888,"bat":4889,"izando":4890,"ĠPre":4891,"ĠTrabal":4892,"Ġdelas":4893,"mann":4894,"Ġganha":4895,"Ġestadunid":4896,"Ġmistura":4897,"Ġgovern":4898,"lÃ¢nt":4899,"ĠRua":4900,"Ġexter":4901,"Ġconforme":4902,"ĠTribunal":4903,"ĠrÃ¡p":4904,"isse":4905,"Ġ1982":4906,"Ġretorno":4907,"rena":4908,"ingles":4909,"ui":4910,"Ġjus":4911,"Ġlinguagem":4912,"Ġbispo":4913,"ĠfundaÃ§Ã£o":4914,"Ġmenores":4915,"Ġposse":4916,"zar":4917,"ach":4918,"Ġamericana":4919,"BA":4920,"ĠGuil":4921,"Ġfas":4922,"Ġcursos":4923,"ville":4924,"Ġpaul":4925,"ĠfÃŃsica":4926,"adura":4927,"Ġcontato":4928,"Ġapresentar":4929,"Ġgaro":4930,"Ġmanu":4931,"Ġsofreu":4932,"rome":4933,"Ġvege":4934,"Ġles":4935,"ĠnotÃŃ":4936,"Ġviaj":4937,"blioteca":4938,"ĠverÃ£o":4939,"Ġultra":4940,"ĠVar":4941,"Esta":4942,"ĠprÃ³prios":4943,"Jo":4944,"Ġrevol":4945,"Ġsurgiu":4946,"Ġcontempor":4947,"lama":4948,"Ã©rea":4949,"ĠAntÃ³nio":4950,"ĠTeatro":4951,"Ġresto":4952,"ision":4953,"venida":4954,"ĠJunho":4955,"Ġmateriais":4956,"Ġlat":4957,"Ã©rias":4958,"Ro":4959,"deia":4960,"ĠindependÃªncia":4961,"ivel":4962,"Ġapresentado":4963,"Ġformar":4964,"enso":4965,"Ġfale":4966,"ĠVo":4967,"Ġbel":4968,"ye":4969,"ĠprincÃŃpio":4970,"ĠreligiÃ£o":4971,"ĠmemÃ³ria":4972,"Ġqueda":4973,"ressÃ£o":4974,"Ġfamoso":4975,"Ġdigital":4976,"Ġdan":4977,"Ġfogo":4978,"Ġconvo":4979,"amp":4980,"guai":4981,"ĠFel":4982,"ulada":4983,"Ġnovela":4984,"Ġsala":4985,"Ġfundamental":4986,"Ġnessa":4987,"ĠmÃŃn":4988,"Ġclima":4989,"Ġpropriet":4990,"Ġessen":4991,"Ġmorto":4992,"ĠMarÃ§o":4993,"Ġfrancesa":4994,"ÃŃdio":4995,"ĠLiber":4996,"Ġprofissionais":4997,"Ã´metros":4998,"ĠconteÃºdo":4999,"ĠindÃŃg":5000,"olÃ³gicos":5001,"Ġrival":5002,"ĠresistÃªncia":5003,"Ġdefini":5004,"ĠBatalha":5005,"Ġpergu":5006,"tÃ³ria":5007,"deres":5008,"Ġvoltar":5009,"ĠCivil":5010,"Ġmunicipal":5011,"Ġconde":5012,"Ġambas":5013,"Ġcrise":5014,"Ġpassag":5015,"lamento":5016,"ĠPrÃªmio":5017,"ĠAwards":5018,"Ġrej":5019,"Ġadequ":5020,"Ġment":5021,"ĠCompanhia":5022,"ĠJustiÃ§a":5023,"Ġshows":5024,"Ġsimplesmente":5025,"adeiro":5026,"ĠalemÃ£es":5027,"tidos":5028,"Ġformada":5029,"igna":5030,"Ġimpla":5031,"ĠAmaz":5032,"ĠindivÃŃduos":5033,"Ġherd":5034,"ĠDi":5035,"Ġpossibilidade":5036,"27":5037,"ĠContudo":5038,"Ġtornaram":5039,"ĠCatÃ³lica":5040,"ĠEstes":5041,"Desde":5042,"Ġconseguir":5043,"Ġescolha":5044,"ĠcrianÃ§a":5045,"ntÃ£o":5046,"ĠAssembleia":5047,"Ġlevar":5048,"Ġagric":5049,"Ġreinado":5050,"Ġleis":5051,"cund":5052,"bes":5053,"mico":5054,"Ġvendas":5055,"Ġbaseada":5056,"pole":5057,"iados":5058,"Ġpublicada":5059,"ĠRock":5060,"Ġatuou":5061,"Ġcomportamento":5062,"rista":5063,"Ġarma":5064,"Ġlevando":5065,"ĠDVD":5066,"Ġcamp":5067,"ĠEstad":5068,"Ġgrau":5069,"Ã§ada":5070,"nais":5071,"Ġterem":5072,"28":5073,"Ġ1979":5074,"ĠNovembro":5075,"Ġperforma":5076,"comp":5077,"Ġsexual":5078,"estru":5079,"ĠSÃ©rie":5080,"Ġopin":5081,"istÃ£o":5082,"Ġficando":5083,"Ġplantas":5084,"Ġsuficiente":5085,"ĠDivisÃ£o":5086,"Ġobjeto":5087,"Ġ35":5088,"ĠPaÃŃs":5089,"Ġ1974":5090,"Ġcandidato":5091,"ĠTour":5092,"logia":5093,"Ġsuger":5094,"Ġadquiri":5095,"ĠSele":5096,"Ġvil":5097,"ĠIsabel":5098,"Ba":5099,"Ġsuced":5100,"Ġrisco":5101,"ĠquestÃµes":5102,"Ġespeciais":5103,"ĠtransmissÃ£o":5104,"Ġconstruir":5105,"ĠOlÃŃmp":5106,"ĠgestÃ£o":5107,"Ġ1984":5108,"Ã©ticos":5109,"alh":5110,"Ġquarta":5111,"chos":5112,"Ġplanos":5113,"Ġdimens":5114,"Ġrealmente":5115,"Ġmonar":5116,"Ġtrono":5117,"ĠCer":5118,"ĠestÃ¡dio":5119,"Ġpot":5120,"ĠocasiÃ£o":5121,"nÃ£o":5122,"ĠEstu":5123,"Ġcompositor":5124,"Ġestudantes":5125,"26":5126,"Ġadol":5127,"ponsa":5128,"ĠVas":5129,"Ġ1983":5130,"vera":5131,"Ġganhar":5132,"Ġcoorden":5133,"Ġviu":5134,"Ġmortos":5135,"Ġ=":5136,"Ġportugueses":5137,"cola":5138,"olis":5139,"TA":5140,"Ġjogar":5141,"izadas":5142,"Ġconsegue":5143,"ĠEduardo":5144,"ĠvÃ£o":5145,"grejas":5146,"ĠcondiÃ§Ã£o":5147,"olÃ³gicas":5148,"ĠRevoluÃ§Ã£o":5149,"Ġparc":5150,"Ġaqueles":5151,"Ġros":5152,"Ġcerto":5153,"ĠEducaÃ§Ã£o":5154,"ĠMul":5155,"peraÃ§Ã£o":5156,"Ġreconhecimento":5157,"Ġnaturais":5158,"Ġcompa":5159,"Ġtopo":5160,"Ġemo":5161,"lva":5162,"Su":5163,"Ġ1975":5164,"Ġlemb":5165,"Ã´nimo":5166,"Ġcomerciais":5167,"cadas":5168,"ocl":5169,"ĠAgosto":5170,"Ġtrilha":5171,"ĠAlegre":5172,"Ġclara":5173,"Ġchegaram":5174,"Ġformou":5175,"Ġexterior":5176,"Ġsecund":5177,"nambu":5178,"Ġperda":5179,"Ġpatro":5180,"Ġcober":5181,"ĠpÃºblicos":5182,"Ġpedra":5183,"volucion":5184,"rÃµes":5185,"Ġserviu":5186,"Ġfesta":5187,"Ġimple":5188,"ĠJose":5189,"ĠConstant":5190,"Ġreforma":5191,"plas":5192,"Ã³i":5193,"ÃŃbl":5194,"ariam":5195,"Ã¢ndia":5196,"ĠcatÃ³l":5197,"tera":5198,"Ġcomplexo":5199,"Ġfeitos":5200,"Ġmagn":5201,"ĠRic":5202,"Ġdireita":5203,"lex":5204,"Ġalu":5205,"Ġfazia":5206,"Ġmeios":5207,"ĠMarc":5208,"Åį":5209,"Ġchamados":5210,"ĠdÃ©ci":5211,"Ġ1940":5212,"Ġpropriedades":5213,"Ġatingiu":5214,"Ġintelig":5215,"Mu":5216,"ĠexposiÃ§Ã£o":5217,"Ġilhas":5218,"Ġconserv":5219,"ĠDemoc":5220,"qÃ¼":5221,"ĠNic":5222,"Ġsangue":5223,"Ra":5224,"Ġcompon":5225,"cara":5226,"ificada":5227,"iocese":5228,"Ġsonora":5229,"Ġautoridades":5230,"mith":5231,"Ġcompu":5232,"Ġ500":5233,"ndimento":5234,"Ġcritic":5235,"itoral":5236,"Ġvend":5237,"Ġcampos":5238,"inada":5239,"itÃ¡ria":5240,"ĠCharles":5241,"todos":5242,"Ġencontrado":5243,"ĠPalÃ¡cio":5244,"Ġy":5245,"ĠdanÃ§a":5246,"Ġplaneta":5247,"Ã¢neo":5248,"Ġpec":5249,"Ġsof":5250,"ussÃ£o":5251,"ĠParque":5252,"Ġsaber":5253,"ximo":5254,"Ġtend":5255,"Ġdentre":5256,"Ġarmaz":5257,"ĠRoberto":5258,"Ġhom":5259,"ER":5260,"ĠPereira":5261,"ĠvÃ¡l":5262,"Ġvul":5263,"CO":5264,"Ġimpress":5265,"ĠatuaÃ§Ã£o":5266,"tain":5267,"ĠPrin":5268,"Ġfoss":5269,"Ġren":5270,"Ġtu":5271,"Ġchegando":5272,"ĠParanÃ¡":5273,"Ã¡dio":5274,"Algu":5275,"Ġacres":5276,"Ġmulti":5277,"Ġpalco":5278,"Ġfir":5279,"Ġ)":5280,"Ġapel":5281,"unt":5282,"Ġpreso":5283,"ĠLuiz":5284,"rup":5285,"ĠProf":5286,"Ġambient":5287,"ctor":5288,"encial":5289,"Ã§ul":5290,"cau":5291,"ĠIsrael":5292,"ĠTu":5293,"Ġ1978":5294,"ther":5295,"Ġpopulares":5296,"Ġsaiu":5297,"Ġhaver":5298,"Ġacidente":5299,"Ġideias":5300,"Ġfilosofia":5301,"Ġfortale":5302,"Ġpeso":5303,"ĠVan":5304,"bilidades":5305,"ĠConstituiÃ§Ã£o":5306,"cula":5307,"Ġdesenvolvido":5308,"Ġconsum":5309,"Ġredor":5310,"Ġdesenvolver":5311,"Ġcastelo":5312,"Americ":5313,"Ã³f":5314,"ĠFin":5315,"Ġexpa":5316,"ĠMich":5317,"Ãºlio":5318,"Ġproce":5319,"Ġcontou":5320,"ĠSeus":5321,"aix":5322,"ĠÃ¡guas":5323,"ĠTec":5324,"ĠCatarina":5325,"ĠLima":5326,"yl":5327,"ĠHam":5328,"cher":5329,"riam":5330,"bit":5331,"Ġfes":5332,"Ġenorme":5333,"erem":5334,"Ġfortes":5335,"ĠAfonso":5336,"ĠDisney":5337,"Ġjuntos":5338,"Ġliter":5339,"cipl":5340,"gaÃ§Ãµes":5341,"Ġescal":5342,"Ġconv":5343,"ĠSalvador":5344,"Ã³polis":5345,"ritos":5346,"Ġparque":5347,"Ġpun":5348,"dora":5349,"ĠrealizaÃ§Ã£o":5350,"Ġresponsa":5351,"ban":5352,"olos":5353,"ĠDezembro":5354,"Ġsag":5355,"tero":5356,"Ġpiloto":5357,"ĠClub":5358,"ĠpÃºblicas":5359,"Ġnobre":5360,"age":5361,"ore":5362,"ĠSociedade":5363,"70":5364,"Ġbandas":5365,"196":5366,"Ġdada":5367,"Ġconsul":5368,"ĠquilÃ´metros":5369,"ĠSÃŃ":5370,"entre":5371,"ĠvÃª":5372,"Ġvolume":5373,"ĠnÃ³s":5374,"Ġaberto":5375,"Ġrom":5376,"Ġcomandante":5377,"29":5378,"Ġpotencial":5379,"IA":5380,"ĠciÃªncia":5381,"Ġpassageiros":5382,"Ġvenda":5383,"ĠCultura":5384,"grÃ¡fica":5385,"ĠMiss":5386,"ife":5387,"Ġhidro":5388,"onna":5389,"ĠCaval":5390,"ĠFla":5391,"Ġassinou":5392,"Ġcapela":5393,"ĠtÃŃp":5394,"ĠHan":5395,"Ã³logo":5396,"Ġnarra":5397,"fÃ©":5398,"Ġconcorre":5399,"Ġselecion":5400,"Ġ1973":5401,"pest":5402,"istente":5403,"Ġlate":5404,"ioso":5405,"Ġciclo":5406,"imb":5407,"ioca":5408,"Ġnucle":5409,"naval":5410,"tÃ©ria":5411,"ciaÃ§Ãµes":5412,"ÃŃmica":5413,"Ġregras":5414,"Ġsegue":5415,"Ġetapa":5416,"ĠAlexandre":5417,"Ġpoderes":5418,"Ġabsol":5419,"Ġhospital":5420,"ĠRichard":5421,"hÃ£":5422,"Ġexped":5423,"ĠJean":5424,"NÃ£o":5425,"Ġaus":5426,"Ġbreve":5427,"igrantes":5428,"Ġantigas":5429,"cont":5430,"Ġ1976":5431,"ji":5432,"Ġconsequ":5433,"ĠPortuguesa":5434,"ĠOutros":5435,"Ġbe":5436,"Ġruas":5437,"ĠfÃ¡br":5438,"Ġviver":5439,"Ġtrou":5440,"Ġbeb":5441,"Eu":5442,"Ġgravadora":5443,"Ġcusto":5444,"Ġ1964":5445,"Ġtradicionais":5446,"cÃ£o":5447,"urg":5448,"mem":5449,"Ġacess":5450,"ĠOuro":5451,"presidente":5452,"ftware":5453,"Ġimediatamente":5454,"herme":5455,"cor":5456,"Ġchamou":5457,"FC":5458,"Ġaborda":5459,"Ġficaram":5460,"ĠEstadual":5461,"Ġingress":5462,"Ġcente":5463,"Ġ1969":5464,"Ġato":5465,"Ġsair":5466,"Ġdisposi":5467,"ĠlideranÃ§a":5468,"Ġdesenvolveu":5469,"Ġutilizados":5470,"Ġministro":5471,"pressÃ£o":5472,"tinho":5473,"ÃŃnas":5474,"Ġtoma":5475,"Ġentretanto":5476,"Ġaceita":5477,"Ġ1968":5478,"Ġsobretudo":5479,"Ġfinan":5480,"timas":5481,"Ġhora":5482,"ĠHos":5483,"Ġfossem":5484,"Ġplan":5485,"ivelmente":5486,"rinhos":5487,"ĠLeg":5488,"ashington":5489,"ĠlÃŃderes":5490,"ĠXVIII":5491,"ath":5492,"ĠThomas":5493,"wer":5494,"envol":5495,"ecido":5496,"Ġvariedade":5497,"Ã¢mica":5498,"Ġmoderna":5499,"ĠcapitÃ£o":5500,"45":5501,"enÃ§as":5502,"pt":5503,"ĠrecÃ©m":5504,"ĠSeleÃ§Ã£o":5505,"ĠDaniel":5506,"Gra":5507,"Ġ#":5508,"Ġconced":5509,"ĠeconÃ´mica":5510,"ĠdiferenÃ§a":5511,"Ã¡cia":5512,"eliz":5513,"Da":5514,"ĠcientÃŃfica":5515,"Ġmeta":5516,"ics":5517,"Ġtentar":5518,"Ġcoment":5519,"ĠmÃŃdia":5520,"licaÃ§Ã£o":5521,"Ġconsci":5522,"Ġobserva":5523,"ĠevoluÃ§Ã£o":5524,"ĠproteÃ§Ã£o":5525,"Ġencontrados":5526,"Ġbizant":5527,"Ġang":5528,"ĠcenÃ¡rio":5529,"pion":5530,"ĠQ":5531,"ĠVale":5532,"usta":5533,"Ġdocument":5534,"valho":5535,"bela":5536,"ĠpÃ©":5537,"Ġporto":5538,"Ġrecebido":5539,"Ġsexo":5540,"ĠCiÃªncias":5541,"istiu":5542,"Ġapresentam":5543,"ĠEstra":5544,"Ġarque":5545,"eros":5546,"idor":5547,"Ã³rmula":5548,"Ġdeslo":5549,"ĠsubstituÃŃdo":5550,"Ġpredo":5551,"ĠEgito":5552,"Ġromanos":5553,"Ãªmios":5554,"ĠÃģsia":5555,"tone":5556,"ĠScho":5557,"ĠAqu":5558,"Este":5559,"Ġconsol":5560,"Ġ1981":5561,"Ġevid":5562,"Ġaspectos":5563,"ĠinvasÃ£o":5564,"Ġarquitetura":5565,"Ġtreinador":5566,"Ġcab":5567,",\"":5568,"ĠpossuÃŃa":5569,"bio":5570,"Ġenvia":5571,"Ġrel":5572,"ualmente":5573,"ĠLeon":5574,"ĠAf":5575,"ĠArt":5576,"Ġrelativamente":5577,"ĠmÃº":5578,"Ġdiscu":5579,"Ã³gica":5580,"dica":5581,"yd":5582,"Ġpap":5583,"Ġfis":5584,"ĠPÃºbl":5585,"itz":5586,"ket":5587,"americana":5588,"ĠCle":5589,"Ġbandeira":5590,"Ġprol":5591,"Ġestruturas":5592,"Ġparticularmente":5593,"Ġvira":5594,"ceb":5595,"Ġinferior":5596,"Ġsente":5597,"inalmente":5598,"vados":5599,"tein":5600,"Ġtomou":5601,"Ġvoo":5602,"ĠterritÃ³rios":5603,"Ġdesconhec":5604,"Ġtrata":5605,"Ġnormal":5606,"Ġtomar":5607,"Ġcerta":5608,"Ġcompleta":5609,"Ġdista":5610,"uso":5611,"Ġequival":5612,"ĠSoviÃ©tica":5613,"ĠcoleÃ§Ã£o":5614,"Ġplanta":5615,"ĠMac":5616,"ces":5617,"En":5618,"ĠLove":5619,"jor":5620,"arte":5621,"Ãºr":5622,"peÃ£o":5623,"Ġexti":5624,"xic":5625,"Ġidentidade":5626,"Ġdrama":5627,"ĠMara":5628,"Ġnatal":5629,"ĠPS":5630,"ĠfrequÃªncia":5631,"Ġescolhido":5632,"ister":5633,"ibus":5634,"ĠInf":5635,"ĠnÃºcleo":5636,"ĠArm":5637,"Ġcho":5638,"Ġcoro":5639,"Ġcorrida":5640,"Ġmesmos":5641,"irou":5642,"istema":5643,"Ġdesaf":5644,"ouco":5645,"vou":5646,"letas":5647,"Ġmec":5648,"ĠveÃŃculos":5649,"Ass":5650,"hares":5651,"Ġtitular":5652,"ĠacadÃªm":5653,"inamento":5654,"Ġreto":5655,"Ġpovos":5656,"Ġcrimin":5657,"rava":5658,"ĠSem":5659,"marca":5660,"Ġdesf":5661,"PS":5662,"ĠutilizaÃ§Ã£o":5663,"icialmente":5664,"ars":5665,"Ġrecome":5666,"</":5667,"DB":5668,"ĠPad":5669,"ĠCastelo":5670,"ĠsoluÃ§Ã£o":5671,"ĠMy":5672,"Ġtrabalhadores":5673,"ĠRob":5674,"Ġdecorre":5675,"Ġrelacionamento":5676,"Ġtrouxe":5677,"Ġcolocado":5678,"vadas":5679,"iso":5680,"ĠtÃ©r":5681,"Ġpediu":5682,"ĠgraÃ§as":5683,"Ġrealizadas":5684,"ĠCity":5685,"ĠLet":5686,"Ġelabo":5687,"Ġestrel":5688,"Ġestil":5689,"90":5690,"Ġnumer":5691,"Ġfundador":5692,"ĠAtÃ©":5693,"Ġsimb":5694,"ĠConstantino":5695,"ĠcÃ³digo":5696,"gÃ£os":5697,"ĠduraÃ§Ã£o":5698,"Ġprima":5699,"iti":5700,"ĠArqu":5701,"Ġdeixa":5702,"isp":5703,"ÂłÂł":5704,"35":5705,"EC":5706,"uto":5707,"pass":5708,"Ġjudeus":5709,"Ġgrego":5710,"ĠVitÃ³ria":5711,"Ġdescoberta":5712,"xos":5713,"Cas":5714,"formou":5715,"ĠexecuÃ§Ã£o":5716,"ĠMach":5717,"ĠBon":5718,"Ãªnd":5719,"Ġ1977":5720,"ĠviolÃªncia":5721,"Ġvant":5722,"hat":5723,"Ġadquir":5724,"ĠCel":5725,"Ġvale":5726,"alto":5727,"Ġestrada":5728,"Tra":5729,"cad":5730,"ÃŃsticos":5731,"Ġ1972":5732,"Ġpraticamente":5733,"Ġencontrou":5734,"Ġafric":5735,"Lo":5736,"ĠVI":5737,"Ġtraduz":5738,"ĠHistÃ³ria":5739,"Ġpromover":5740,"Ġestabeleceu":5741,"Ġfranceses":5742,"Ġlonge":5743,"ĠCorpo":5744,"Ġves":5745,"ĠPes":5746,"ĠcÃ¢":5747,"Ġfar":5748,"Ġ1945":5749,"ĠedifÃŃcios":5750,"ĠcarÃ¡ter":5751,"ĠediÃ§Ãµes":5752,"vais":5753,"ĠSÃ©r":5754,"Ġress":5755,"ĠdefiniÃ§Ã£o":5756,"inados":5757,"Ġpesquisas":5758,"Ġdocumentos":5759,"ĠWashington":5760,"ĠFundaÃ§Ã£o":5761,"ĠjurÃŃd":5762,"Ġpapa":5763,"Ġmecan":5764,"ĠposiÃ§Ãµes":5765,"ĠvitÃ³rias":5766,"Ġsedi":5767,"ĠSco":5768,"tern":5769,"Ġreconstru":5770,"ĠAtlÃ¢nt":5771,"Ã³veis":5772,"Ġencontro":5773,"Ġconclus":5774,"Ġ1967":5775,"ĠDistrito":5776,"Ġfaze":5777,"Ġmudar":5778,"Ġprata":5779,"Ġaumentar":5780,"Ġbenef":5781,"Ġmotivo":5782,"ografia":5783,"Ġmuseu":5784,"ĠBlack":5785,"Ġestadunidense":5786,"ĠCul":5787,"ĠLogo":5788,"Ġdescend":5789,"Ġadvers":5790,"Ġ1920":5791,"Ġarran":5792,"Ġgere":5793,"itados":5794,"ĠGom":5795,"ilha":5796,"Ġartilh":5797,"Ġadic":5798,"Ġpoderiam":5799,"Ġgolpe":5800,"Ġmedidas":5801,"unes":5802,"Ġpossibil":5803,"Po":5804,"Ġassina":5805,"ĠdisponÃŃvel":5806,"Ġdro":5807,"ĠRus":5808,"ĠDon":5809,"Ġnascimento":5810,"ĠOf":5811,"ĠCri":5812,"ĠnegÃ³cios":5813,"inastia":5814,"Ġculturais":5815,"entou":5816,"Ġtemplo":5817,"Ġconsiderados":5818,"ĠresidÃªncia":5819,"ĠFerreira":5820,"Ã´nicos":5821,"ĠaudiÃªncia":5822,"Ġocidental":5823,"ĠcolocaÃ§Ã£o":5824,"ĠArtes":5825,"Ġmonu":5826,"Ġdesenho":5827,"Ġur":5828,"ĠJoa":5829,"ĠColÃ©gio":5830,"ĠGuilherme":5831,"Ġquinto":5832,"Ġferra":5833,"ĠWest":5834,"):":5835,"Ġcima":5836,"usa":5837,"ĠInc":5838,"Ġcarre":5839,"ĠinvestigaÃ§Ã£o":5840,"ĠmuÃ§ul":5841,"AR":5842,"metros":5843,"utador":5844,"Ġtermina":5845,"ĠfenÃ´me":5846,"Ã©sar":5847,"ĠaplicaÃ§Ã£o":5848,"ĠbritÃ¢nica":5849,"ÃŃficos":5850,"Ġrodada":5851,"ĠFar":5852,"Ġsupera":5853,"OS":5854,"Ġinvad":5855,"tador":5856,"Ġquadro":5857,"Ġras":5858,"Ġcicl":5859,"Sua":5860,"ĠRed":5861,"Ġcategorias":5862,"Ġpermitiu":5863,"ĠrepresentaÃ§Ã£o":5864,"Ġazul":5865,"Ġdens":5866,"ĠAugusto":5867,"ardas":5868,"ĠfuncionÃ¡rios":5869,"Mo":5870,"ĠEcon":5871,"ÃŃna":5872,"ĠestaÃ§Ãµes":5873,"Ġsimilar":5874,"ĠAntonio":5875,"Ġfundado":5876,"Ġatuais":5877,"Ġorg":5878,"Ġcoisa":5879,"Ġcem":5880,"ĠXVI":5881,"Ġgravado":5882,"Ġinscri":5883,"Ġques":5884,"kin":5885,"rÃ©s":5886,"ĠSt":5887,"ĠTar":5888,"An":5889,"Ġtropical":5890,"ĠFI":5891,"emos":5892,"Ġmad":5893,"Ġdificuldades":5894,"mano":5895,"Ġrios":5896,"ĠusuÃ¡rios":5897,"Ġespiri":5898,"ĠDef":5899,"ĠSara":5900,"rey":5901,"ĠCastro":5902,"Ġaqui":5903,"sex":5904,"nowiki":5905,"ĠQue":5906,"Ġartigos":5907,"ĠFevereiro":5908,"Ġden":5909,"Ãªnt":5910,"Ġmedia":5911,"Ġdin":5912,"idar":5913,"Ġplanej":5914,"ĠcaracterÃŃstica":5915,"toria":5916,"ĠorganizaÃ§Ãµes":5917,"Ġanual":5918,"ÃŃam":5919,"Ġmicro":5920,"pop":5921,"ĠNet":5922,"ouse":5923,"ĠChrist":5924,"Ã¤":5925,"ĠRegiÃ£o":5926,"Ġexibido":5927,"ĠinfÃ¢ncia":5928,"Ġproduzida":5929,"Ã³nia":5930,"olf":5931,"ĠFlo":5932,"Ġseguiu":5933,"ĠDepartamento":5934,"Embora":5935,"Ġ1971":5936,"Ã©ria":5937,"ĠocupaÃ§Ã£o":5938,"Ġromano":5939,"ĠprÃ³prias":5940,"ĠCara":5941,"Ġprem":5942,"Ġrevelou":5943,"Ġpreocupa":5944,"Ġreligiosa":5945,"Ġsam":5946,"Ġtenham":5947,"ronze":5948,"Ġelemento":5949,"ĠtrÃ¡s":5950,"Ġtratado":5951,"Ġprofund":5952,"Ġtemporadas":5953,"chi":5954,"lad":5955,"Ġjogou":5956,"Ġprefer":5957,"Ġescravos":5958,"ĠterÃ¡":5959,"Ġigrejas":5960,"Ġautoridade":5961,"ĠConde":5962,"Ã©ries":5963,"Ġ1966":5964,"Ġoriginais":5965,"Ġconcelho":5966,"Ġinstrumentos":5967,"ĠmÃ©todos":5968,"Ġpodendo":5969,"ĠAir":5970,"ĠRÃ¡dio":5971,"estrutura":5972,"Ġextremamente":5973,"ivis":5974,"Ġceleb":5975,"Ġroteiro":5976,"ĠArte":5977,"Ġfatores":5978,"ĠGer":5979,"Ġconcurso":5980,"ificados":5981,"tte":5982,"Ġpaulista":5983,"ose":5984,"ĠBanco":5985,"Ġvencer":5986,"Ġcurta":5987,"Ġolhos":5988,"Ġsuj":5989,"Ġestudou":5990,"ntertain":5991,"Ġeuropeus":5992,"37":5993,"Ġescul":5994,"Ã¡stica":5995,"ĠgÃ¡s":5996,"Ġtom":5997,"Ġ2020":5998,"Ġconsecu":5999,"Ġponte":6000,"ĠAz":6001,"bus":6002,"ĠCO":6003,"Ġrecentemente":6004,"ann":6005,"Te":6006,"Ġtransform":6007,"Ġpreju":6008,"Ġtextos":6009,"Gu":6010,"Me":6011,"ÃŃzes":6012,"Ã³rico":6013,"ĠmÃ¡ximo":6014,"Ġ45":6015,"ĠprÃ©dio":6016,"inga":6017,"Ġanim":6018,"ĠCampo":6019,"Ġdestaca":6020,"oul":6021,"Ġfran":6022,"Ġdestas":6023,"ĠGomes":6024,"ĠAdminist":6025,"ificou":6026,"Ġatingir":6027,"Ãªx":6028,"Ġatmos":6029,"Ġpropa":6030,"Ġestudar":6031,"ĠSaÃºde":6032,"Bill":6033,"iago":6034,"IS":6035,"Ġsupor":6036,"Ġestima":6037,"48":6038,"Ġvon":6039,"ntertainment":6040,"ĠÃģustria":6041,"ĠclÃ¡ssico":6042,"ĠFilho":6043,"Ġmedalha":6044,"ĠintenÃ§Ã£o":6045,"Ġbater":6046,"ĠAntes":6047,"Ġsovi":6048,"Ġconhecidas":6049,"well":6050,"Ġaltitude":6051,"Ġmuita":6052,"hal":6053,"ĠMira":6054,"ĠTodos":6055,"deste":6056,"inato":6057,"ĠcristÃ£os":6058,"Ġequipamentos":6059,"Ġbanco":6060,"tron":6061,"mÃ¡tica":6062,"Ġinfra":6063,"ntam":6064,"ĠSmith":6065,"Ġdescreveu":6066,"Ġdestino":6067,"chu":6068,"ĠprincÃŃpios":6069,"Ġconcord":6070,"Ġanuncia":6071,"Ã³tes":6072,"ĠNatal":6073,"minante":6074,"ĠmatÃ©ria":6075,"gor":6076,"ĠNaÃ§Ãµes":6077,"ct":6078,"landa":6079,"Ġ1962":6080,"ouro":6081,"Ġensa":6082,"Ġmestre":6083,"ÃŃde":6084,"ires":6085,"ĠBlo":6086,"Ġidio":6087,"Ġguarda":6088,"Ġintelec":6089,"ĠsatÃ©l":6090,"ĠBarb":6091,"Ġilustra":6092,"Ġfundou":6093,"ĠCro":6094,"Par":6095,"Ġmerc":6096,"itÃª":6097,"ĠcoraÃ§Ã£o":6098,"tedral":6099,"culas":6100,"Ġcomunidades":6101,"Ġterreno":6102,"ĠWa":6103,"ĠrÃ¡pido":6104,"Ġperder":6105,"rosso":6106,"tÃ¢ncias":6107,"itch":6108,"Ġ1965":6109,"ustralia":6110,"Ġcro":6111,"Ġletra":6112,"pendentes":6113,"Ġcorrente":6114,"Ġverdadeira":6115,"Ġtempest":6116,"ĠameaÃ§a":6117,"Ġcarga":6118,"Ġanti":6119,"ĠLea":6120,"ĠMarinha":6121,"Ġrodo":6122,"Ġprojec":6123,"Ġajud":6124,"ĠCorre":6125,"Ġemerg":6126,"ĠIlha":6127,"tiram":6128,"Ġcompra":6129,"ĠPernambu":6130,"Ġvaga":6131,"ĠEspe":6132,"Ġexpor":6133,"Ġdisputou":6134,"ĠFam":6135,"Ġ$":6136,"Ġeditor":6137,"ĠSchool":6138,"Ġfins":6139,"ĠHall":6140,"Ġ150":6141,"cep":6142,"elh":6143,"erar":6144,"ium":6145,"Ġtalvez":6146,"rÃ©cia":6147,"ĠSuperior":6148,"roso":6149,"RA":6150,"ĠOrgan":6151,"Ġvencedor":6152,"Ġoportunidade":6153,"ĠCarvalho":6154,"ĠCir":6155,"ĠBos":6156,"ĠmilhÃ£o":6157,"ĠCarol":6158,"ĠCÃ©sar":6159,"Ã©lio":6160,"Seu":6161,"nci":6162,"Ġcontudo":6163,"ĠeconÃ´mico":6164,"Ãºm":6165,"ĠreuniÃ£o":6166,"Ġajudou":6167,"ĠInterna":6168,"ĠRam":6169,"Ġassumir":6170,"ficamente":6171,"47":6172,"Ġevolu":6173,"ĠShow":6174,"Ġfiguras":6175,"chas":6176,"teis":6177,"ĠAla":6178,"any":6179,"Ġcrime":6180,"Ġtale":6181,"Ġefici":6182,"ĠAndrÃ©":6183,"Ġferrovi":6184,"Ġbrin":6185,"Ġbru":6186,"Ġpratic":6187,"Ġpercebe":6188,"ĠBlu":6189,"Ġfacto":6190,"tela":6191,"Ġtrip":6192,"Ġenviou":6193,"Ġpul":6194,"teriores":6195,"ĠsÃŃmbolo":6196,"Ġmuda":6197,"Ġacum":6198,"ĠCada":6199,"Ġisol":6200,"Ġassegu":6201,"ĠprÃªmios":6202,"Ġquinta":6203,"Ġmeia":6204,"tÃ¡veis":6205,"Ġtorre":6206,"Ġcompleto":6207,"ĠSenado":6208,"Ġpossa":6209,"ĠMesmo":6210,"Ġcontinuar":6211,"ĠInde":6212,"Ġpertence":6213,"Un":6214,"ĠLee":6215,"ĠRodrigues":6216,"Ãªnia":6217,"Ġapaix":6218,"Ġincent":6219,"Ã©cia":6220,"Ġimpacto":6221,"Ġoita":6222,"Ã§u":6223,"ult":6224,"Ġcomputador":6225,"Ġmag":6226,"Ġimperial":6227,"Ġ179":6228,"Ġreserva":6229,"ĠGonÃ§":6230,"ĠEstas":6231,"ÃŃba":6232,"mato":6233,"Ġsoci":6234,"nibus":6235,"tanha":6236,"ntando":6237,"Ġfilma":6238,"Ġcostuma":6239,"Ãºsica":6240,"Ġamericanos":6241,"Ġparticipantes":6242,"38":6243,"ĠKar":6244,"ĠVel":6245,"Ġpermitindo":6246,"Ġmostrou":6247,"undo":6248,"Ġgosta":6249,"ĠCome":6250,"Bo":6251,"Ġmito":6252,"Ġusadas":6253,"icina":6254,"ĠPic":6255,"Ġdoze":6256,"ĠBul":6257,"ĠBritÃ¢n":6258,"Ã¢m":6259,"ĠChampion":6260,"Ġbens":6261,"ÃŃns":6262,"âĢľ":6263,"ĠreaÃ§Ã£o":6264,"ÃŃficas":6265,"ĠRomano":6266,"El":6267,"yal":6268,"Ġnor":6269,"TP":6270,"55":6271,"Ġacompanha":6272,"ĠmantÃ©m":6273,"ĠFerna":6274,"ĠÃ´":6275,"Ġsolic":6276,"Ġmilhares":6277,"BS":6278,"Ġ1963":6279,"ters":6280,"Ġanimal":6281,"Ġjor":6282,"ĠCoreia":6283,"Ġequil":6284,"Ġgan":6285,"rupÃ§Ã£o":6286,"hu":6287,"ĠagrÃŃ":6288,"diÃ§Ãµes":6289,"ĠNu":6290,"36":6291,"ĠPolÃŃcia":6292,"Ġfeminino":6293,"Ġutiliza":6294,"ĠcidadÃ£os":6295,"ĠÂł":6296,"Ġjan":6297,"ificaÃ§Ãµes":6298,"Ġintegrantes":6299,"BT":6300,"ĠmanhÃ£":6301,"Ġconquist":6302,"Ġglobal":6303,"ĠHospital":6304,"cante":6305,"ĠDias":6306,"Ġoferece":6307,"leiro":6308,"deal":6309,"Ġ()":6310,"ĠdisponÃŃveis":6311,"ndado":6312,"vores":6313,"Ġaquele":6314,"Ġfalar":6315,"ĠalguÃ©m":6316,"ĠDevido":6317,"Ġtestes":6318,"ĠHot":6319,"grou":6320,"ĠOcidental":6321,"ĠDie":6322,"hns":6323,"ID":6324,"ĠFreder":6325,"Ġagricultura":6326,"ĠPlay":6327,"ĠGol":6328,"ĠAli":6329,"grafo":6330,"tente":6331,"ĠFederaÃ§Ã£o":6332,"Ġdoutr":6333,"Ġuniversidade":6334,"Ġjuntou":6335,"Ġordens":6336,"Ġrestri":6337,"Ġregistro":6338,"ĠinvÃ©s":6339,"rÃ¡ficos":6340,"Ġrit":6341,"Ġvio":6342,"Ġjoga":6343,"Ġclaro":6344,"ĠSebas":6345,"ÃŃnsula":6346,"ĠÃ³rgÃ£o":6347,"Ġutilizando":6348,"Ġestr":6349,"ĠJun":6350,"PA":6351,"Ġderrotado":6352,"ĠÃ¢mb":6353,"Ġseres":6354,"iosa":6355,"ĠPhil":6356,"ĠAlme":6357,"Ġfix":6358,"Ġreper":6359,"Ġnamo":6360,"Ġfrota":6361,"ĠBrasÃŃlia":6362,"ĠLar":6363,"gais":6364,"eda":6365,"ĠassociaÃ§Ã£o":6366,"Ġestabelecer":6367,"trem":6368,"ĠOriente":6369,"Ġeditora":6370,"iliares":6371,"logo":6372,"win":6373,"ek":6374,"Ġexcel":6375,"lÃ¢ndia":6376,"Ġplataforma":6377,"ĠCampos":6378,"Ġcarb":6379,"ontade":6380,"Ã³qu":6381,"Ġviria":6382,"Ġvendeu":6383,"ania":6384,"Ġtivesse":6385,"unas":6386,"icago":6387,"Ġseg":6388,"ĠirÃ¡":6389,"ĠPark":6390,"\":":6391,"izonte":6392,"Ġdeterminado":6393,"ĠRad":6394,"Ġpatrim":6395,"ĠClar":6396,"Ġcarros":6397,"Ġalfa":6398,"culaÃ§Ã£o":6399,"ĠinterpretaÃ§Ã£o":6400,"Ġinimigos":6401,"ĠJackson":6402,"ily":6403,"gico":6404,"zinho":6405,"ĠRog":6406,"Ġpion":6407,"Ġfrag":6408,"33":6409,"Ġcore":6410,"Ġprincesa":6411,"ĠserÃ£o":6412,"ĠdÃº":6413,"ĠEstre":6414,"Ġlago":6415,"Ã³vel":6416,"Ġterror":6417,"IC":6418,"sequ":6419,"meros":6420,"Ġrealizados":6421,"pi":6422,"ĠGoi":6423,"Ġviveu":6424,"ĠjaponÃªs":6425,"ĠPosteriormente":6426,"ĠmanutenÃ§Ã£o":6427,"ĠEnc":6428,"ĠGrÃ©cia":6429,"ĠAlberto":6430,"ĠCur":6431,"Ãªme":6432,"Ġconvidado":6433,"Ġjornais":6434,"aste":6435,"Ġpensamento":6436,"oroeste":6437,"ĠcolaboraÃ§Ã£o":6438,"Ġdefender":6439,"ĠZa":6440,"ÃŃtica":6441,"Ġcentros":6442,"Ġverde":6443,"Ġgravou":6444,"ĠIrlanda":6445,"HÃ¡":6446,"iversÃ¡rio":6447,"Ġox":6448,"Ġconheceu":6449,"ĠSousa":6450,"Ġproduziu":6451,"Ġdesenvolve":6452,"ĠadaptaÃ§Ã£o":6453,"ĠUru":6454,"Ġinser":6455,"of":6456,"ĠLatina":6457,"tipo":6458,"ission":6459,"Ã©rito":6460,"Ġmoradores":6461,"ĠexploraÃ§Ã£o":6462,"Ġderrotou":6463,"Ġ1961":6464,"ntaÃ§Ã£o":6465,"Ġformando":6466,"Ġatores":6467,"ĠAll":6468,"Ġsuporte":6469,"Ġ1958":6470,"Ġrusso":6471,"Ġdescobre":6472,"ĠesforÃ§os":6473,"Ġimigrantes":6474,"ĠServi":6475,"ĠMuitos":6476,"ĠDesenvol":6477,"eios":6478,"Ġpontu":6479,"ĠcÃ¡l":6480,"tn":6481,"tane":6482,"Ġ300":6483,"tions":6484,"ĠprÃ³ximos":6485,"Ġmargem":6486,"Ġimpos":6487,"Ġaleg":6488,"bral":6489,"Ġservir":6490,"Ġinterro":6491,"Ã©ticas":6492,"nces":6493,"cerdo":6494,"tz":6495,"rer":6496,"Ġconec":6497,"Lu":6498,"Ġinglesa":6499,"del":6500,"ĠKing":6501,"Ġexistentes":6502,"Ġcura":6503,"resa":6504,"ĠresponsÃ¡veis":6505,"Ġcompartil":6506,"inÃ¡ria":6507,"vision":6508,"ĠinstalaÃ§Ã£o":6509,"SA":6510,"ceano":6511,"Ġtabela":6512,"Ġverdadeiro":6513,"Ġregional":6514,"ĠempresÃ¡rio":6515,"rian":6516,"Ġenviado":6517,"Ġpoeta":6518,"ĠcontÃŃn":6519,"Ġmoral":6520,"quete":6521,"Ġagu":6522,"Ġprofunda":6523,"Ġhonra":6524,"tram":6525,"Ġresultou":6526,"Ġsemelhantes":6527,"anÃ§o":6528,"ĠJim":6529,"Ġdit":6530,"ĠreduÃ§Ã£o":6531,"ĠBranco":6532,"Ġcartas":6533,"ĠForÃ§a":6534,"Ġrecente":6535,"Ġ36":6536,"ĠpÃ©s":6537,"Ġdiscos":6538,"ĠDuque":6539,"ĠbilhÃµes":6540,"ĠgravaÃ§Ãµes":6541,"Ġuniverso":6542,"Ġpoucas":6543,"Ġtrabalhando":6544,"Ho":6545,"ĠÃ´nibus":6546,"Ġdema":6547,"ntamento":6548,"issa":6549,"ĠEntÃ£o":6550,"Ġpatroc":6551,"Ġapoia":6552,"Ġprovas":6553,"elhos":6554,"Ġrap":6555,"Ã´nicas":6556,"ĠmÃºsicos":6557,"ĠSar":6558,"ciam":6559,"Ġtocar":6560,"field":6561,"Ġcivis":6562,"Ġformal":6563,"ĠChris":6564,"39":6565,"Ġcontendo":6566,"mul":6567,"ĠFilipe":6568,"ĠcrÃŃtico":6569,"Ġaldeia":6570,"ĠsÃ©ries":6571,"ĠalcanÃ§ar":6572,"ĠhistÃ³rica":6573,"ologias":6574,"ÃŃÃ§a":6575,"Ġparada":6576,"ĠconsequÃªncia":6577,"liga":6578,"the":6579,"34":6580,"Ġvermelho":6581,"Ġaprend":6582,"75":6583,"Ġvideocl":6584,"ĠVa":6585,"Ġusou":6586,"jus":6587,"Ġlimite":6588,"Ġescritos":6589,"Ġconseguiram":6590,"Ġconsumo":6591,"Ġtraje":6592,"Ġsemif":6593,"Ġcontratado":6594,"vie":6595,"Ġ32":6596,"ĠGeneral":6597,"Ġgarantir":6598,"ates":6599,"ĠFri":6600,"ĠVerde":6601,"Ġiniciativa":6602,"Ġeventu":6603,"Ġinteresses":6604,"ĠGreg":6605,"raram":6606,"Ġextin":6607,"ĠPraÃ§a":6608,"ĠdoenÃ§as":6609,"Ġatua":6610,"Ġfamosa":6611,"Ġhistoriador":6612,"dÃ£o":6613,"ĠhipÃ³tes":6614,"Ġvontade":6615,"Ġsab":6616,"Ġcorpos":6617,"Ġinfec":6618,"real":6619,"Ġcoo":6620,"ilares":6621,"ĠAlgumas":6622,"Ġconselho":6623,"Ġescolhe":6624,"ĠMax":6625,"Ġexpul":6626,"Ġturno":6627,"itu":6628,"mino":6629,"alidades":6630,"Ġacontece":6631,"ĠNesta":6632,"Ġcaiu":6633,"Ġdecreto":6634,"ĠBrown":6635,"ĠEstÃ¡dio":6636,"fos":6637,"ĠEv":6638,"ĠÃ³rgÃ£os":6639,"Ġindividual":6640,"ĠSw":6641,"Ġcresceu":6642,"Ġviole":6643,"Ġpreserv":6644,"jamento":6645,"ĠFal":6646,"ĠAvenida":6647,"ĠquÃŃm":6648,"ĠLeÃ£o":6649,"ms":6650,"Ġquadrinhos":6651,"ĠsecretÃ¡rio":6652,"din":6653,"Ġalvo":6654,"Ġclasses":6655,"Ġelevado":6656,"ĠLy":6657,"TambÃ©m":6658,"zas":6659,"Ġcrescente":6660,"Ġanalis":6661,"ĠMary":6662,"Ġinternet":6663,"Ġelogi":6664,"85":6665,"ĠBerlim":6666,"ĠAlmeida":6667,"Ġdiscipl":6668,"Ġmomentos":6669,"ĠCra":6670,"Ġmodern":6671,"inter":6672,"esia":6673,"mbia":6674,"Ġromana":6675,"Ã¡stico":6676,"Ġexemplos":6677,"Ġsoftware":6678,"Ġrenda":6679,"ĠpresidÃªncia":6680,"ĠpadrÃµes":6681,"ciar":6682,"ĠaniversÃ¡rio":6683,"Ġvere":6684,"ĠpapÃ©is":6685,"Ġassassinato":6686,"Ġamplamente":6687,"mentares":6688,"Ġbatal":6689,"ntaram":6690,"Ġreserv":6691,"Ġfestival":6692,"Ġabriu":6693,"ĠPopular":6694,"ĠRibeiro":6695,"pin":6696,"Ġrepublic":6697,"Ġprodutores":6698,"ĠHill":6699,"rich":6700,"ĠSenhor":6701,"capa":6702,"Billboard":6703,"ĠÃ¢mbito":6704,"SS":6705,"Ġvendido":6706,"Ġestrangeiros":6707,"ĠJohns":6708,"Ġonda":6709,"Ġseguindo":6710,"ĠfÃŃsico":6711,"Ġigualmente":6712,"ĠMou":6713,"ĠindÃŃgenas":6714,"atÃ³rio":6715,"Ainda":6716,"ĠcrÃ©d":6717,"ĠAv":6718,"Ġbronze":6719,"Ġprofessores":6720,"ĠlocalizaÃ§Ã£o":6721,"Ġrecusou":6722,"ventude":6723,"ĠGir":6724,"bul":6725,"Ġpele":6726,"Ã³sito":6727,"ĠEspÃŃrito":6728,"ĠSub":6729,"ĠdiferenÃ§as":6730,"Ġadvogado":6731,"Ã¡n":6732,"tificaÃ§Ã£o":6733,"Ġnaquela":6734,"Ġalimentos":6735,"Ġdemocra":6736,"range":6737,"Ġcabo":6738,"Ġala":6739,"adeia":6740,"Ġaut":6741,"ĠMark":6742,"Ġinteira":6743,"Ġprazo":6744,"mond":6745,"ĠSuÃ©cia":6746,"iÃ¡rio":6747,"ÃŃncias":6748,"Ġconsag":6749,"Ġdecide":6750,"Ġpermitir":6751,"ĠJoaquim":6752,"tto":6753,"Ġposterior":6754,"Ġfortemente":6755,"Ġsubme":6756,"ĠBus":6757,"Ġaberta":6758,"ĠTorn":6759,"Ġexplos":6760,"ĠEntertainment":6761,"ship":6762,"Atualmente":6763,"Ġimpe":6764,"igraÃ§Ã£o":6765,"ĠuniÃ£o":6766,"ĠÃĢ":6767,"Ġhumor":6768,"31":6769,"gadas":6770,"Ġutilizar":6771,"ÃŃsmo":6772,"Ġcontras":6773,"torial":6774,"ĠEp":6775,"quad":6776,"Ġchamar":6777,"Ġassuntos":6778,"Ġmedic":6779,"posiÃ§Ãµes":6780,"Sta":6781,"Ġresponsabilidade":6782,"imbra":6783,"Ġinfantil":6784,"Ġcandidatos":6785,"ĠRicardo":6786,"Ġlados":6787,"ministro":6788,"IB":6789,"ĠHenry":6790,"ĠexceÃ§Ã£o":6791,"tral":6792,"Ġdenominado":6793,"Ġguitarra":6794,"ĠCinema":6795,"Ġile":6796,"Ġafirmando":6797,"indows":6798,"desse":6799,"ĠDal":6800,"ĠlanÃ§ar":6801,"pto":6802,"Bre":6803,"ĠLinha":6804,"Ġmostrar":6805,"ĠGrÃ£":6806,"idores":6807,"Ġmotivos":6808,"Ġregula":6809,"ĠTrÃªs":6810,"aliza":6811,"Ġrevistas":6812,"ĠMadonna":6813,"Ġfantas":6814,"ĠestrÃ©ia":6815,"Ġexerc":6816,"ĠOscar":6817,"Ġenfrentar":6818,"ixÃ£o":6819,"ĠimpÃ©rio":6820,"Ġrelacionados":6821,"ĠpartÃŃ":6822,"Ġlimites":6823,"Ġdito":6824,"pree":6825,"ĠForam":6826,"Ã§amento":6827,"Ġquebra":6828,"rum":6829,"ĠDesta":6830,"Ġabsor":6831,"ĠinstalaÃ§Ãµes":6832,"ĠBob":6833,"Ġlegal":6834,"nome":6835,"Ġconflitos":6836,"MS":6837,"ĠindivÃŃduo":6838,"quista":6839,"entro":6840,"Ġdiscurso":6841,"urgo":6842,"sem":6843,"ĠfÃ©":6844,"ĠHolly":6845,"ep":6846,"Ġlevado":6847,"odos":6848,"ĠRosa":6849,"antas":6850,"treet":6851,"ĠSaint":6852,"ĠMur":6853,"Ġmatar":6854,"back":6855,"ĠSuas":6856,"ĠdomÃ©s":6857,"Ġproxim":6858,"Ġprision":6859,"Ġpobre":6860,"Ġfach":6861,"Ġamare":6862,"Ġatuar":6863,"Ġ1959":6864,"gs":6865,"Ġpoe":6866,"Ġenterra":6867,"Ġdesejo":6868,"ĠSho":6869,"ĠvÃŃtimas":6870,"ĠprÃ¡ticas":6871,"Ġexpand":6872,"ĠSand":6873,"ĠexpediÃ§Ã£o":6874,"Ã§ados":6875,"Ġpopularidade":6876,"%.":6877,"99":6878,"ĠpraÃ§a":6879,"gel":6880,"ĠGabri":6881,"Ġassist":6882,"tÃµes":6883,"Ġsignificado":6884,"Ġitaliana":6885,"tta":6886,"Ã³cia":6887,"lome":6888,"Ġacrescent":6889,"Ġconfigu":6890,"Ġcred":6891,"195":6892,"Ġsinto":6893,"Ġdurou":6894,"Ġprotagonista":6895,"Ġembaix":6896,"grÃ¡fico":6897,"ĠXVII":6898,"Ġsobera":6899,"Ġ1944":6900,"orro":6901,"Ġgrave":6902,"ius":6903,"ĠIra":6904,"ĠpossÃŃveis":6905,"Ġsinais":6906,"Ġfacilmente":6907,"ĠbritÃ¢nicos":6908,"rinho":6909,"Ġimpression":6910,"Ġnaz":6911,"baixo":6912,"ĠBelo":6913,"ĠJuan":6914,"Ġtreinamento":6915,"Ġderru":6916,"Ġreconhecido":6917,"Ġproporcion":6918,"Ġroub":6919,"ĠespÃŃrito":6920,"fes":6921,"Ġperformance":6922,"Ġmata":6923,"ĠCuri":6924,"ĠBet":6925,"Ġlevaram":6926,"ĠRy":6927,"Ġcanais":6928,"ĠconclusÃ£o":6929,"Ġvocalista":6930,"ĠcomÃ©dia":6931,"identes":6932,"Ġdescreve":6933,"Ġfaleceu":6934,"Ġestando":6935,"ĠapariÃ§Ã£o":6936,"ĠLÃ¡":6937,"Ġpersonalidade":6938,"Ġperspec":6939,"Ġgar":6940,"Ġindo":6941,"Ġramo":6942,"Ta":6943,"ĠapresentaÃ§Ãµes":6944,"ĠAlves":6945,"ĠFra":6946,"pan":6947,"Ġcalor":6948,"ĠCos":6949,"Ġassunto":6950,"ĠPernambuco":6951,"ĠpromoÃ§Ã£o":6952,"Ġfornece":6953,"inguÃ©m":6954,"Ġaeronave":6955,"ĠEngenh":6956,"olas":6957,"44":6958,"ĠÎ":6959,"Ġfluxo":6960,"Ġdesigna":6961,"Ġautoria":6962,"Ġdanos":6963,"more":6964,"vante":6965,"ĠChile":6966,"ĠaviÃ£o":6967,"Ġmoderno":6968,"Ġreform":6969,"ĠPatr":6970,"ĠtransferÃªncia":6971,"Ġperdendo":6972,"Ġrepresentantes":6973,"Ġdocumento":6974,"itÃ¡rios":6975,"Ġespanhola":6976,"Ġmexic":6977,"bÃ¡":6978,"Ġtop":6979,"upas":6980,"bine":6981,"Ġcontinente":6982,"Ġanda":6983,"Ġaposent":6984,"ĠJus":6985,"ĠÃºltimas":6986,"fal":6987,"Ġestudios":6988,"ild":6989,"Ġram":6990,"oland":6991,"ĠdenominaÃ§Ã£o":6992,"ĠjustiÃ§a":6993,"Ġjuda":6994,"tive":6995,"cife":6996,"ĠMarco":6997,"Ġquin":6998,"ĠopiniÃ£o":6999,"Ġregra":7000,"ĠconcentraÃ§Ã£o":7001,"ĠDois":7002,"ĠPC":7003,"Ġbarra":7004,"tiba":7005,"Ġagente":7006,"Ġhar":7007,"Ġaliados":7008,"Fa":7009,"ĠesforÃ§o":7010,"Ġbairros":7011,"onald":7012,"leza":7013,"Ġ1939":7014,"ĠCoimbra":7015,"Ġrural":7016,"ĠAno":7017,"ĠBarcel":7018,"Ġdescrito":7019,"Ġino":7020,"dado":7021,"Ġvindo":7022,"ĠtraduÃ§Ã£o":7023,"hados":7024,"Ġcasar":7025,"pÃ©":7026,"Ġvocais":7027,"Ġprome":7028,"ĠJan":7029,"Ġamos":7030,"ĠTim":7031,"enciado":7032,"Ġpinturas":7033,"ĠLouis":7034,"Ġaltas":7035,"ĠPoss":7036,"eck":7037,"Ġobjec":7038,"Ġrevolta":7039,"ibe":7040,"Ġbola":7041,"itÃ©rio":7042,"tti":7043,"Ġexclusivamente":7044,"Ġ1954":7045,"46":7046,"Ġsta":7047,"geral":7048,"ĠfÃ¡brica":7049,"ĠfÃ¡cil":7050,"Ġrevolucion":7051,"Ġunif":7052,"ĠLago":7053,"ĠScott":7054,"49":7055,"ĠAtl":7056,"ĠpÃ´":7057,"Ġbaix":7058,"ĠDesenvolvimento":7059,"32":7060,"Fil":7061,"Ġurbana":7062,"cÃ³p":7063,"Ġdireta":7064,"Ġpromovido":7065,"ĠcerimÃ´nia":7066,"ĠinÃ©d":7067,"Ġroupas":7068,"ĠMem":7069,"ĠEqu":7070,"ĠWo":7071,"Ġdissol":7072,"lie":7073,"Ġtan":7074,"rad":7075,"Ġ1948":7076,"Ġtribu":7077,"unÃ§Ã£o":7078,"tambÃ©m":7079,"ĠFM":7080,"Ġbrilha":7081,"ae":7082,"nderam":7083,"ĠBeat":7084,"vy":7085,"Ġ+":7086,"ison":7087,"Ġpasso":7088,"ĠrÃ¡pida":7089,"ĠcomissÃ£o":7090,"Ġhabilidades":7091,"Ġdetalhes":7092,"ĠSto":7093,"ianismo":7094,"Ġengenheiro":7095,"Ġcobertura":7096,"riga":7097,"Ġrecep":7098,"ĠÃ¡rvores":7099,"ĠartÃŃstico":7100,"Ġtrama":7101,"Ġregress":7102,"ĠausÃªncia":7103,"ĠWindows":7104,"Ġcad":7105,"far":7106,"ĠSuÃŃÃ§a":7107,"Ġprogress":7108,"cebispo":7109,"mand":7110,"ĠChicago":7111,"uru":7112,"rador":7113,"Ġentidade":7114,"Ġeduca":7115,"Ġexplica":7116,"Ġaulas":7117,"ĠexibiÃ§Ã£o":7118,"Ġcomponentes":7119,"Ġsituado":7120,"Be":7121,"Ġfei":7122,"ence":7123,"Ġemprego":7124,"Ġcriando":7125,"Ġduque":7126,"Ġinimigo":7127,"Ġvag":7128,"ĠmÃºlti":7129,"Ġautom":7130,"Ġrecol":7131,"ĠSel":7132,"ĠEP":7133,"ĠnotÃ¡vel":7134,"Ġminha":7135,"ĠMTV":7136,"ĠIdade":7137,"ĠColle":7138,"Ã´no":7139,"mbo":7140,"Ġcard":7141,"Ġ1941":7142,"burg":7143,"Ġdescobriu":7144,"tizaÃ§Ã£o":7145,"ĠlÃŃqu":7146,"ĠÃŃndios":7147,"gam":7148,"ĠcaÃ§a":7149,"Ġpartidos":7150,"ĠOlÃŃmpicos":7151,"uda":7152,"ĠPass":7153,"Ġchave":7154,"Ġtela":7155,"Ġdividido":7156,"Ġadolesc":7157,"ij":7158,"Ġface":7159,"Ġcurto":7160,"ĠficÃ§Ã£o":7161,"Ġriqu":7162,"ĠDomin":7163,"ĠalteraÃ§Ãµes":7164,"ille":7165,"ural":7166,"Ġvan":7167,"organ":7168,"ĠperÃŃodos":7169,"Enquanto":7170,"âĢĭ":7171,"ĠrazÃµes":7172,"kh":7173,"Ġdenominada":7174,"ĠTy":7175,"Ġlabora":7176,"ĠmÃ¡quina":7177,"Ġdensidade":7178,"ĠÃ¡rabe":7179,"86":7180,"ctos":7181,"ĠLegisla":7182,"ĠanimaÃ§Ã£o":7183,"Ġinterpretou":7184,"Ġgeog":7185,"ĠtransiÃ§Ã£o":7186,"Ġencontrada":7187,"ĠaprovaÃ§Ã£o":7188,"Ġreligiosas":7189,"mont":7190,"ĠLeo":7191,"tropolitana":7192,"Ġmarcado":7193,"ited":7194,"Ġtempestade":7195,"Ġpeda":7196,"istos":7197,"elli":7198,"Ġteleno":7199,"Ġaeroporto":7200,"ĠBento":7201,"Ġsituada":7202,"ĠUnidas":7203,"ĠInternet":7204,"rez":7205,"Ġrepor":7206,"ĠShe":7207,"ĠmissÃµes":7208,"Ġpista":7209,"Ġrecentes":7210,"tÃ¡culo":7211,"ĠRom":7212,"trÃ³leo":7213,"Ġavis":7214,"essÃµes":7215,"low":7216,"tidas":7217,"ĠlanÃ§ados":7218,"ĠOriental":7219,"Ġmensagem":7220,"quÃªs":7221,"Ġenredo":7222,"Ġenfrentou":7223,"ĠfusÃ£o":7224,"Ġexibida":7225,"Ġimposs":7226,"rÃ¡tico":7227,"ĠelÃ©trica":7228,"Ġfuncionamento":7229,"Ġsou":7230,"Ġagentes":7231,"Ġpagar":7232,"Ġsuce":7233,"Ġdinastia":7234,"Ġrestante":7235,"ĠusuÃ¡rio":7236,"Ġespacial":7237,"erante":7238,"Ġsacerdo":7239,"Ġlatim":7240,"ĠmÃ¡xima":7241,"Ġaeronaves":7242,"ĠLeague":7243,"ĠÃĵ":7244,"lei":7245,"ĠSon":7246,"ball":7247,"Ġlutar":7248,"nal":7249,"Ġchamadas":7250,"Ġsoma":7251,"ĠcompetiÃ§Ãµes":7252,"ww":7253,"Ġlibera":7254,"Ġgiga":7255,"Ġ1938":7256,"Ġportas":7257,"Ġ1946":7258,"Ġcarnaval":7259,"Ġsucessor":7260,"Ġcolocou":7261,"Ġastro":7262,"ortaleza":7263,"ĠexperiÃªncias":7264,"ĠcÃ´":7265,"Ġdisponibil":7266,"ĠEsses":7267,"Ġrevela":7268,"cant":7269,"Ġanex":7270,"Ġformam":7271,"ĠrelatÃ³rio":7272,"Ġbaixas":7273,"Ġacel":7274,"Ġdescendentes":7275,"Ġpadre":7276,"Ġzonas":7277,"ĠPref":7278,"Ġrote":7279,"Ġlojas":7280,"Ġrestantes":7281,"Ġfoco":7282,"toc":7283,"Ġaltos":7284,"rÃ¡ficas":7285,"ĠTratado":7286,"Ġ1943":7287,"Ġesque":7288,"Ġdefens":7289,"Ġeventualmente":7290,"Ġmedie":7291,"ĠincÃªnd":7292,"ĠMadrid":7293,"Ġnascido":7294,"jar":7295,"pra":7296,"Ġteriam":7297,"ĠcomeÃ§ar":7298,"Ġ1947":7299,"penh":7300,"Ġinaugurado":7301,"Ġestatu":7302,"ĠTw":7303,"ĠBig":7304,"umes":7305,"kes":7306,"Ã©sia":7307,"Ġcrimes":7308,"Ġestran":7309,"Ġarco":7310,"Ġcrista":7311,"ĠGame":7312,"ÃŃbrio":7313,"ĠEssas":7314,"89":7315,"uri":7316,"Ġrecorre":7317,"Ġsepul":7318,"vens":7319,"Ġcrit":7320,"Ġjaponesa":7321,"ĠPac":7322,"GE":7323,"Ġsolu":7324,"ĠespaÃ§os":7325,"mm":7326,"Ġfotos":7327,"ĠdestruiÃ§Ã£o":7328,"ante":7329,"Ġreiv":7330,"Ġmeu":7331,"ĠCearÃ¡":7332,"ĠHuman":7333,"Ġ1942":7334,"ĠintroduÃ§Ã£o":7335,"Ġprefeitura":7336,"meras":7337,"ĠpreÃ§o":7338,"ertos":7339,"ĠmatemÃ¡tica":7340,"ĠTimes":7341,"Ġespiritual":7342,"hando":7343,"Ġtelef":7344,"Ġobjetivos":7345,"Mas":7346,"ndon":7347,"JÃ¡":7348,"itro":7349,"orra":7350,"ĠIb":7351,"ĠnotÃŃcias":7352,"Ġsemi":7353,"Ġproteger":7354,"Ġapresentando":7355,"Ġconquistar":7356,"ices":7357,"ĠHorizonte":7358,"Assim":7359,"Ġbilhe":7360,"alÃ©m":7361,"izade":7362,"Ġreceberam":7363,"Ġinfluenci":7364,"uminense":7365,"ĠEuropeia":7366,"Ãºp":7367,"Ġbic":7368,"Ġtrinta":7369,"Ġamplia":7370,"Ġhomenage":7371,"Ġpodemos":7372,"ĠMill":7373,"ĠJoseph":7374,"Ġ1956":7375,"IN":7376,"Ġarro":7377,"ĠMato":7378,"Ġsegundos":7379,"=\"":7380,"Ġcancel":7381,"ĠSupre":7382,"ĠSport":7383,"Ġrealiza":7384,"Ġvantagem":7385,"Ġinverno":7386,"Ġaparel":7387,"Ġsenhor":7388,"Ġapaixon":7389,")\"":7390,"Ġeg":7391,"ĠHomem":7392,"Ġguitarrista":7393,"Ġprocedi":7394,"ĠFigu":7395,"ĠPrÃŃncipe":7396,"Ġdrogas":7397,"ramente":7398,"Ġnossa":7399,"Ġsexta":7400,"Ġcolocar":7401,"Ġassociado":7402,"Ġaves":7403,"ili":7404,"Ġcumpri":7405,"Ġdescar":7406,"ĠcapÃŃtulo":7407,"Ġevang":7408,"ross":7409,"Ġdisputar":7410,"Ġparadas":7411,"ĠcÃ¢me":7412,"Ã³so":7413,"quisiÃ§Ã£o":7414,"42":7415,"itido":7416,"ĠMinistro":7417,"ĠOn":7418,"Ja":7419,"Ġtido":7420,"Ġreligiosos":7421,"ĠYa":7422,"ĠMÃºsica":7423,"ĠDam":7424,"ĠVicente":7425,"]],":7426,"76":7427,"ĠpopulaÃ§Ãµes":7428,"Ġparla":7429,"Ġpermanece":7430,"ĠprovÃŃncias":7431,"ĠaparÃªncia":7432,"ĠWW":7433,"Ġcasado":7434,"work":7435,"Ġcapazes":7436,"ĠhorÃ¡rio":7437,"ĠLoc":7438,"RE":7439,"Ġexist":7440,"Ġrumo":7441,"Ġpintor":7442,"ĠdaÃŃ":7443,"Ġ1955":7444,"hen":7445,"Ġinterval":7446,"Ġenvolvendo":7447,"Cl":7448,"Ġposteriores":7449,"Ġrecebendo":7450,"ĠSin":7451,"Ġpudesse":7452,"ĠCompany":7453,"Ãģ":7454,"ÃŃaco":7455,"imar":7456,"ises":7457,"Ġleve":7458,"Ġaspecto":7459,"ĠHollywood":7460,"Ġbranca":7461,"mira":7462,"ĠcristÃ£":7463,"zinha":7464,"ĠNessa":7465,"rico":7466,"Ġpossivelmente":7467,"Ġsuic":7468,"Ġlocalidade":7469,"Ġfla":7470,"Ġindicado":7471,"Ġ1953":7472,"Ġrepresentante":7473,"Ġconex":7474,"Ġdistingu":7475,"Ġderam":7476,"Ġregistros":7477,"inger":7478,"borou":7479,"Ġdefinido":7480,"Ġexecutivo":7481,"41":7482,"fund":7483,"ĠLuis":7484,"ĠpotÃªncia":7485,"Ġcausou":7486,"ĠFlores":7487,"Ġasc":7488,"Ġcentenas":7489,"plic":7490,"Ġdiver":7491,"ĠBow":7492,"americanos":7493,"Ġneu":7494,"Ġeuropeu":7495,"Ġfolhas":7496,"Is":7497,"Ãªu":7498,"Ġ1957":7499,"ĠSistema":7500,"Ġocorrido":7501,"ĠIB":7502,"Ġtemos":7503,"ĠJoe":7504,"ĠBou":7505,"ĠRen":7506,"ĠnecessÃ¡ria":7507,"ĠTi":7508,"Ġaltamente":7509,"ncer":7510,"core":7511,"FL":7512,"centes":7513,"Ġ:":7514,"ĠcomparaÃ§Ã£o":7515,"ĠAlto":7516,"Ġmotores":7517,"Ġmargens":7518,"ĠMaur":7519,"doeste":7520,"ĠmÃºsico":7521,"Ġconfirmou":7522,"Ġsalas":7523,"ĠintervenÃ§Ã£o":7524,"Ġelevada":7525,"Ġatravess":7526,"Ġcombust":7527,"Ġben":7528,"Ġrefu":7529,"Ġesporte":7530,"Cons":7531,"don":7532,"Ġpress":7533,"ĠmÃ©dicos":7534,"ĠPelo":7535,"ĠCarl":7536,"Ġsupri":7537,"Ġencontradas":7538,"ĠAte":7539,"Ġextrem":7540,"ĠDina":7541,"ĠTerc":7542,"Ġposicion":7543,"Ġnosso":7544,"Ġempate":7545,"ĠOutro":7546,"Ã´nias":7547,"els":7548,"ĠnaÃ§Ã£o":7549,"Ġenvolve":7550,"Ġsenador":7551,"Ġcanad":7552,"Ġjulgamento":7553,"ĠdÃŃ":7554,"AC":7555,"mero":7556,"ĠJardim":7557,"78":7558,"fin":7559,"laÃ§Ã£o":7560,"Ġ400":7561,"Ġdireto":7562,"Alguns":7563,"ĠMartins":7564,"ampa":7565,"urgia":7566,"ndÃ¡rio":7567,"Ġretornar":7568,"Ã§Ãº":7569,"seis":7570,"Ġcadeia":7571,"Ġsil":7572,"cidas":7573,"Ġparedes":7574,"Ġbases":7575,"Ġculto":7576,"Ã©rico":7577,"ĠclÃ¡ssica":7578,"Ġdesenhos":7579,"Ġmodernos":7580,"Ġordenou":7581,"ĠAtlÃ¢ntico":7582,"Ġpasse":7583,"ĠAndre":7584,"Ġdesembar":7585,"Ġadquiriu":7586,"Ãł":7587,"Ġdesper":7588,"Ġrepresentando":7589,"Ġerro":7590,"ĠRecife":7591,"ĠFox":7592,"ĠRol":7593,"Ġnegros":7594,"qui":7595,"ĠMÃ¡rio":7596,"Ġcoloca":7597,"Ġrejei":7598,".)":7599,"Ġpertencente":7600,"gador":7601,"Ġprimo":7602,"ingos":7603,"Ã¢nicos":7604,"ĠinÃºmeras":7605,"alizado":7606,"ĠvotaÃ§Ã£o":7607,"Ġfinanceira":7608,"Ġentrev":7609,"ani":7610,"For":7611,"65":7612,"st":7613,"ĠChampionship":7614,"Ġrota":7615,"Ġdividida":7616,"ĠrevoluÃ§Ã£o":7617,"Ġtomada":7618,"Ġâ":7619,"set":7620,"cr":7621,"Ã³tico":7622,"gÃªnio":7623,"Ġencontrava":7624,"Ġadultos":7625,"ink":7626,"Ġjuiz":7627,"mentado":7628,"Ġsuperiores":7629,"Ġpena":7630,"Ġequivalente":7631,"Ġ000":7632,"ĠCE":7633,"Ġmantendo":7634,"Ġvolunt":7635,"Ġatras":7636,"ĠâĢĭ":7637,"Ġaparentemente":7638,"Ã¡via":7639,"Ġeconom":7640,"cons":7641,"Ġdevo":7642,"tid":7643,"ĠZel":7644,"Ġnordeste":7645,"ĠOeste":7646,"43":7647,"Ġ1934":7648,"Ġproduzidos":7649,"Ġdestacam":7650,"Ġexceto":7651,"ĠFortaleza":7652,"ĠSpe":7653,"Ġintitulada":7654,"ĠsituaÃ§Ãµes":7655,"Ġconhece":7656,"ĠorientaÃ§Ã£o":7657,"Ġmesmas":7658,"Ġideal":7659,"Ġresga":7660,"ĠAmor":7661,"ning":7662,"feira":7663,"ĠUs":7664,"Ġdesempenh":7665,"Ġpessoais":7666,"Ġinstrumento":7667,"Ġvideoclipe":7668,"Ġincapa":7669,"ĠUN":7670,"beth":7671,"triar":7672,"Ġartif":7673,"Ha":7674,"Ġfloresta":7675,"Ġgravar":7676,"ĠCho":7677,"ĠJones":7678,"yr":7679,"Ġcriados":7680,"regado":7681,"Ġrecru":7682,"__":7683,"ME":7684,"onia":7685,"Ġengenharia":7686,"ganda":7687,"ĠÃªx":7688,"Ġdistin":7689,"Ġpiano":7690,"Ġtiro":7691,"Ã¢nio":7692,"Ġretirada":7693,"unk":7694,"Ãºnior":7695,"Ġati":7696,"Ġtentativas":7697,"Ġnotas":7698,"Ġ75":7699,"Ġusam":7700,"itam":7701,"tificado":7702,"Ġ1936":7703,"Ġestabelecimento":7704,"fu":7705,"fim":7706,"div":7707,"iria":7708,"postos":7709,"ĠAlfre":7710,"Ġcoroa":7711,"ĠHit":7712,"Ġ38":7713,"jeto":7714,"Ġvisual":7715,"Ġreligioso":7716,"Ġ1933":7717,"Ġdep":7718,"Ġpain":7719,"Ġpovoado":7720,"Ġcere":7721,"Ġinteressa":7722,"DE":7723,"ĠSÃ©":7724,"ĠPont":7725,"eir":7726,"Ġocorrem":7727,"77":7728,"Ġlarga":7729,"ube":7730,"Ġ1937":7731,"ĠfilÃ³so":7732,"Ġsegre":7733,"Ġtio":7734,"ĠSur":7735,"Ġviagens":7736,"Ġ1952":7737,"ĠTen":7738,"ĠPrimeiro":7739,"ĠCollege":7740,"Ġindependentes":7741,"ĠgÃªneros":7742,"ĠcÃŃr":7743,"ĠtendÃªncia":7744,"Ġlog":7745,"ĠEscÃ³cia":7746,"Ġclientes":7747,"ĠpÃ¡gina":7748,"ĠRena":7749,"ĠGram":7750,"ĠLopes":7751,"Ã³logos":7752,"avi":7753,"ĠDre":7754,"Ġcustos":7755,"Ġprevis":7756,"ĠNordeste":7757,"ĠMassa":7758,"ĠdivulgaÃ§Ã£o":7759,"ĠBraga":7760,"ĠinfluÃªncias":7761,"Ġvelha":7762,"Ġultrapass":7763,"blo":7764,"Ġbateria":7765,"Ġrepresentar":7766,"ĠalcanÃ§a":7767,"velas":7768,"Ġincluiu":7769,"Ġbordo":7770,"Ġconceitos":7771,"Ġmasculino":7772,"Ġmente":7773,"ĠJornal":7774,"Ġsamba":7775,"ĠCorte":7776,"Ġindividuais":7777,"Ġfachada":7778,"%,":7779,"Ã©lgica":7780,"95":7781,"ĠJon":7782,"geu":7783,"Ġtimes":7784,"mobil":7785,"gura":7786,"sey":7787,"Ġocorrer":7788,"ĠpetrÃ³leo":7789,"cred":7790,"Ġfases":7791,"Ġofens":7792,"ĠveÃŃculo":7793,"Ġfator":7794,"Ġgratu":7795,"ĠBÃŃbl":7796,"100":7797,"inando":7798,"thur":7799,"ecu":7800,"NU":7801,"ãĥ":7802,"Ġtonel":7803,"elson":7804,"ĠHon":7805,"ĠCampe":7806,"Ġsimul":7807,"ĠhistÃ³ricos":7808,"Ġbon":7809,"Ġmelhorar":7810,"escente":7811,"Ġcompil":7812,"ĠSecretaria":7813,"trias":7814,"Ġproven":7815,"Ġdificuldade":7816,"ĠWill":7817,"Ġtentando":7818,"Man":7819,"ĠStan":7820,"ĠFIFA":7821,"Ġperi":7822,"Ġdepartamento":7823,"ilton":7824,"ĠFro":7825,"Ġpoesia":7826,"rÃ¡tica":7827,"ĠFaze":7828,"ĠMachado":7829,"gno":7830,"ĠTecn":7831,"teira":7832,"ĠAires":7833,"ĠHal":7834,"Ġcontar":7835,"ĠPs":7836,"ĠCabo":7837,"ĠÃ¡rvore":7838,"Ġpacientes":7839,"ĠNational":7840,"fei":7841,"ĠsÃ³l":7842,"ĠCultural":7843,"ariamente":7844,"Ġrevelado":7845,"ĠestratÃ©gia":7846,"Ġfazenda":7847,"ĠUniversal":7848,"Ġdirigiu":7849,"org":7850,"wan":7851,"ĠBandeira":7852,"ĠMaran":7853,"ĠMarcos":7854,"ĠKu":7855,"ĠâĢĭâĢĭ":7856,"ĠSouza":7857,"ĠPia":7858,"Ġrenome":7859,"osamente":7860,"Ġmatriz":7861,"ĠsÃŃtio":7862,"idi":7863,"trado":7864,"vÃ©r":7865,"ĠAtlÃ©tico":7866,"ĠPÃºblico":7867,"binete":7868,"ata":7869,"zi":7870,"Ġutilizadas":7871,"rop":7872,"Ġcomprome":7873,"Ġativa":7874,"refa":7875,"Mais":7876,"eirÃ£o":7877,"ĠZe":7878,"Pe":7879,"mentas":7880,"Ġitalianos":7881,"Ġrepu":7882,"ĠOutras":7883,"Ġpresos":7884,"ĠNick":7885,"Ġfede":7886,"ĠIt":7887,"tendo":7888,"Ġabordagem":7889,"ĠJr":7890,"Ġvaz":7891,"Ġmural":7892,"Ã©mio":7893,"Ġbrasileiras":7894,"ĠAdam":7895,"ĠSebasti":7896,"gÃªn":7897,"minal":7898,"Ġ1949":7899,"ĠPolÃ´nia":7900,"Ġloja":7901,"Ġritmo":7902,"ĠStra":7903,"Ġhabilidade":7904,"itadas":7905,"Ġconcluiu":7906,"Ġconcerto":7907,"Ad":7908,"Ġaquela":7909,"Ġbiblioteca":7910,"ĠBarcelona":7911,"ĠavaliaÃ§Ã£o":7912,"ipais":7913,"Ġmedicina":7914,"ĠraÃ§a":7915,"ĠlÃ³gica":7916,"ĠPrograma":7917,"Ġuns":7918,"wal":7919,"Ġcoluna":7920,"orrÃªncia":7921,"Ġhistoriadores":7922,"Ġapresentada":7923,"ĠconstituiÃ§Ã£o":7924,"mir":7925,"Ġvoto":7926,"ĠRainha":7927,"Ġlhes":7928,"Ġcujos":7929,"melh":7930,"Ġdeterminar":7931,"Ġteorias":7932,"66":7933,"ĠalianÃ§a":7934,"ĠcafÃ©":7935,"Ġcolabora":7936,"Ġsequ":7937,"box":7938,"Ġbis":7939,"dical":7940,"ĠReis":7941,"ĠMichel":7942,"Ġpermanente":7943,"Ġoriental":7944,"ĠTru":7945,"Ġcob":7946,"ĠCre":7947,"Ã³quia":7948,"Ġatmosfera":7949,"ĠEmp":7950,"tidÃ£o":7951,"Ġganhando":7952,"ĠAmerican":7953,"ĠSoci":7954,"ĠromÃ¢nt":7955,"ude":7956,"Ġorquestra":7957,"Ġcircuns":7958,"Ġoper":7959,"ĠevidÃªncias":7960,"ĠLan":7961,"ĠEdward":7962,"ury":7963,"ĠeconÃ³":7964,"Ãºncia":7965,"ĠanÃºn":7966,"Ġarquivos":7967,"Bretanha":7968,"ĠseÃ§Ã£o":7969,"ĠconsciÃªncia":7970,"ĠPesso":7971,"quesa":7972,"ĠOne":7973,"Ġdefinida":7974,"Ġconstruiu":7975,"Ġfeminina":7976,"Ġinse":7977,"Ġsucessos":7978,"Ġlist":7979,"Ġencome":7980,"Ġvie":7981,"inÃ¡rio":7982,"indica":7983,"ĠartÃŃstica":7984,"Ġestaria":7985,"ĠfenÃ´meno":7986,"edas":7987,"ĠÃŃndice":7988,"ĠRegional":7989,"ĠEvang":7990,"Or":7991,"ĠMelo":7992,"Ga":7993,"Ġanc":7994,"ĠÃ¡cido":7995,"Ġ1918":7996,"ĠMarcelo":7997,"Ġanar":7998,"ĠPira":7999,"Ġexterna":8000,"Ġnecessidades":8001,"Ġpagamento":8002,"ĠtensÃ£o":8003,"ĠMendes":8004,"ĠFrederico":8005,"esto":8006,"Ġline":8007,"Ġboas":8008,"tizado":8009,"ĠdÃ©cimo":8010,"Ġ1932":8011,"Ġpertencia":8012,"88":8013,"Mel":8014,"Ġrecuperar":8015,"ĠGreen":8016,"Ġabre":8017,"itir":8018,"ÃŃtulos":8019,"Ġreel":8020,"ĠquÃŃmica":8021,"ĠBÃ©lgica":8022,"Ġhel":8023,"ĠImperador":8024,"Ġbloco":8025,"vando":8026,"ĠAÃ©rea":8027,"ĠBatista":8028,"Ġrelacionadas":8029,"atas":8030,"ĠSr":8031,"Ġ1951":8032,"lash":8033,"ĠLucas":8034,"Ant":8035,"onatos":8036,"Ġligado":8037,"ĠseparaÃ§Ã£o":8038,"Ġ33":8039,"Ġsolar":8040,"ĠDecreto":8041,"Ã§Ãºcar":8042,"[[":8043,"quil":8044,"Ġmedo":8045,"05":8046,"Ġpreto":8047,"ĠcÃ¢mara":8048,"ĠÃįnd":8049,"Ġprimi":8050,"peu":8051,"ÂłĊ":8052,"uela":8053,"Ġdebate":8054,"Ġexistente":8055,"',":8056,"Ġatos":8057,"ĠSong":8058,"ĠWhite":8059,"ĠNight":8060,"Ãµem":8061,"ĠDepu":8062,"ĠrÃ©":8063,"ĠSÃ³":8064,"ĠUE":8065,"Ġbeleza":8066,"ika":8067,"Ġespecificamente":8068,"nch":8069,"Ġconsideradas":8070,"Ġdescober":8071,"nsul":8072,"Ġvivem":8073,"Ġestabelecido":8074,"Ġgl":8075,"ĠGet":8076,"Per":8077,"Ġassume":8078,"Ġcarne":8079,"Ġinvest":8080,"Ġpouca":8081,"LA":8082,"Ġinvent":8083,"Ġmontanhas":8084,"press":8085,"Ġdesce":8086,"Ġcargos":8087,"ĠGas":8088,"Ġaparecem":8089,"Ġdescobrir":8090,"ĠSantiago":8091,"Ġcolonial":8092,"09":8093,"ĠGabriel":8094,"cura":8095,"Ġpublicados":8096,"ĠespanhÃ³is":8097,"Ġaceitou":8098,"Ġatletas":8099,"Ġcontava":8100,"Ġtestemun":8101,"daÃ§Ã£o":8102,"ap":8103,"ĠNorma":8104,"Ġcinemato":8105,"ĠdeclaraÃ§Ã£o":8106,"ady":8107,"ĠGrosso":8108,"Ġcientistas":8109,"Ġprivada":8110,"Ġsurpree":8111,"Ġalternativa":8112,"ĠPaÃŃses":8113,"agos":8114,"Cam":8115,"Ġnomeou":8116,"ĠImperial":8117,"ĠFranco":8118,"Ġ<":8119,"ĠVilla":8120,"ĠMedicina":8121,"ĠGuarda":8122,"ĠLua":8123,"Ġsucedido":8124,"dire":8125,"Ġconsiderou":8126,"Ġiniciais":8127,"Ġdiploma":8128,"gias":8129,"ĠsatÃ©lite":8130,"ifere":8131,"vite":8132,"Ġreformas":8133,"ĠWat":8134,"Ġsorte":8135,"Ġ37":8136,"Ġib":8137,"Cont":8138,"Ġocorreram":8139,"ĠnegociaÃ§Ãµes":8140,"Ġcampanhas":8141,"atÃ³ria":8142,"dis":8143,"Ġfabrica":8144,"Ã©lia":8145,"Ġquestion":8146,"Ġproba":8147,"rita":8148,"Ġfilmagens":8149,"Ġcomunic":8150,"Ġestiv":8151,"ĠRub":8152,"Ġauton":8153,"Ġretorna":8154,"Ġintera":8155,"ĠninguÃ©m":8156,"itaÃ§Ãµes":8157,"Ġuniversidades":8158,"ĠvÃŃdeos":8159,"Ġfranquia":8160,"Ġ1935":8161,"kins":8162,"ĠmolÃ©c":8163,"Ġgrega":8164,"ĠaplicaÃ§Ãµes":8165,"ĠpÃ¡ginas":8166,"Ġproemin":8167,"ĠegÃŃp":8168,"Ġatacar":8169,"Ġradio":8170,"Ġmoda":8171,"ĠmÃŃnimo":8172,"Ġacha":8173,"ĠLuz":8174,"ungria":8175,"jado":8176,"elly":8177,"ĠComics":8178,"Äģ":8179,"Ġlocaliza":8180,"eixes":8181,"teza":8182,"ĠPinto":8183,"Ġtrecho":8184,"Ġprocu":8185,"Ġpassam":8186,"ĠreferÃªncias":8187,"Existem":8188,"Ã³tica":8189,"essas":8190,"%),":8191,"Ġ1910":8192,"ĠLÃº":8193,"ĠlesÃ£o":8194,"Ġrequer":8195,"teor":8196,"Ġassociados":8197,"ii":8198,"ĠperiÃ³d":8199,"Ġrever":8200,"Ġlivres":8201,"Ġdeterminada":8202,"Ġrestos":8203,"ĠascensÃ£o":8204,"Ġargent":8205,"Ġfabric":8206,"ory":8207,"lov":8208,"Ġpodiam":8209,"Ġeletro":8210,"Ġtoca":8211,"mengo":8212,"Ãºne":8213,"ciano":8214,"PE":8215,"ĠJohnson":8216,"rei":8217,"Ġlitoral":8218,"Ġdedicado":8219,"Ġurbano":8220,"Ã¢metro":8221,"TC":8222,"ÃŃnios":8223,"ĠequilÃŃbrio":8224,"ĠHigh":8225,"ĠclÃŃn":8226,"identais":8227,"Ġfama":8228,"tragem":8229,"mossex":8230,"ĠBand":8231,"ĠRoss":8232,"Ġcolegas":8233,"ĠRay":8234,"ĠRel":8235,"%)":8236,"ĠrecuperaÃ§Ã£o":8237,"ĠPeru":8238,"Ġcompostos":8239,"ĠtransformaÃ§Ã£o":8240,"ĠExistem":8241,"Ġgovernos":8242,"ĠDefesa":8243,"aren":8244,"ĠGl":8245,"Ġconsta":8246,"cap":8247,"Ġperdido":8248,"Ġserve":8249,"ĠnaÃ§Ãµes":8250,"Ġsatisf":8251,"ĠaviÃµes":8252,"Ã¡x":8253,"kov":8254,"cÃ¡":8255,"Ġcompet":8256,"ĠHoje":8257,"Ġonze":8258,"Ġaumentou":8259,"Ġsintomas":8260,"Ġclassificou":8261,"ĠvÃŃtima":8262,"ĠTop":8263,"ĠUruguai":8264,"Ġpolicial":8265,"Ġjaponeses":8266,"Ġimpedir":8267,"Ġtemperaturas":8268,"Ġestilos":8269,"Ġpere":8270,"ĠStone":8271,"Ġparede":8272,"ĠdimensÃµes":8273,"nie":8274,"Ġsexto":8275,"Ġend":8276,"ĠFran":8277,"ĠJerus":8278,"esp":8279,"AtÃ©":8280,"Ġaper":8281,"Ġpossam":8282,"Ġtoneladas":8283,"Ġpraia":8284,"ĠPreto":8285,"ntados":8286,"Ġfamiliar":8287,"meira":8288,"Ġcertos":8289,"Ġjura":8290,"ĠStreet":8291,"gueira":8292,"Ġ1917":8293,"ĠPraia":8294,"ĠdiÃ¡":8295,"Ġcamisa":8296,"Ġaustralia":8297,"Ġfundos":8298,"ĠchÃ£o":8299,"ĠinspiraÃ§Ã£o":8300,"PR":8301,"Ġandar":8302,"arn":8303,"Ġculturas":8304,"ĠBarra":8305,"ĠEspecial":8306,"ĠTexas":8307,"Ġdecis":8308,"ĠAgu":8309,"Ġradia":8310,"Ġmang":8311,"Ġoferta":8312,"Antes":8313,"Ġsudeste":8314,"Ġregionais":8315,"tÃ¡culos":8316,"ĠVida":8317,"ĠinteligÃªncia":8318,"ĠWay":8319,"ĠprÃ³ximas":8320,"Ã©trica":8321,"ĠDen":8322,"Ãºrb":8323,"âĢ¦":8324,"mÃ©":8325,"Ġcorresponde":8326,"Ġinterromp":8327,"ressa":8328,"ĠTan":8329,"ĠEstaÃ§Ã£o":8330,"ĠConstantinopla":8331,"ĠCat":8332,"ĠPaz":8333,"ĠKim":8334,"ĠSÃŃria":8335,"ĠNorue":8336,"Ġfaculdade":8337,"ĠPier":8338,"Ġestat":8339,"Ġnoroeste":8340,"Ġrig":8341,"Ġinterno":8342,"Ġcontinuaram":8343,"ĠGoiÃ¡s":8344,"Ġderrotar":8345,"Ġdeveriam":8346,"Ġdaquela":8347,"ĠOutra":8348,"ĠOrganizaÃ§Ã£o":8349,"Ġcausas":8350,"ĠmÃ¡quinas":8351,"Rio":8352,"ĠMun":8353,"Ġnerv":8354,"Ġcontrolar":8355,"Ġfavore":8356,"Ġdistritos":8357,"ĠTaÃ§a":8358,"Ġcantar":8359,"Ġcuidados":8360,"Ġacreditava":8361,"ĠavanÃ§o":8362,"ĠAssocia":8363,"itiu":8364,"Ġtribos":8365,"500":8366,"dig":8367,"Ġelite":8368,"ration":8369,"Ġcomercia":8370,"ĠLetras":8371,"Ġhomossex":8372,"ndeses":8373,"Ġcircuito":8374,"Ġtip":8375,"Ã³t":8376,"ĠdescriÃ§Ã£o":8377,"NT":8378,"ĠVia":8379,"ĠproprietÃ¡rio":8380,"imp":8381,"Ela":8382,"Ġreis":8383,"gava":8384,"Ġfamiliares":8385,"ĠWilliams":8386,"Ġperspectiva":8387,"87":8388,"torado":8389,"Ġmostrando":8390,"Ġergu":8391,"ĠMÃ©dio":8392,"Ġservido":8393,"gorit":8394,"Ġestaduais":8395,"Ġcontam":8396,"67":8397,"Ġinteiro":8398,"ĠToda":8399,"olanda":8400,"ĠassistÃªncia":8401,"ĠcÃ¢ncer":8402,"ĠhipÃ³tese":8403,"ĠEspa":8404,"Ġfilhas":8405,"Ġfestas":8406,"Ġilum":8407,"ĠnegÃ³cio":8408,"Ġdetec":8409,"Ġinfluencia":8410,"ĠInternational":8411,"Ġmass":8412,"Ġviaja":8413,"Ġacontecimentos":8414,"ĠcombinaÃ§Ã£o":8415,"ĠPonte":8416,"Ġpratica":8417,"cote":8418,"uf":8419,"ĠtradiÃ§Ãµes":8420,"Ġgran":8421,"Ġnegro":8422,"cebe":8423,"Ġhid":8424,"Ġcomentou":8425,"ĠBoa":8426,"ĠcirculaÃ§Ã£o":8427,"irem":8428,"ĠNapole":8429,"restre":8430,"Ġquinze":8431,"Ġreta":8432,"Ġcorrespond":8433,"onde":8434,"Ġorganizado":8435,"Ġrelatos":8436,"ĠcatÃ³licos":8437,"ĠMÃ¡":8438,"Ġmorta":8439,"ĠFC":8440,"cab":8441,"Ġreduzir":8442,"Ġintensa":8443,"Ġfornecer":8444,"ĠFol":8445,"ĠComitÃª":8446,"Ġfugir":8447,"hy":8448,"Ġparticiparam":8449,"ĠPÃºblica":8450,"ĠgÃ©n":8451,"ĠColo":8452,"Ã¢neos":8453,"upar":8454,"ĠCapitÃ£o":8455,"ĠParaÃŃba":8456,"Ġconfer":8457,"ĠParÃ¡":8458,"ianas":8459,"rica":8460,"Ġconhecer":8461,"ali":8462,"Ġassinado":8463,"Ġvieram":8464,"Ġleitura":8465,"Ġamizade":8466,"ĠJerusalÃ©m":8467,"ĠdocumentÃ¡rio":8468,"Ġsurge":8469,"ĠmarÃŃ":8470,"Ã¢ng":8471,"Ġfrase":8472,"Ġabol":8473,"Ġcarreg":8474,"ĠpoderÃ¡":8475,"!\"":8476,"ster":8477,"ĠdivisÃµes":8478,"Ġdiferencia":8479,"ĠconservaÃ§Ã£o":8480,"ĠWilson":8481,"rade":8482,"ĠGold":8483,"roup":8484,"ĠPlan":8485,"ĠAÃ§o":8486,"Ġ120":8487,"Ġturismo":8488,"ĠaÃ©re":8489,"tures":8490,"Ġartic":8491,"ĠcolÃ´nia":8492,"ĠSÃ¡":8493,"08":8494,"Ġsemelh":8495,"Ġnomeadamente":8496,"ĠCarta":8497,"ĠWood":8498,"'t":8499,"vora":8500,"Ġconcre":8501,"ĠÃ©tn":8502,"Ġfundadores":8503,"Ġadministrativa":8504,"ĠAeroporto":8505,"iderou":8506,"colas":8507,"Ġprecip":8508,"Ġ1929":8509,"ĠdiscussÃ£o":8510,"Ġpi":8511,"amo":8512,"itamente":8513,"Ġsubsequ":8514,"ĠemprÃ©s":8515,"vindo":8516,"Ġguard":8517,"OL":8518,"ĠextinÃ§Ã£o":8519,"Ġresolver":8520,"pot":8521,"Ġtelenovela":8522,"zendo":8523,"ĠpolÃªm":8524,"ĠprovÃ¡vel":8525,"ntada":8526,"Ġsurgiram":8527,"Ġflo":8528,"Ġcertas":8529,"Ġterminando":8530,"ev":8531,"Ġpron":8532,"ĠincluÃŃa":8533,"ĠSala":8534,"ĠdecisÃµes":8535,"lando":8536,"Ġartilharia":8537,"atual":8538,"Ã¢ns":8539,"ĠopÃ§Ã£o":8540,"Ġmission":8541,"alves":8542,"ĠTel":8543,"ĠHitler":8544,"ĠcÃ©u":8545,"ety":8546,"Ġterminar":8547,"ĠSus":8548,"Ġinaugurada":8549,"Ġorigens":8550,"ĠresoluÃ§Ã£o":8551,"ĠdepressÃ£o":8552,"Ġmostram":8553,"Ġving":8554,"Ġconvite":8555,"Ã¢nicas":8556,"ĠequaÃ§Ã£o":8557,"ĠParlamento":8558,"ĠpartÃŃculas":8559,"Ġ39":8560,"Ġestudiosos":8561,"Ġassistente":8562,"ĠConfe":8563,"Ġvolumes":8564,"ĠVargas":8565,"ĠinÃºmeros":8566,"68":8567,"ĠCin":8568,"Ġlargura":8569,"ĠpontuaÃ§Ã£o":8570,"ĠDinamarca":8571,"ĠSoares":8572,"Ġ1922":8573,"Ġcomumente":8574,"Ġprojecto":8575,"07":8576,"Ġgram":8577,"Ġconcertos":8578,"Ã©rcitos":8579,"gover":8580,"ÃŃtico":8581,"ĠTorre":8582,"ĠFluminense":8583,"ĠSÃ©rgio":8584,"ĠIndia":8585,"//":8586,"ĠsÃ¡b":8587,"Ġresultando":8588,"ĠpublicaÃ§Ãµes":8589,"ĠProdu":8590,"espera":8591,"king":8592,"lamaÃ§Ã£o":8593,"Ġsubstituir":8594,"Ġgregos":8595,"ĠCarolina":8596,"ĠJÃºlio":8597,"caÃ§Ãµes":8598,"ĠStudios":8599,"Ġesgo":8600,"Ġprogram":8601,"Ġdefinitivamente":8602,"Ġabaste":8603,"Ġpede":8604,"Ġinspirado":8605,"Ġindia":8606,"idge":8607,"ĠcomposiÃ§Ãµes":8608,"tiÃ§Ã£o":8609,"Ġaparecer":8610,"cte":8611,"Ġativo":8612,"Ġ1914":8613,"ĠParaguai":8614,"estina":8615,"Ġsalvar":8616,"ĠDC":8617,"Ġcaixa":8618,"Ġsurgimento":8619,"Ġdescoberto":8620,"lado":8621,"Ġlou":8622,"ĠBl":8623,"Ġmobil":8624,"Ġlutas":8625,"Ġbrancos":8626,"ĠVasco":8627,"ĠAos":8628,"Ġcaminh":8629,"Ã´nios":8630,"Ġeixo":8631,"ĠBBC":8632,"Ġimpro":8633,"Ġcamada":8634,"ĠVictor":8635,"ĠTay":8636,"Ġescritores":8637,"comun":8638,"Ġsingles":8639,"Ġincluir":8640,"01":8641,"pecta":8642,"Ġsignificativa":8643,"Ġtransferido":8644,"ĠcatÃ³lica":8645,"Ġdoutrina":8646,"ĠJord":8647,"ĠGrand":8648,"Ġarquiteto":8649,"Ġimpostos":8650,"Ġvias":8651,"Ġtub":8652,"Ġquis":8653,"Ġitens":8654,"Ġhumanidade":8655,"sand":8656,"merica":8657,"mit":8658,"Ġaproveita":8659,"ceae":8660,"Ãªncio":8661,"PC":8662,"Ġ1919":8663,"Ġgelo":8664,"ĠGonÃ§alves":8665,"ĠDay":8666,"Ġrecurso":8667,"Ġtarefa":8668,"Ġapoiar":8669,"ĠAdministraÃ§Ã£o":8670,"Ġdemanda":8671,"ĠSantana":8672,"Ġ55":8673,"Ġmorrer":8674,"Ġrodovi":8675,"venil":8676,"ĠSob":8677,"oli":8678,"Ġmode":8679,"Ġalfabe":8680,"oni":8681,"Ġcedo":8682,"ĠSebastiÃ£o":8683,"ÃŃfer":8684,"ĠCy":8685,"Ġdeuses":8686,"estamento":8687,"Ġligada":8688,"iber":8689,"Ġ48":8690,"Ġvendidos":8691,"meiras":8692,"face":8693,"ĠEstudos":8694,"Ġnuclear":8695,"Ġdesignado":8696,"Ġmortes":8697,"Ġparcialmente":8698,"Ġmanus":8699,"ĠciÃªncias":8700,"ĠinauguraÃ§Ã£o":8701,"Ġsugere":8702,"Ġfatos":8703,"Ġconvidados":8704,"ĠespecÃŃfico":8705,"Super":8706,"Ġ65":8707,"ĠMovimento":8708,"Ġ49":8709,"Ġvisitantes":8710,"ĠchinÃªs":8711,"ĠTime":8712,"Ġpolon":8713,"ĠBaixos":8714,"leto":8715,"Ġclassificado":8716,"Ġcausar":8717,"Ġpartiu":8718,"Ġdescrita":8719,"ĠPortuguÃªs":8720,"ĠBÃŃblia":8721,"ĠPesquis":8722,"Ġweb":8723,"Ġassinatura":8724,"Ġfib":8725,"ĠBillboard":8726,"Ġcomputadores":8727,"ĠRepublic":8728,"ĠNoruega":8729,"ffs":8730,"ocÃª":8731,"Ġ34":8732,"ken":8733,"Ġtratar":8734,"ĠFazenda":8735,"64":8736,"ĠsessÃ£o":8737,"Ġgos":8738,"ĠProv":8739,"Ġeleitoral":8740,"ĠorÃ§amento":8741,"fael":8742,"ĠJÃºnior":8743,"ĠaÃŃ":8744,"Ġliberal":8745,"Ġimpera":8746,"Ġouvi":8747,"ĠraÃŃzes":8748,"ĠAngola":8749,"Ġcorrespondente":8750,"ltima":8751,"Ġtrem":8752,"Ġsudoeste":8753,"Ġfuncional":8754,"Ġenvolvidos":8755,"une":8756,"Ġalgorit":8757,"cipa":8758,"inclu":8759,"ĠRoyal":8760,"landÃªs":8761,"Ġdedicada":8762,"ĠWalter":8763,"Ġambiental":8764,"Bar":8765,"ĠconstituÃŃdo":8766,"ÃŃqu":8767,"ecem":8768,"Ġhab":8769,"Ġamar":8770,"ĠPartic":8771,"Ġsitua":8772,"Ġtelevis":8773,"Ġherdeiro":8774,"He":8775,"ĠBR":8776,"taneamente":8777,"ĠCuritiba":8778,"Ġpropostas":8779,"ĠherÃ³i":8780,"Ġmarcando":8781,"ĠMano":8782,"Ġestim":8783,"ĠRodrigo":8784,"Ã©ricas":8785,"Ġhem":8786,"ĠSeguranÃ§a":8787,"Ġcavalo":8788,"ĠJas":8789,"Ġsacri":8790,"Ġprossegu":8791,"Ġporte":8792,"Ġcardeal":8793,"rie":8794,"79":8795,"utas":8796,"Ġtrazer":8797,"Ġocupou":8798,"Ġexatamente":8799,"Ġfeliz":8800,"sar":8801,"fogo":8802,"key":8803,"ĠSilv":8804,"ĠconsiderÃ¡vel":8805,"udio":8806,"tono":8807,"Ġsimpl":8808,"ĠGio":8809,"Ġadmira":8810,"formas":8811,"Ġbanc":8812,"ĠMike":8813,"down":8814,"ĠGusta":8815,"Ġfunciona":8816,"Ġescapar":8817,"ĠNegro":8818,"ĠWWE":8819,"ĠSteph":8820,"Ġconfronto":8821,"zy":8822,"ĠAndrade":8823,"AM":8824,"ĠGuer":8825,"out":8826,"Ġescolher":8827,"Ġpobres":8828,"anche":8829,"03":8830,"Ġdeseja":8831,"Ġdefendeu":8832,"ĠRocha":8833,"Ġrebeldes":8834,"ĠDig":8835,"ĠCole":8836,"Ġpoliciais":8837,"Ġrequis":8838,"Ġcompre":8839,"Ġsurpres":8840,"Ġrepresentam":8841,"Ġalma":8842,"ĠvÃŃrus":8843,"Ġsubstituindo":8844,"Ġvigor":8845,"med":8846,"eixe":8847,"ĠagÃªncia":8848,"Ġincom":8849,"restling":8850,"ĠcÃ©":8851,"pso":8852,"ĠBuenos":8853,"etano":8854,"ĠaÃ©rea":8855,"pondo":8856,"ĠMÃ©dia":8857,"ĠZelÃ¢ndia":8858,"tÃ¡ria":8859,"Ġpedras":8860,"ĠdanÃ§ar":8861,"ificadas":8862,"ĠTrabalh":8863,"Ġmarcas":8864,"ĠFernandes":8865,"Ġirreg":8866,"ĠBom":8867,"Ġestudante":8868,"queles":8869,"Star":8870,"ĠJohan":8871,"ĠMarvel":8872,"Ġhotel":8873,"ĠsubstituiÃ§Ã£o":8874,"Ġtran":8875,"69":8876,"Ġdispositivos":8877,"ĠintegraÃ§Ã£o":8878,"ll":8879,"Ġreuniu":8880,"medi":8881,"Ġtril":8882,"itter":8883,"hr":8884,"reiros":8885,"ĠVII":8886,"Ġimplica":8887,"parta":8888,"ĠMata":8889,"Ġguerras":8890,"ĠBiblioteca":8891,"Ġteles":8892,"ĠHay":8893,"ĠescritÃ³rio":8894,"ĠvariaÃ§Ã£o":8895,"ĠpÃ³":8896,"Ġneuro":8897,"Ġligados":8898,"ami":8899,"ÃŃsica":8900,"presenta":8901,"ret":8902,"ĠGro":8903,"ĠLeste":8904,"Ġfasc":8905,"ĠsucessÃ£o":8906,"ĠbraÃ§o":8907,"Ġ1912":8908,"Ġabrir":8909,"Ġassociada":8910,"Ġreconhecida":8911,"ull":8912,"postamente":8913,"Ġmat":8914,"Ġeuropeia":8915,"Ġfronteiras":8916,"Ġrica":8917,"Ġingleses":8918,"Ġgerais":8919,"Ġia":8920,"ĠUFC":8921,"ĠTÃ©cn":8922,"Ġcarbono":8923,"ĠHouse":8924,"Ġfura":8925,"idal":8926,"ĠmuÃ§ulmanos":8927,"ĠPacÃŃfico":8928,"ÃŃlica":8929,"ĠDiego":8930,"idaÃ§Ã£o":8931,"Ġmanip":8932,"ĠcontrovÃ©r":8933,"Ġband":8934,"ĠUnited":8935,"ĠcientÃŃfico":8936,"ĠGovernador":8937,"Ã§am":8938,"intendo":8939,"ĠZona":8940,"rÃ¢neo":8941,"hamento":8942,"sta":8943,"ĠesperanÃ§a":8944,"AP":8945,"Ġdesenvolvida":8946,"ĠConceiÃ§Ã£o":8947,"ĠNelson":8948,"adia":8949,"Du":8950,"amentos":8951,"Ġorganizada":8952,"Ġteat":8953,"enamento":8954,"ĠÐ":8955,"ĠSun":8956,"Ġprofessora":8957,"Ġprisioneiros":8958,"Ġjuntar":8959,"ray":8960,"ĠUrb":8961,"Ġexclu":8962,"://":8963,"Ġadicionais":8964,"Ġeurop":8965,"Ġdepende":8966,"Ġintegrar":8967,"ormes":8968,"Ġjardas":8969,"ĠArthur":8970,"Ġtera":8971,"Ġaprovei":8972,"Ġhistor":8973,"Ġcerco":8974,"ĠTeresa":8975,"Ġgravada":8976,"ĠTurquia":8977,"Ġfamosos":8978,"ĠâĢĺ":8979,"Ġvar":8980,"ndere":8981,"ĠPouco":8982,"Ġeleitos":8983,"Hist":8984,"ĠconstruÃŃdos":8985,"Ġintu":8986,"ĠVenez":8987,"ĠÃ³rbita":8988,"ting":8989,"Ġliderou":8990,"Ġanualmente":8991,"unciou":8992,"Ġreci":8993,"Ġrad":8994,"ificando":8995,"ĠOpera":8996,"ĠMaranhÃ£o":8997,"ĠEngenharia":8998,"ĠolÃŃmp":8999,"ĠcombustÃŃvel":9000,"esco":9001,"roco":9002,"Ġesquad":9003,"72":9004,"Äĩ":9005,"ĠestÃ¡tua":9006,"ĠlanÃ§aram":9007,"feito":9008,"Ġqueb":9009,"Ġacompanhado":9010,"CE":9011,"ĠforÃ§ado":9012,"âĢ¢":9013,"ĠYu":9014,"ĠBir":9015,"ĠBelÃ©m":9016,"ĠIraque":9017,"62":9018,"doso":9019,"Ġvencendo":9020,"ĠfÃ³rmula":9021,"ĠBrit":9022,"Ġcujas":9023,"ĠCatedral":9024,"ĠtÃ©cnicos":9025,"Ġpesquisadores":9026,"ĠincÃªndio":9027,"ĠXIII":9028,"hei":9029,"Ġdono":9030,"âĢĶ":9031,"ĠFlamengo":9032,"hel":9033,"ĠfÃ³s":9034,"Ġcausando":9035,"ĠpropÃ³sito":9036,"Ġdemol":9037,"Ġselva":9038,"lesi":9039,"Ġdefici":9040,"Ġsimbol":9041,"Ġferramentas":9042,"traÃ§Ã£o":9043,"Ġcomprom":9044,"Ġconsiderar":9045,"Ju":9046,"Ġsai":9047,"idel":9048,"Ġvapor":9049,"59":9050,"Ġpior":9051,"Ġ1931":9052,"ĠMoscou":9053,"Ġpossuir":9054,"Ġriqueza":9055,"ĠComunista":9056,"Ġquente":9057,"Ġtou":9058,"...]":9059,"ĠBr":9060,"ĠÃ¢ng":9061,"Ġlenda":9062,"Ġdefinir":9063,"teria":9064,"hadas":9065,"ĠHungria":9066,"icano":9067,"Ġfotograf":9068,"ĠUniversity":9069,"rosoft":9070,"Ġeman":9071,"58":9072,"Ã³nica":9073,"tÃ©m":9074,"Ġpico":9075,"Ġcens":9076,"Ġacusado":9077,"Ġdestruir":9078,"Ġlateral":9079,"Ġtriun":9080,"ÃŃmetros":9081,"izaÃ§Ãµes":9082,"Ġentidades":9083,"Ġentraram":9084,"Ġcoinc":9085,"ĠIlhas":9086,"ĠrÃ¡dios":9087,"Ġrevis":9088,"ĠmÃ¡r":9089,"Ġdra":9090,"ĠpreÃ§os":9091,"brou":9092,"Ġconjuntos":9093,"ĠCP":9094,"inthia":9095,"Ġdependendo":9096,"Ġstatus":9097,"Ġquare":9098,"ĠViena":9099,"Ġaliment":9100,"Station":9101,"ĠVieira":9102,"Ġpermitem":9103,"ĠcapÃŃtulos":9104,"Ã´mbia":9105,"ĠHy":9106,"Ġditadura":9107,"Ġficam":9108,"ĠCanal":9109,"ĠDemocra":9110,"Ġautonomia":9111,"Ġtorce":9112,"ĠEns":9113,"rise":9114,"Ġintegrante":9115,"ĠocasiÃµes":9116,"Ġvento":9117,"ĠnotÃŃcia":9118,"Ġventos":9119,"book":9120,"ĠconfianÃ§a":9121,"Ġlit":9122,"Ġcun":9123,"Ġbancos":9124,"Ã§adas":9125,"Ġcontando":9126,"Ġfracas":9127,"enciais":9128,"ĠVerÃ£o":9129,"Ġintensidade":9130,"ĠTaylor":9131,"ĠcomeÃ§am":9132,"Ġcondenado":9133,"ĠFerra":9134,"Ġiniciar":9135,"Ġcavalaria":9136,"Ġentender":9137,"MG":9138,"Ġcostas":9139,"Ġaceitar":9140,"Ġvender":9141,"Ġfinancia":9142,"Ġplacar":9143,"Ġ1926":9144,"Ġdezesse":9145,"ĠadversÃ¡rio":9146,"Ġlimitada":9147,"ĠvariÃ¡veis":9148,"alizada":9149,"ĠModer":9150,"ĠÃģlva":9151,"anal":9152,"Ġatuando":9153,"Ġcanta":9154,"Ġvizinhos":9155,"ĠmecÃ¢nica":9156,"Ġdispositivo":9157,"ĠexercÃŃcio":9158,"viam":9159,"Ġentregue":9160,"Ġcenso":9161,"ĠUr":9162,"Ġensina":9163,"ĠÃ¡rabes":9164,"ĠServiÃ§o":9165,"inthians":9166,"Ã³stico":9167,"Ġextremo":9168,"Ġcomprar":9169,"Ãªmeas":9170,"ifa":9171,"Ġacervo":9172,"odor":9173,"Ġadia":9174,"Ġalcance":9175,"Ġgraus":9176,"ĠvegetaÃ§Ã£o":9177,"Ġprofundidade":9178,"Ġculmin":9179,"ien":9180,"Ġaumenta":9181,"Ġ...":9182,"ĠproduÃ§Ãµes":9183,"ĠnomeaÃ§Ã£o":9184,"tismo":9185,"ĠmanifestaÃ§Ãµes":9186,"02":9187,"ĠStor":9188,"ĠAuto":9189,"adoras":9190,"Ġjud":9191,"gress":9192,"ĠSteve":9193,"ĠcomeÃ§ando":9194,"Ġviajou":9195,"Ġreferido":9196,"Ġinvestimento":9197,"Ġrussa":9198,"Ġpeixes":9199,"ĠFrancis":9200,"ornada":9201,"Ġmunicipais":9202,"Ġrecomend":9203,"Ġondas":9204,"ĠIma":9205,"ĠmetÃ¡":9206,"entura":9207,"Ġfuga":9208,"Ġvinha":9209,"ĠelÃ©":9210,"06":9211,"ĠVin":9212,"ĠBrig":9213,"Ġchance":9214,"ĠlegislaÃ§Ã£o":9215,"Ġmajor":9216,"ĠimplantaÃ§Ã£o":9217,"Ġinvestimentos":9218,"Ġcolocada":9219,"ĠindicaÃ§Ã£o":9220,"Ġpse":9221,"Ġconselh":9222,"junto":9223,"ĠMora":9224,"ĠFrancesa":9225,"Ġcontribuiu":9226,"Ġcatal":9227,"OR":9228,"cool":9229,"Ġmosteiro":9230,"Ġespectadores":9231,"Ġprior":9232,"Ã´mico":9233,"ranking":9234,"Ġpilotos":9235,"tÃº":9236,"Ins":9237,"Ġponta":9238,"ĠÃ³leo":9239,"Ġrespondeu":9240,"ĠirmÃ£s":9241,"Ġcelular":9242,"dura":9243,"ĠgÃ©nero":9244,"Ġmarcada":9245,"Ġefica":9246,"Ġdestacou":9247,"urt":9248,"Tem":9249,"ĠDio":9250,"Ġnobres":9251,"ĠNews":9252,"Ġarmazen":9253,"Ġtaxas":9254,"ĠHolanda":9255,"ĠMestre":9256,"Ġexistia":9257,"Ġdeputados":9258,"ĠpatrimÃ´nio":9259,"ĠclÃ¡ssicos":9260,"Ġestradas":9261,"ĠPadre":9262,"Ġrico":9263,"cesa":9264,"ĠSBT":9265,"dente":9266,"Ġsofr":9267,"Ġcolocados":9268,"ĠLive":9269,"Ġcron":9270,"Ġ1928":9271,"Ġagress":9272,"Ġportal":9273,"ulaÃ§Ãµes":9274,"Ġpan":9275,"ĠEric":9276,"chal":9277,"rativa":9278,"ĠColumb":9279,"bara":9280,"Ġconfirma":9281,"keting":9282,"98":9283,"Ġ1924":9284,"ĠLivro":9285,"Ġimag":9286,"ĠNintendo":9287,"ĠdeclÃŃnio":9288,"ĠexÃ©rcitos":9289,"ĠAmerica":9290,"viaÃ§Ã£o":9291,"pace":9292,"Ġpoema":9293,"ĠcÃ´nsul":9294,"Ġ1911":9295,"parou":9296,"ĠBarbosa":9297,"lhes":9298,"Ġtorcida":9299,"Ġpreen":9300,"ĠMuitas":9301,"Ġsetores":9302,"ĠSag":9303,"Ġaprendiz":9304,"04":9305,"ĠClÃ¡u":9306,"ĠidentificaÃ§Ã£o":9307,"mil":9308,"ĠSecretÃ¡rio":9309,"ĠNapoleÃ£o":9310,"ĠCunha":9311,"ĠnecessÃ¡rios":9312,"Ġage":9313,"ches":9314,"Ġenvolvido":9315,"ĠMicrosoft":9316,"ĠInicialmente":9317,"mÃ¡tico":9318,"Ġoferecer":9319,"ĠKir":9320,"tod":9321,".\"\"":9322,"Ġingressou":9323,"Ġigno":9324,"Ġtransformou":9325,"Ġacabaram":9326,"ĠnotÃ¡veis":9327,"ĠVermelho":9328,"Ġampli":9329,"Ġdecidiram":9330,"ĠLew":9331,"ĠÂłĠÂł":9332,"errou":9333,"Ġpositiva":9334,"Ġconfirmado":9335,"Ġcadeira":9336,"Ġseca":9337,"Ġbur":9338,"ĠpreparaÃ§Ã£o":9339,"Ġina":9340,"ines":9341,"trÃ´":9342,"Ġdigitais":9343,"Ġnele":9344,"Ġcompro":9345,"trons":9346,"Ġdegra":9347,"Ã³b":9348,"ĠOrig":9349,"Ġconfund":9350,"Ġentrega":9351,"ips":9352,"Ġpopulacional":9353,"Ġtransmitido":9354,"Ġvirtude":9355,"ĠLas":9356,"Ġbud":9357,"Ã¢nd":9358,"ĠSendo":9359,"ĠaquisiÃ§Ã£o":9360,"Ġcarioca":9361,"ĠtripulaÃ§Ã£o":9362,"ĠFou":9363,"ĠAus":9364,"cionado":9365,"Ġcontinuidade":9366,"Ġexpecta":9367,"Ġbaseados":9368,"Ġcompletar":9369,"Ġselo":9370,"Ġouvir":9371,"ĠKong":9372,"Ġuniversal":9373,"Ġfinanceiro":9374,"Ġmesa":9375,"ĠJeff":9376,"Ġmecanismo":9377,"Ġrepresentado":9378,"AN":9379,"ĠTony":9380,"ĠMay":9381,"Ġpira":9382,"inÃ©":9383,"tiza":9384,"ĠBernardo":9385,"Ġgene":9386,"Ġficava":9387,"Ġsupostamente":9388,"Ġsue":9389,"Ġparticulares":9390,"Ġamiga":9391,"ĠparticipaÃ§Ãµes":9392,"ĠCenter":9393,"titudes":9394,"formaÃ§Ã£o":9395,"2011":9396,"ĠlicenÃ§a":9397,"Ġaventu":9398,"Ġatender":9399,"ĠÃ¡to":9400,"Ġpredomina":9401,"Ġiniciado":9402,"Ġdedicou":9403,"Ġinteiramente":9404,"damente":9405,"ĠGua":9406,"Ġrecomp":9407,"Ġatleta":9408,"iÃ¡":9409,"Ġessencialmente":9410,"ux":9411,"estes":9412,"Ġtese":9413,"tizada":9414,"bis":9415,"Ġgri":9416,"ĠEstrada":9417,"ĠsÃŃmbolos":9418,"ĠBoston":9419,"ordes":9420,"ĠCiÃªncia":9421,"Ġabord":9422,"deram":9423,"IV":9424,"ĠBoy":9425,"ĠdesignaÃ§Ã£o":9426,"ĠLeopol":9427,"Ġsubord":9428,"ÃŃnia":9429,"ĠvariaÃ§Ãµes":9430,"71":9431,"Ġinform":9432,"Ġfaziam":9433,"ĠEliza":9434,"Ġpaga":9435,"Ġsig":9436,"Ġrelacionado":9437,"Ġliderada":9438,"54":9439,"ĠCoo":9440,"ĠKen":9441,"Ġancestra":9442,"Ġactual":9443,"ĠPT":9444,"ĠPio":9445,"ĠPossui":9446,"Ġzero":9447,"Ġconter":9448,"Ġpoderoso":9449,"Ġcolunas":9450,"Ġmoeda":9451,"Ġ1927":9452,"Ġfrequent":9453,"ĠSy":9454,"Pri":9455,"fel":9456,"ĠPlayStation":9457,"Ġanime":9458,"Ġdubl":9459,"Ġarcebispo":9460,"Ġinterpretar":9461,"ĠrecepÃ§Ã£o":9462,"Ġcolor":9463,"esuÃŃ":9464,"ĠPode":9465,"Ġintelectual":9466,"Ġmedieval":9467,"idez":9468,"ĠPala":9469,"Ġsonho":9470,"ĠAmazonas":9471,"Ġpermanecer":9472,"Ġcorridas":9473,"gueiro":9474,"ĠcontribuiÃ§Ã£o":9475,"ittle":9476,"ĠatraÃ§Ã£o":9477,"chester":9478,"Ġetapas":9479,"ĠAssociation":9480,"itan":9481,"Ġrob":9482,"ceis":9483,"Ġquadros":9484,"ĠconstituÃŃda":9485,"Ġrosto":9486,"Ġfilos":9487,"Ġquadrados":9488,"dice":9489,"Ġcomprou":9490,"jou":9491,"Ġexistir":9492,"Ġafro":9493,"ĠCorinthians":9494,"Fo":9495,"Ġorganizar":9496,"Ġoto":9497,"ĠTeix":9498,"ĠEspanh":9499,"ĠcomentÃ¡rios":9500,"Ġespal":9501,"Ġprovis":9502,"ĠinteraÃ§Ã£o":9503,"quistÃ£o":9504,"Ġconstitui":9505,"ĠLen":9506,"Ġaluno":9507,"83":9508,"ĠcÃ©re":9509,"ĠColÃ´mbia":9510,"ĠligaÃ§Ãµes":9511,"orreu":9512,"Ġpreciso":9513,"vÃ©s":9514,"ĠtÃºm":9515,"ĠFamÃŃlia":9516,"TS":9517,"ĠCorn":9518,"Ġesportes":9519,"Ġbrig":9520,"ĠislÃ¢":9521,"ĠproteÃŃnas":9522,"ĠhÃ¡b":9523,"ĠindÃºstrias":9524,"Ġconstitucional":9525,"seca":9526,"Ġjardim":9527,"mados":9528,"Ġced":9529,"Ġcanh":9530,"Ġiniciada":9531,"63":9532,"pus":9533,"ĠAta":9534,"Ġbatalhas":9535,"Ġonline":9536,"cade":9537,"ĠLife":9538,"orth":9539,"aros":9540,"Ã³rica":9541,"Ġ\"\",":9542,"Ġconceb":9543,"ĠpreocupaÃ§Ã£o":9544,"load":9545,"Ġnativos":9546,"ĠLes":9547,"Ġcriadas":9548,"ndiais":9549,"ĠdimensÃ£o":9550,"Ġmontanha":9551,"Ġgerou":9552,"Ġcurva":9553,"Ġestabelecida":9554,"Ð°":9555,"Ġconspira":9556,"ĠUp":9557,"Ã³rcio":9558,"Ġambientes":9559,"phy":9560,"ĠLÃŃb":9561,"Ġcastel":9562,"Ġsimultaneamente":9563,"ĠpropÃ´s":9564,"Ġatacante":9565,"ĠPaula":9566,"ĠalimentaÃ§Ã£o":9567,"cÃ§Ãµes":9568,"Ġcontos":9569,"Ġoperacional":9570,"ĠAM":9571,"Ġmediante":9572,"issem":9573,"Ġ64":9574,"74":9575,"Ġoriu":9576,"Ġbaterista":9577,"Devido":9578,"cond":9579,"ĠConferÃªncia":9580,"Ġtribunal":9581,"Ġconsiderando":9582,"Ġcristianismo":9583,"ÃŃne":9584,"Ġesto":9585,"Ġfutura":9586,"ĠSi":9587,"Ġmelo":9588,"Ġidioma":9589,"Ġ1900":9590,"Ġprevia":9591,"Ġlatino":9592,"61":9593,"Ġ42":9594,"84":9595,"Ġpoemas":9596,"ĠFÃ³rmula":9597,"ĠacusaÃ§Ãµes":9598,"inadas":9599,"Ġmedal":9600,"Ġintegral":9601,"yon":9602,"ĠFinal":9603,"Ġoxig":9604,"culares":9605,"icio":9606,"Ġleite":9607,"ĠsubstituÃŃda":9608,"Ġcontraste":9609,"plica":9610,"Ġdiversidade":9611,"Ġenfer":9612,"Ġorganismos":9613,"Ġnaval":9614,"Ġabrange":9615,"uc":9616,"garo":9617,"ĠpÃªn":9618,"Ġenfa":9619,"Ġcompanhias":9620,"ĠDoutor":9621,"Melhor":9622,"ĠjesuÃŃ":9623,"Ġdeixaram":9624,"ak":9625,"cionar":9626,"Ġflorestas":9627,"uo":9628,"fÃ©u":9629,"Ġcod":9630,"Ġsimilares":9631,"ĠFilip":9632,"aldade":9633,"Ãºva":9634,"ĠcorrupÃ§Ã£o":9635,"Ġgira":9636,"Ġderiva":9637,"Ġcelebra":9638,"Ġauxiliar":9639,"portivo":9640,"ĠRafael":9641,"ĠGri":9642,"Ġtecnologias":9643,"ĠHarris":9644,"Ġnormas":9645,"53":9646,"ĠavÃ´":9647,"Ġcale":9648,"Ġexcelente":9649,"ĠrevisÃ£o":9650,"ĠJaco":9651,"Ġdram":9652,"Ġpatr":9653,"Ġinstalado":9654,"ĠCampeÃµes":9655,"ĠdÃ£o":9656,"Ġreman":9657,"Ãºria":9658,"Ġreproduz":9659,"ĠfreqÃ¼":9660,"ben":9661,"ĠÃļ":9662,"Ġinfin":9663,"ĠZo":9664,"Comp":9665,"ary":9666,"timos":9667,"ĠÃºtil":9668,"ĠBroad":9669,"ĠFis":9670,"Ġocupar":9671,"Ġfotografia":9672,"Ġcora":9673,"ĠXIV":9674,"Ġidentificar":9675,"Ġvisando":9676,"ĠEditora":9677,"Ġtempor":9678,"Ġparlamento":9679,"ĠCax":9680,"Ġterrestre":9681,"Ġencontraram":9682,"upi":9683,"Ġescritas":9684,"Ġlimitado":9685,"ĠMiranda":9686,"ĠXII":9687,"ideram":9688,"Ġ1923":9689,"Ġdirigida":9690,"Ġaustr":9691,"ĠBad":9692,"ĠdÃ©cima":9693,"Ġchinesa":9694,"mirante":9695,"Ġparar":9696,"ĠconcessÃ£o":9697,"Ġcoronel":9698,"ĠconstruÃ§Ãµes":9699,"ĠespecÃŃficos":9700,"Ġcompanheiros":9701,"ĠEsporte":9702,"Ã³quio":9703,"Ġperante":9704,"Ġ1925":9705,"ĠCuba":9706,"die":9707,"gregaÃ§Ã£o":9708,"Ġliderado":9709,"ĠBranca":9710,"ĠNicola":9711,"Ġespecialistas":9712,"Ġabandonou":9713,"Th":9714,"Ġclaramente":9715,"Ġ250":9716,"ĠAÃ§ores":9717,"gil":9718,"gram":9719,"ĠSir":9720,"riano":9721,"Ġlaterais":9722,"Ġarras":9723,"ĠUF":9724,"Ã³gico":9725,"Ġcento":9726,"Ġpred":9727,"ĠsÃ©timo":9728,"ĠRick":9729,"Ġexerceu":9730,"ĠPictures":9731,"ĠsoluÃ§Ãµes":9732,"plares":9733,"Ġdirigir":9734,"Ġnarrativa":9735,"Ġcobre":9736,"Ġdistintas":9737,"Ġgr":9738,"Geral":9739,"ĠestÃºdios":9740,"Ġreferir":9741,"Ġcliente":9742,"ĠWarner":9743,"ĠcampeÃ£":9744,"Ġdescrever":9745,"Col":9746,"rido":9747,"ĠYoung":9748,"ĠcrenÃ§a":9749,"enho":9750,"ĠLaw":9751,"ĠcolÃ©gio":9752,"tagem":9753,"ĠexposiÃ§Ãµes":9754,"campeÃ£o":9755,"Ġderrub":9756,"Ġfinalidade":9757,"Ġdisputada":9758,"Ġmim":9759,"Ġbons":9760,"ensa":9761,"Ġarrecad":9762,"Ġrendeu":9763,"Ġintervalo":9764,"ĠForÃ§as":9765,"athan":9766,"Ġaristo":9767,"ĠChart":9768,"Ġurban":9769,"ĠPoder":9770,"Ġsalva":9771,"Ġeliminado":9772,"Ġsuf":9773,"ĠTeixeira":9774,"Sh":9775,"TE":9776,"ĠPit":9777,"Ġequipamento":9778,"Ġcanadense":9779,"ĠClark":9780,"Ġmere":9781,"Ġalegando":9782,"idae":9783,"ĠHard":9784,"Ġseguidores":9785,"Ac":9786,"Ġtornam":9787,"ĠProfessor":9788,"Ġrespira":9789,"ĠVenezuela":9790,"DA":9791,"Ġcompor":9792,"Ġexpressa":9793,"Ġcantou":9794,"Ġprobabilidade":9795,"Ġgado":9796,"Ġlidar":9797,"Ġescrevendo":9798,"Ġpositivas":9799,"Ġpresidencial":9800,"very":9801,"Ã³lio":9802,"81":9803,"ĠOx":9804,"inaram":9805,"imarÃ£es":9806,"Ġincidente":9807,"ĠCastela":9808,"Ġabandonar":9809,"ĠDoug":9810,"ĠFlore":9811,"Ġenca":9812,"Ġaprovado":9813,"Ġprotestos":9814,"ĠHarry":9815,"ĠBruno":9816,"ĠItal":9817,"Ġseriado":9818,"Ġocidentais":9819,"Ġtornado":9820,"Ġerros":9821,"ĠÃ³pera":9822,"Ġ(),":9823,"Ġconquistando":9824,"Ġparecia":9825,"izam":9826,"tical":9827,"ĠKn":9828,"Ġbacia":9829,"Ġvisu":9830,"Ġsar":9831,"Ã¡sio":9832,"ors":9833,"tuna":9834,"Ġobservou":9835,"Ġlongas":9836,"New":9837,"82":9838,"ĠVil":9839,"ring":9840,"inn":9841,"Ġcamadas":9842,"ĠconferÃªncia":9843,"Ġconstantemente":9844,"56":9845,"Ġanf":9846,"Ġexemplares":9847,"Ġsofrer":9848,"Ġcavalos":9849,"Ġcine":9850,"Ġcandidatura":9851,"ĠfabricaÃ§Ã£o":9852,"Ġdispers":9853,"Ġnobreza":9854,"ĠJac":9855,"Ġrigor":9856,"Ġvidas":9857,"Ġestimada":9858,"Ġrelevo":9859,"Ġacerca":9860,"Ġmorreram":9861,"Ġindustria":9862,"ĠPatrim":9863,"Ġmonarca":9864,"Ġapelido":9865,"ĠSupremo":9866,"ĠconexÃ£o":9867,"Ġaero":9868,"ĠAnna":9869,"97":9870,"Ġprodutora":9871,"ĠÃªxito":9872,"Ġcirurgia":9873,"ĠatribuÃŃdo":9874,"Ġtenente":9875,"Ġpont":9876,"52":9877,"ĠmÃ©dica":9878,"adoria":9879,"ĠAmbos":9880,"Ġrespei":9881,"Ġcomida":9882,"Ġdeixado":9883,"Ġcolega":9884,"ĠViet":9885,"Bras":9886,"Ġatitude":9887,"Ġendere":9888,"ĠFord":9889,"ĠdiÃ¢metro":9890,"Ġesquerdo":9891,"Ġplena":9892,"Ġorganizou":9893,"Ġplaca":9894,"Ġchanc":9895,"Ġplacas":9896,"cht":9897,"Ġplataformas":9898,"AF":9899,"Ġdominante":9900,"Ġmantido":9901,"Ġparentes":9902,"Ġrelato":9903,"Ã¢neas":9904,"ĠproprietÃ¡rios":9905,"ĠBarros":9906,"Ġretirar":9907,"ĠPortanto":9908,"Ġana":9909,"ĠCÃ³digo":9910,"atÃ³rias":9911,"fas":9912,"ĠExecu":9913,"Ġescolheu":9914,"92":9915,"Tube":9916,"ĠEuropeu":9917,"Ġincentiv":9918,"Ġcama":9919,"Ġpares":9920,"Ġtocou":9921,"ĠconcepÃ§Ã£o":9922,"ĠPrefeitura":9923,"Ġajus":9924,"Ġsobrinho":9925,"ĠCarlo":9926,"ĠAmericana":9927,"ĠradiaÃ§Ã£o":9928,"Ġtribo":9929,"tric":9930,"ĠHistÃ³rico":9931,"Ġenfra":9932,"ĠincluÃŃdo":9933,"Ġincons":9934,"Ġprev":9935,"ĠSony":9936,"Ġpesca":9937,"ĠCardoso":9938,"Ġsobreviventes":9939,"Ġesquema":9940,"ĠagrÃŃcola":9941,"gg":9942,"ipou":9943,"Ġterminal":9944,"Ġmister":9945,"Ġsignificativo":9946,"Ġ1890":9947,"pado":9948,"ĠVelho":9949,"ĠaÃ§o":9950,"Ġdezenas":9951,"Ġfortaleza":9952,"Ġdiagn":9953,"Ġinterpretado":9954,"ĠKenn":9955,"Ã±a":9956,"ds":9957,"Ġelogiou":9958,"Jos":9959,"uraÃ§Ã£o":9960,"ĠHenri":9961,"Ġdecre":9962,"ĠBase":9963,"gicos":9964,"Ġuniforme":9965,"US":9966,"lem":9967,"ĠPÃ¡":9968,"Ã³sitos":9969,"Ġalar":9970,"Ġ1921":9971,"ĠKat":9972,"portes":9973,"ĠFilosofia":9974,"Ġabriga":9975,"ĠRela":9976,"Ġjuventude":9977,"estar":9978,"Ġcolonos":9979,"turb":9980,"ĠToro":9981,"Ġ1913":9982,"ĠYe":9983,"Ġchuva":9984,"Ġamplo":9985,"ĠeconÃ´micas":9986,"present":9987,"Ġimpuls":9988,"cks":9989,"Ġprogresso":9990,"Ġrurais":9991,"ĠpÃ´de":9992,"Ġrochas":9993,"Ġboca":9994,"Ġtransformar":9995,"estas":9996,"ĠmÃ¡s":9997,"ĠGene":9998,"Ġespalh":9999,"Ġquarenta":10000,"ĠTerceira":10001,"Ġsabia":10002,"Ġapresentava":10003,"ficaÃ§Ã£o":10004,"Ġcompanheiro":10005,"zu":10006,"Ġopon":10007,"bin":10008,"nciais":10009,"Ġmanc":10010,"Ġexcess":10011,"iguidade":10012,"Ġescolar":10013,"Ġovos":10014,"ĠGarcia":10015,"Ġocupado":10016,"Ġgoleiro":10017,"Ġressal":10018,"gr":10019,"pou":10020,"tares":10021,"Ġenvolvimento":10022,"ĠexÃŃlio":10023,"ntese":10024,"ĠestÃ¡gio":10025,"ĠLivre":10026,"ralmente":10027,"ĠGuimarÃ£es":10028,"AL":10029,"Ġplu":10030,"ĠDer":10031,"Ġperfil":10032,"Ġexplicar":10033,"ende":10034,"ole":10035,"Ġofereceu":10036,"Ġdoura":10037,"ĠevidÃªncia":10038,"Ġmenina":10039,"ĠOb":10040,"Ġwith":10041,"ĠcolonizaÃ§Ã£o":10042,"ĠVIII":10043,"ĠcÃ¡":10044,"Ġholand":10045,"ĠcÃ©rebro":10046,"Ġ;":10047,"trans":10048,"ĠRose":10049,"Ġjogando":10050,"ĠHero":10051,"ĠCapital":10052,"Ġmonumento":10053,"Ġgente":10054,"ĠimpressÃ£o":10055,"Ġadotou":10056,"ĠidÃªnt":10057,"rÃŃvel":10058,"ĠPIB":10059,"Ġgarota":10060,"ĠadiÃ§Ã£o":10061,"Ġresolveu":10062,"ĠHelena":10063,"51":10064,"ĠeletrÃ´nica":10065,"Ã³rgia":10066,"ĠcristÃ£o":10067,"Ġrecusa":10068,"ĠreputaÃ§Ã£o":10069,"Ġjanelas":10070,"Ġcra":10071,"ĠobservaÃ§Ã£o":10072,"Ġtrabalhava":10073,"Ġcondado":10074,"fase":10075,"Ã©rpre":10076,"Ġterritorial":10077,"Ġduplo":10078,"Ġraramente":10079,"Ġpalest":10080,"Ġindire":10081,"ĠTrin":10082,"ĠcritÃ©rios":10083,"ĠSP":10084,"Ġperigo":10085,"Ġcil":10086,"tentes":10087,"ĠDNA":10088,"Ġautoma":10089,"ĠProvÃŃncia":10090,"ĠDol":10091,"ĠAtla":10092,"travÃ©s":10093,"ĠMario":10094,"Ġrenas":10095,"Ġespecializada":10096,"versa":10097,"Ġpaciente":10098,"ĠbÃŃbl":10099,"Ġsentimentos":10100,"ĠvariÃ¡vel":10101,"Ġvendidas":10102,"Ġresulta":10103,"Ġacreditam":10104,"Ġcultiv":10105,"Ġencerrou":10106,"Ġdesfil":10107,"Ġvermelha":10108,"ĠInfant":10109,"ĠConf":10110,"ĠrepÃºblica":10111,"igi":10112,"emo":10113,"Ġpublica":10114,"Ġoportunidades":10115,"ĠinscriÃ§Ã£o":10116,"Ġmostrado":10117,"cm":10118,"ĠHugo":10119,"ĠBell":10120,"Ġtecido":10121,"esses":10122,"Ġmodalidade":10123,"Ġcortes":10124,"mante":10125,"Ġmora":10126,"Ġcriador":10127,"Ġharmon":10128,"cker":10129,"Ġinov":10130,"ĠFred":10131,"vard":10132,"ĠCapela":10133,"Ġ1915":10134,"dit":10135,"Ã³rida":10136,"73":10137,"Ġeleitores":10138,"Ġhiper":10139,"Ġformaram":10140,"tilidade":10141,"Ġvivos":10142,"ĠPenÃŃnsula":10143,"Ġqueim":10144,"Ġesperado":10145,"hon":10146,"ideo":10147,"Ġblocos":10148,"ĠCB":10149,"olfo":10150,"ĠMus":10151,"ĠGiovan":10152,"Ġcair":10153,"ĠKid":10154,"Ã¡gua":10155,"ĠTorneio":10156,"ĠAlexander":10157,"96":10158,"Ġacol":10159,"rÃ¡s":10160,"ĠreproduÃ§Ã£o":10161,"adi":10162,"ĠVis":10163,"ĠespecÃŃfica":10164,"gadores":10165,"Ġ[...]":10166,"jÃ¡":10167,"aras":10168,"ĠBall":10169,"Ġconseguindo":10170,"Ġentrevistas":10171,"Ġprimeiramente":10172,"ĠLong":10173,"Ġpercurso":10174,"Ġbrilhante":10175,"Ġgraves":10176,"MDB":10177,"usias":10178,"inheiros":10179,"ĠJunior":10180,"ystem":10181,"ĠTempo":10182,"ĠanÃºncio":10183,"tegoria":10184,"ĠgraduaÃ§Ã£o":10185,"Ġacampa":10186,"quita":10187,"ĠAlice":10188,"Ġregistrou":10189,"Ġhosped":10190,"Ġtalentos":10191,"ĠGran":10192,"Ġ600":10193,"Ġler":10194,"ĠMi":10195,"resse":10196,"ĠJaime":10197,"iveu":10198,"Ġescreve":10199,"Ġhec":10200,"Ġintermedi":10201,"hl":10202,"pez":10203,"ĠCruzeiro":10204,"ĠBernard":10205,"ĠconstruÃŃdas":10206,"ĠProjeto":10207,"tec":10208,"ĠFic":10209,"ĠElas":10210,"ogle":10211,"ĠMacau":10212,"Ġnegra":10213,"ĠYouTube":10214,"MI":10215,"ÃŃaca":10216,"Ġmensagens":10217,"Ã§amb":10218,"ET":10219,"Ġdevol":10220,"nds":10221,"reo":10222,"Ġsons":10223,"Pr":10224,"Ġconsideram":10225,"Ġdedica":10226,"duaÃ§Ã£o":10227,"Ġbanh":10228,"ĠWeb":10229,"ĠincluÃŃda":10230,"Ġnumerosos":10231,"And":10232,"lagem":10233,"ipÃ©":10234,"Ġfalha":10235,"Ġcampeonatos":10236,"Ġrebo":10237,"ĠNeg":10238,"Ġprivado":10239,"Ġinfantaria":10240,"ĠABC":10241,"Ġflex":10242,"Ġmonte":10243,"Ġhipo":10244,"Ġprimavera":10245,"ĠFantas":10246,"Ġadicional":10247,"Ġobservar":10248,"ĠcompreensÃ£o":10249,"mentes":10250,"ĠUniverso":10251,"Ġtreze":10252,"ĠFried":10253,"bon":10254,"tÃª":10255,"ski":10256,"iba":10257,"Ġeuros":10258,"Ġquartas":10259,"estro":10260,"ĠruÃŃnas":10261,"Ġmandou":10262,"Ġtalento":10263,"RJ":10264,"Ġrem":10265,"cÃ©":10266,"ÃŃvia":10267,"icon":10268,"Maria":10269,"ĠBrian":10270,"Ġsaud":10271,"ĠPetro":10272,"tempo":10273,"ĠpreservaÃ§Ã£o":10274,"eron":10275,"tivais":10276,"ĠlaboratÃ³rio":10277,"mentada":10278,"turno":10279,"Ġemissoras":10280,"ĠManoel":10281,"ĠgrÃ¡fico":10282,"Ġescolhida":10283,"Ġprevisto":10284,"ĠBarÃ£o":10285,"ĠMess":10286,"57":10287,"iclo":10288,"Ġhabi":10289,"Ġcapita":10290,"polis":10291,"Ġaque":10292,"Ġexecutado":10293,"ĠsessÃµes":10294,"Ġpostos":10295,"Ġvisitou":10296,"Ġdesafio":10297,"fego":10298,"ĠApenas":10299,"chefe":10300,"cass":10301,"Ġessencial":10302,"pping":10303,"RO":10304,"Ġranking":10305,"Ġligeira":10306,"Ġapropri":10307,"Ġvivia":10308,"ĠimpossÃŃvel":10309,"Ġvistos":10310,"Ġmarcar":10311,"Ġhou":10312,"Ġcinemas":10313,"Ġprejudic":10314,"ĠdistinÃ§Ã£o":10315,"ĠTeam":10316,"Sal":10317,"Ġdemoc":10318,"paro":10319,"Ġbaixos":10320,"Ġenvolveu":10321,"iedade":10322,"Ã¼r":10323,"right":10324,"Ġax":10325,"ouros":10326,"Ġmapa":10327,"dom":10328,"ĠespetÃ¡culo":10329,"ÃŃssimo":10330,"Ġsentiu":10331,"Ġpensar":10332,"ĠsuicÃŃdio":10333,"Ġnomeada":10334,"ĠcrÃ©dito":10335,"Ġmenino":10336,"ella":10337,"ĠSum":10338,"Ġdesloca":10339,"ĠNetwork":10340,"Ġgerar":10341,"ĠRamos":10342,"Ġolho":10343,"Ġrelacionada":10344,"ecida":10345,"ĠFon":10346,"idado":10347,"ĠSom":10348,"ĠOperaÃ§Ã£o":10349,"essamento":10350,"CI":10351,"Ġpater":10352,"ĠHong":10353,"ĠSamuel":10354,"Ġrussos":10355,"alizar":10356,"ĠtÃ©rmino":10357,"ÃŃcies":10358,"ĠreuniÃµes":10359,"Ġparceiro":10360,"ĠPessoa":10361,"Ġbloque":10362,"ĠcÃŃrculo":10363,"Ġperderam":10364,"Ãºjo":10365,"Ġmarinha":10366,"ĠLewis":10367,"ĠElizabeth":10368,"ĠObs":10369,"Ġchuvas":10370,"Ġrivalidade":10371,"ĠNBA":10372,"ĠOpen":10373,"Ġaventura":10374,"ĠAsh":10375,"ĠSimon":10376,"Ġdesas":10377,"Ġretirou":10378,"ĠFlÃ³rida":10379,"Ã©culo":10380,"Ã¡sia":10381,"ĠRadio":10382,"Ġcitado":10383,"Ġhaja":10384,"ĠfÃŃsicas":10385,"suced":10386,"Ġpreocup":10387,"Ġcruza":10388,"ĠcemitÃ©rio":10389,"Ġgosto":10390,"Ġanel":10391,"Ġzo":10392,"refas":10393,"ĠGrammy":10394,"ĠMana":10395,"Ġfruto":10396,"Ġdecorrer":10397,"Ġnela":10398,"ĠCoroa":10399,"ĠcÃ¢mera":10400,"Ġace":10401,"Ġpropaganda":10402,"Ġutilizam":10403,"Ġpartid":10404,"Ġmoedas":10405,"ĠKan":10406,"Ã³xido":10407,"ĠVice":10408,"Ġmedica":10409,"ĠBis":10410,"ĠCampinas":10411,"micos":10412,"tenimento":10413,"ĠFlor":10414,"Ġ1916":10415,"Ġtecidos":10416,"Ġfundamentais":10417,"ĠYour":10418,"gaz":10419,"Ġraio":10420,"ĠespecÃŃficas":10421,"ĠMunicÃŃpio":10422,"Ġsemifinal":10423,"tista":10424,"Ġcorrentes":10425,"ĠdÃºvida":10426,"ĠPel":10427,"Ġintuito":10428,"ĠcÃ©lula":10429,"Ġmonarquia":10430,"tter":10431,"Ġafil":10432,"Ġpublicadas":10433,"Ġpatente":10434,"cionalmente":10435,"Ġacontecer":10436,"Ġpaisagem":10437,"ĠFÃ¡":10438,"vere":10439,"Ġ1908":10440,"sal":10441,"tafogo":10442,"ĠAbra":10443,"Ġ52":10444,"Ġpud":10445,"Ġround":10446,"PG":10447,"ĠalcanÃ§ando":10448,"jada":10449,"Ġmons":10450,"Ġplanejamento":10451,"Ġtrase":10452,"2010":10453,".<":10454,"Ġconstantes":10455,"Ġactividade":10456,"sea":10457,"Ġreba":10458,"Ġdetermina":10459,"ĠprecisÃ£o":10460,"Ġintroduzido":10461,"mac":10462,"veja":10463,"rud":10464,"ĠComÃ©rcio":10465,"Ġprocurar":10466,"ĠGuar":10467,"ĠDuarte":10468,"2009":10469,"Ġviviam":10470,"Ġadolescente":10471,"ibol":10472,"ĠAraÃºjo":10473,"ĠAtenas":10474,"ĠCria":10475,"Ġortodo":10476,"Ġdesenvolvidos":10477,"iko":10478,"Ã©lica":10479,"Ġabor":10480,"Ġfinanceiros":10481,"ĠocorrÃªncia":10482,"ĠtrajetÃ³ria":10483,"istÃ©rio":10484,"Ġsegmento":10485,"ĠCarey":10486,"Ġgradualmente":10487,"Ġdisciplina":10488,"moto":10489,"vedo":10490,"Ġtornaria":10491,"Ġdisputado":10492,"ĠLi":10493,"Ġargentino":10494,"Ġsup":10495,"Ġmercados":10496,"tream":10497,"Ġtransferiu":10498,"Ġbombard":10499,"ĠTrabalho":10500,"ĠconsequÃªncias":10501,"dam":10502,"ĠMate":10503,"credita":10504,"ĠprÃ³":10505,"bama":10506,"Ġpassava":10507,"ĠDiocese":10508,"arl":10509,"Ġcumprir":10510,"Ġmam":10511,"lago":10512,"ĠBay":10513,"ĠKelly":10514,"Ġsugeriu":10515,"Ed":10516,"Ġmortal":10517,"ĠmÃ³d":10518,"Ġobtendo":10519,"ĠTorres":10520,"ĠexplosÃ£o":10521,"ĠBut":10522,"ĠLim":10523,"Ġorganismo":10524,"Ġcombater":10525,"ĠperseguiÃ§Ã£o":10526,"ĠAlbert":10527,"Ġ44":10528,"Ġdefine":10529,"Ġasas":10530,"ĠrepÃ³r":10531,"Ġfechado":10532,"ĠAlta":10533,"ĠSic":10534,"Era":10535,"Ġaltar":10536,"Ġtric":10537,"ĠlÃŃquido":10538,"cadores":10539,"ĠDomingos":10540,"2008":10541,"Ġobtido":10542,"Ġpne":10543,"Ġgin":10544,"Ġestacion":10545,"alhÃ£es":10546,"Ġsurpresa":10547,"Ġtarefas":10548,"Ġplatina":10549,"ĠSobre":10550,"ĠintÃ©rpre":10551,"top":10552,"Ġprojetado":10553,"ĠTecnologia":10554,"Ġcantando":10555,"ĠiluminaÃ§Ã£o":10556,"Ġdepend":10557,"Ġasi":10558,"ĠFelipe":10559,"Ġseguiram":10560,"Ġexecutar":10561,"metragem":10562,"Ġalien":10563,"Ġpositivo":10564,"Ġargumento":10565,"ĠMÃ¡r":10566,"ĠlÃ¢":10567,"rela":10568,"Ġneo":10569,"Ġavalia":10570,"ÃŃferos":10571,"Ġsing":10572,"ĠfÃ©r":10573,"ĠId":10574,"ĠLibertadores":10575,"ĠMaia":10576,"ĠFoot":10577,"letos":10578,"ĠFrente":10579,"ĠVat":10580,"Ġextinta":10581,"ĠRobin":10582,"94":10583,"nÃ¡rio":10584,"ĠnecessÃ¡rias":10585,"lare":10586,"iami":10587,"Ġindustriais":10588,"ĠDavis":10589,"Ġroteir":10590,"Ġsentimento":10591,"ÃĢ":10592,"ĠMore":10593,"lico":10594,"Ġapresentador":10595,"Ġcompat":10596,"rechal":10597,"inental":10598,"Ġtens":10599,"Ġconsequentemente":10600,"Ġobrigado":10601,"ĠrestauraÃ§Ã£o":10602,"itÃ¡rias":10603,"rense":10604,"Ġfinanciamento":10605,"Ġraios":10606,"Ã¢nsito":10607,"quenta":10608,"Ġlutou":10609,"Ġsuple":10610,"ĠTodas":10611,"Ġtorcedores":10612,"ĠGib":10613,"Ġmorf":10614,"ãĤ":10615,"ĠcontemporÃ¢nea":10616,"ĠIrÃ£":10617,"ĠGod":10618,"ĠWall":10619,"ĠBispo":10620,"Ġentusias":10621,"Ġtorres":10622,"cipaÃ§Ã£o":10623,"ĠVolta":10624,"Ġestatuto":10625,"Ġreag":10626,"Ġdatas":10627,"ĠreligiÃµes":10628,"Ġesteja":10629,"ĠeletrÃ´nicos":10630,"ĠheranÃ§a":10631,"tent":10632,"Ġhard":10633,"ieta":10634,"Ġestrangeiro":10635,"ĠAnos":10636,"Ġjamais":10637,"Ġcertificado":10638,"ĠPlano":10639,"ette":10640,"Ġparecem":10641,"Ġdizia":10642,"ĠGeÃ³rgia":10643,"Ġdistante":10644,"Ġmano":10645,"ficaÃ§Ãµes":10646,"Ġaumentando":10647,"DS":10648,"Ġneto":10649,"Ġfalecido":10650,"ader":10651,"guarda":10652,"Ġtestem":10653,"ĠRou":10654,"Ġ41":10655,"ĠcalendÃ¡rio":10656,"ĠporÃ§Ã£o":10657,"ardins":10658,"orno":10659,"Ġlas":10660,"ĠdecoraÃ§Ã£o":10661,"Ġdita":10662,"Ġagro":10663,"Ġbasicamente":10664,"Ge":10665,"Ġassassinado":10666,"Ver":10667,"Ġmatou":10668,"Ġcolapso":10669,"ĠliterÃ¡ria":10670,"ĠMol":10671,"Ġsubstituiu":10672,"Ġinfraestrutura":10673,"ĠMetal":10674,"ĠMcC":10675,"ĠApare":10676,"Ġamist":10677,"lar":10678,"ĠÃºnicos":10679,"ĠMagalhÃ£es":10680,"ĠDeputados":10681,"micas":10682,"erado":10683,"Ġformalmente":10684,"Ġader":10685,"ĠagrÃŃcolas":10686,"ĠemergÃªncia":10687,"ĠRita":10688,"lack":10689,"Ġtortura":10690,"Ġregistrada":10691,"ĠEnsino":10692,"Ġpura":10693,"Ġproto":10694,"Ġfi":10695,"Ġjornada":10696,"Ġefetu":10697,"Ġirregular":10698,"ĠdiÃ¡rio":10699,"Ġcurtas":10700,"Ġquantidades":10701,"ĠCatal":10702,"Ġvoos":10703,"Ġchegam":10704,"Ġcalcul":10705,"ĠVirg":10706,"ĠJud":10707,"gna":10708,"ĠMadeira":10709,"Ġargument":10710,"Ġativos":10711,"Ġmencionado":10712,"Ġinsu":10713,"Ġbu":10714,"meiro":10715,"Ġinex":10716,"omÃ©":10717,"ĠPalmeiras":10718,"olor":10719,"Ġmono":10720,"Ġconhecimentos":10721,"ĠDor":10722,"ĠMetropolitana":10723,"Ġjunta":10724,"ĠsecundÃ¡rio":10725,"ĠBotafogo":10726,"Ġchineses":10727,"Ġinterpreta":10728,"zzo":10729,"Ġoceano":10730,"Ġmarco":10731,"seus":10732,"Ġcomplex":10733,"Ġnossos":10734,"ĠrepertÃ³rio":10735,"Ġlembra":10736,"Ġenviar":10737,"Ġgerencia":10738,"ĠtrÃ¡fego":10739,"ĠbenefÃŃcios":10740,"crÃ¢nia":10741,"oney":10742,"renÃ§o":10743,"ĠFilm":10744,"Ġvariam":10745,"Ġmental":10746,"ĠfilÃ³sofo":10747,"Ġfracasso":10748,"ĠIndustrial":10749,"ĠcooperaÃ§Ã£o":10750,"ĠcÃ©le":10751,"Ġcostumes":10752,"Ġasce":10753,"ĠauxÃŃlio":10754,"ĠimplementaÃ§Ã£o":10755,"usto":10756,"Ġsaque":10757,"ĠFace":10758,"Ġservindo":10759,"Nova":10760,"ĠGood":10761,"Ġdescendente":10762,"Ġenviados":10763,"Ġfederais":10764,"mpa":10765,"ĠDiretor":10766,"Ġcombo":10767,"Ġconsenso":10768,"Ġconversa":10769,"Ġatingindo":10770,"ĠGales":10771,"Ġdestinado":10772,"Ġconquistas":10773,"ĠcontribuiÃ§Ãµes":10774,"Ġeleita":10775,"Ġcordas":10776,"Ġmeninas":10777,"restres":10778,"fi":10779,"ĠfÃªmeas":10780,"Ġorna":10781,"ĠcolÃ´nias":10782,"zan":10783,"ĠForte":10784,"Ġmeteor":10785,"Ġexame":10786,"Ġeva":10787,"ĠNar":10788,"Ġgabinete":10789,"ĠindÃŃgena":10790,"Ġdebat":10791,"ĠPrata":10792,"Ġvidro":10793,"Ġescudo":10794,"Ġocupada":10795,"Ġregularmente":10796,"Ġeclesi":10797,"ĠOto":10798,"ĠIsland":10799,"Ġcombates":10800,"Ġmerg":10801,"ĠParana":10802,"ĠpenÃŃnsula":10803,"ĠaproximaÃ§Ã£o":10804,"Can":10805,"lio":10806,"ĠBelas":10807,"nomia":10808,"Ġproximidades":10809,"ĠpermissÃ£o":10810,"Ġfel":10811,"Ġquaisquer":10812,"Ġpretendia":10813,"Ġhomo":10814,"Ġsentir":10815,"Ġcompletou":10816,"ĠLegislativa":10817,"Ġdava":10818,"Ġmemor":10819,"Ġimpulsion":10820,"Ġcristal":10821,"Ġfrus":10822,"Ġserra":10823,"Ġpriva":10824,"ĠXavi":10825,"ĠNeto":10826,"Ġmedalhas":10827,"onha":10828,"ĠMilÃ£o":10829,"Ġdedicar":10830,"Ġbispos":10831,"Ġrebaix":10832,"Ġ43":10833,"Ġlongos":10834,"ĠcaÃ§":10835,"Ġtrazendo":10836,"Ġsignificativamente":10837,"Ġsomb":10838,"Ġrapa":10839,"Ġ800":10840,"ĠaÃ©reo":10841,"ÃŃdios":10842,"ĠEleitoral":10843,"Ġtentaram":10844,"2006":10845,"ĠVeneza":10846,"Ġtocando":10847,"orial":10848,"vana":10849,"Ġseman":10850,"Ġhectares":10851,"Ġeuropeias":10852,"criÃ§Ã£o":10853,"ĠAlb":10854,"Ġdizem":10855,"ĠcatÃ³lico":10856,"Ã¡rb":10857,"ĠLin":10858,"ĠMaior":10859,"Ġhumanas":10860,"Ã³ticos":10861,"eller":10862,"Ġadolescentes":10863,"Ġoce":10864,"Ã³ricos":10865,"Ġconvocado":10866,"af":10867,"Ġfrio":10868,"Ġanunciada":10869,"Ġatingido":10870,"Ġacabar":10871,"ĠFez":10872,"...)":10873,"ĠalteraÃ§Ã£o":10874,"ĠGard":10875,"JoÃ£o":10876,"ĠdiminuiÃ§Ã£o":10877,"Ġsozinho":10878,"ramento":10879,"Ġinformou":10880,"Ġexercer":10881,"ĠDream":10882,"Ġespada":10883,"ĠAze":10884,"Ġaprovada":10885,"Ġdemocracia":10886,"2000":10887,"Filho":10888,"orou":10889,"Ġhosp":10890,"ush":10891,"ĠZÃ©":10892,"Ġromances":10893,"ĠpÃªnal":10894,"anato":10895,"nar":10896,"sel":10897,"ĠJam":10898,"critos":10899,"ĠprimÃ¡ria":10900,"Ġdescobertas":10901,"ĠCaetano":10902,"Ġinfluenciado":10903,"ĠCondado":10904,"agar":10905,"ĠprofissÃ£o":10906,"Ġproduzidas":10907,"ĠconversÃ£o":10908,"yu":10909,"Ġarquivo":10910,"Ġreunir":10911,"Ġ1000":10912,"ĠOceano":10913,"Ġcontas":10914,"Ġaprender":10915,"91":10916,"iff":10917,"ĠUcrÃ¢nia":10918,"Ġrepresentou":10919,"Ġestivesse":10920,"ĠRan":10921,"Ġprovocou":10922,"Ġescultura":10923,"Ġdiverg":10924,"Ġpedir":10925,"Ġorganiza":10926,"alizaÃ§Ãµes":10927,"ĠbraÃ§os":10928,"ĠChristian":10929,"Ġrelativa":10930,"Ġmudaram":10931,"Ġreorgan":10932,"termin":10933,"istentes":10934,"Ġcomplexos":10935,"Ġpiso":10936,"ĠvisÃŃvel":10937,"Ġreservas":10938,"ĠconfiguraÃ§Ã£o":10939,"ĠCass":10940,"Ġcontinuam":10941,"eto":10942,"chel":10943,"Ġtradicionalmente":10944,"ĠeletrÃ´nico":10945,"Ġbara":10946,"memb":10947,"Ġber":10948,"Ġenz":10949,"Ġsint":10950,"Ġpertencentes":10951,"ĠClara":10952,"Ġpobreza":10953,"ĠTÃ³quio":10954,"cebeu":10955,"leibol":10956,"ĠgeraÃ§Ãµes":10957,"Ġhoriz":10958,"Ġisrael":10959,"Ġdeclarado":10960,"ĠfazÃª":10961,"clo":10962,"iosos":10963,"cta":10964,"ĠBag":10965,"ĠRoger":10966,"ĠDoc":10967,"isti":10968,"93":10969,"Ġpergunta":10970,"Ġvagas":10971,"landesa":10972,"fonia":10973,"rativo":10974,"ĠmÃ³veis":10975,"Ġseparados":10976,"Ġemit":10977,"Ġcaminhos":10978,"Ġpersonalidades":10979,"Ġlocomo":10980,"Ġpudessem":10981,"ĠcÃ£es":10982,"Ġdefende":10983,"teros":10984,"anÃ§ado":10985,"ĠCamar":10986,"kan":10987,"ĠCoelho":10988,"ĠMarte":10989,"ussÃµes":10990,"ĠMarques":10991,"ĠopÃ§Ãµes":10992,"urre":10993,"ĠopiniÃµes":10994,"Ġrefugi":10995,"ĠGoogle":10996,"Ġnumerosas":10997,"ĠUEFA":10998,"ĠConfederaÃ§Ã£o":10999,"ĠdisposiÃ§Ã£o":11000,"Ġamante":11001,"ĠVirgem":11002,"tios":11003,"rupa":11004,"JosÃ©":11005,"ĠDy":11006,"ĠMoreira":11007,"Ġdivididos":11008,"Ã¡sticas":11009,"ĠÃªn":11010,"ntal":11011,"day":11012,"Ġtratados":11013,"Ã©reas":11014,"tum":11015,"ĠDE":11016,"Ġalo":11017,"Ġclim":11018,"Ġapoiou":11019,"ensores":11020,"Ġlinear":11021,"Ġrepresentada":11022,"Ġfestivais":11023,"ĠGirl":11024,"Ġcompositores":11025,"Ġcompens":11026,"ĠChu":11027,"ÃŃgios":11028,"Ġextraord":11029,"ĠBot":11030,"Ġbarco":11031,"Ġsujeito":11032,"ĠRodo":11033,"Ġpression":11034,"Ġprofe":11035,"Don":11036,"Ġidos":11037,"Ġconstituem":11038,"Pres":11039,"jes":11040,"Ġvinho":11041,"Ġbor":11042,"iner":11043,"pool":11044,"ĠDJ":11045,"Ġlongi":11046,"Ġsociedades":11047,"Ġcompare":11048,"ranha":11049,"ĠelaboraÃ§Ã£o":11050,"ĠMis":11051,"trato":11052,"olar":11053,"ĠPovo":11054,"Ġinterpretada":11055,"Ġterrenos":11056,"Ġparlamentar":11057,"lÃ©":11058,"Ġsinte":11059,"Ġpermanecendo":11060,"ĠDessa":11061,"?\"":11062,"ĠmolÃ©culas":11063,"Essa":11064,"Ð¾":11065,"'.":11066,"ĠIX":11067,"Ġtipicamente":11068,"ĠSampa":11069,"Ġramos":11070,"ĠmangÃ¡":11071,"cran":11072,"ĠDentre":11073,"ĠMart":11074,"Ġbizantino":11075,"Ġimediato":11076,"pher":11077,"Ġlocalizados":11078,"iterrÃ¢neo":11079,"Ġdespre":11080,"Ġdestacando":11081,"Ġpremi":11082,"ĠIS":11083,"ĠAnderson":11084,"2007":11085,"ĠcircunstÃ¢ncias":11086,"IT":11087,"gir":11088,"ulados":11089,"Ġefec":11090,"ĠXavier":11091,"ilhas":11092,"perou":11093,"Ġbuscar":11094,"orreg":11095,"ĠgaÃº":11096,"Ġexil":11097,"Ġsexuais":11098,"Ġespo":11099,"ĠFinalmente":11100,"ĠcontÃŃnua":11101,"hony":11102,"ĠmÃ©dias":11103,"Ġmachos":11104,"ĠRuss":11105,"ĠpaixÃ£o":11106,"Ġaprovou":11107,"duÃ§Ãµes":11108,"Ġgigantes":11109,"ĠAgos":11110,"ĠBank":11111,"incluindo":11112,"orema":11113,"tÃŃgio":11114,"ĠdiagnÃ³stico":11115,"Ġdevas":11116,"ĠSky":11117,"Ġentretenimento":11118,"ĠGama":11119,"Ġensaios":11120,"cessor":11121,"Ġconcedeu":11122,"lau":11123,"ĠNAS":11124,"Ġaclam":11125,"Ġcriaram":11126,"ĠLourenÃ§o":11127,"Ġmarcha":11128,"Ġresidentes":11129,"avy":11130,"cano":11131,"ĠVista":11132,"Ġvincul":11133,"Ġextinto":11134,"UC":11135,"Ġmotiv":11136,"creveu":11137,"Outro":11138,"ĠIBGE":11139,"Ġregulares":11140,"lyn":11141,"rasse":11142,"Ġmaneiras":11143,"trop":11144,"Ġestrelado":11145,"ĠAk":11146,"ĠTib":11147,"ĠsubstÃ¢ncia":11148,"reiras":11149,"Ġpassos":11150,"Ġcm":11151,"Ġportuguesas":11152,"ĠMons":11153,"ĠSocialista":11154,"Ġbaixista":11155,"Ġdifund":11156,"Ġdesconhecido":11157,"Ġganharam":11158,"ĠPierre":11159,"ĠÃªnfase":11160,"rariamente":11161,"ĠSemin":11162,"edy":11163,"ĠfÃŃsicos":11164,"Ġbura":11165,"Ġ\"(":11166,"Ġ),":11167,"Ã¢ngulo":11168,"ĠmultidÃ£o":11169,"Ġfogue":11170,"Ġdoce":11171,"ĠautorizaÃ§Ã£o":11172,"ĠhistÃ³ricas":11173,"Ġreduzido":11174,"ĠinclusÃ£o":11175,"rinha":11176,"Ġturistas":11177,"cc":11178,"ugos":11179,"Ġaliado":11180,"icl":11181,"PT":11182,"Ã³lica":11183,"Ġ47":11184,"Ġrend":11185,"Ġpsico":11186,"ĠdiscÃŃp":11187,"ĠtraÃ§os":11188,"Ġdisto":11189,"Ġjudicial":11190,"Ġconseguido":11191,"Ġora":11192,"ĠPrem":11193,"ĠAnima":11194,"Ġindicam":11195,"Ġsecreta":11196,"ĠsÃ©tima":11197,"Ġcop":11198,"ĠRomana":11199,"Ġcomponente":11200,"ĠsÃ³cio":11201,"Ġpene":11202,"Ġparalelo":11203,"ĠApo":11204,"ĠdomÃŃnios":11205,"ÃŃssima":11206,"Ġafirmam":11207,"tring":11208,"Ġdispara":11209,"ĠCircu":11210,"Ġpublicidade":11211,"Ġgole":11212,"Ġofensiva":11213,"ÃŃsa":11214,"ĠAlan":11215,"Ġ1905":11216,"chen":11217,"asta":11218,"ulou":11219,"ĠMiami":11220,"iciou":11221,"sk":11222,"Ġbomba":11223,"ĠMet":11224,"Ġprofundamente":11225,"Ġamericanas":11226,"Ġtransmitir":11227,"Ġintelectuais":11228,"Ġmolec":11229,"ĠMir":11230,"Ġdenomina":11231,"Ġestabelece":11232,"ganÃ§a":11233,"ĠreconstruÃ§Ã£o":11234,"Ġcensura":11235,"pura":11236,"Ġreflex":11237,")\",":11238,"Ã³rdia":11239,"ĠTemplo":11240,"ĠapariÃ§Ãµes":11241,"Ġlocalidades":11242,"ĠcÃ³pia":11243,"Ġibne":11244,"Ġeficaz":11245,"bour":11246,"ota":11247,"Ġdona":11248,"Ġauge":11249,"ĠPonta":11250,"ĠinstruÃ§Ãµes":11251,"Inter":11252,"Ġalimentar":11253,"Ġiniciaram":11254,"Ġperceb":11255,"ĠNÃº":11256,"ĠArena":11257,"Ġexam":11258,"ĠCanÃ§Ã£o":11259,"Ġusava":11260,"wns":11261,"Ġvistas":11262,"Ġgama":11263,"Ġempreend":11264,"Ġcantores":11265,"ĠIndependÃªncia":11266,"ĠSuperman":11267,"iversidade":11268,"Ġfalou":11269,"Ã³grafo":11270,"ĠprestÃŃgio":11271,"ĠpovoaÃ§Ã£o":11272,"Ph":11273,"Ġcabelo":11274,"Ġprivadas":11275,"ĠCoronel":11276,"Ġdistintos":11277,"Ġconcordou":11278,"pha":11279,"ĠconcluÃŃdo":11280,"Ġenterrado":11281,"ĠGetÃºlio":11282,"ĠWrestling":11283,"Ġtirar":11284,"Ġtelefone":11285,"ule":11286,"ĠQuar":11287,"guez":11288,"tividades":11289,"ĠconcluÃŃda":11290,"Ġataca":11291,"Ġatacou":11292,"ĠBros":11293,"ĠquÃ¢nt":11294,"Ã³gio":11295,"ĠcomputaÃ§Ã£o":11296,"Ð¸":11297,"Ġdiocese":11298,"utor":11299,"Ġclassificados":11300,"Algumas":11301,"Ġcondeco":11302,"ÃŃdeos":11303,"Ġprocurou":11304,"Ġaparente":11305,"Ġintroduziu":11306,"Ġestende":11307,"Ġpernas":11308,"Ġmundiais":11309,"Ġadotado":11310,"tindo":11311,"vesse":11312,"2005":11313,"ĠBook":11314,"Ġevidente":11315,"Ġprecisam":11316,"ĠMonteiro":11317,"Ġsemifinais":11318,"ĠemprÃ©stimo":11319,"lock":11320,"Ġcircular":11321,"Ã³rum":11322,"fante":11323,"ĠJane":11324,"ĠOk":11325,"Ġgerm":11326,"ĠBang":11327,"Ġvisitar":11328,"Ġguarn":11329,"ĠToronto":11330,"ĠOh":11331,"ĠColumbia":11332,"Ġtemplos":11333,"Ġabrig":11334,"ĠsubstÃ¢ncias":11335,"ĠcÃ¡lculo":11336,"Ġ1906":11337,"hist":11338,"dendo":11339,"Ġamostra":11340,"Ġjuris":11341,"ĠbÃ¡sico":11342,"enz":11343,"gante":11344,"ĠjurÃŃdica":11345,"ĠreaÃ§Ãµes":11346,"ĠUl":11347,"ĠOrquestra":11348,"Ġcomanda":11349,"ĠClass":11350,"grÃ¡ficas":11351,"wo":11352,"ĠÃ¡udio":11353,"Ġconfor":11354,"ĠComer":11355,"Ġcausada":11356,"Outra":11357,"Ġperif":11358,"Ġencora":11359,"Ġdoutorado":11360,"orf":11361,"inense":11362,"ĠsuÃŃ":11363,"ĠEscri":11364,"Ġpatriar":11365,"ĠSci":11366,"Ã¡bio":11367,"Lei":11368,"teiros":11369,"ĠHamilton":11370,"Ġmodernas":11371,"vantes":11372,"Ġricos":11373,"Ġjornalistas":11374,"Franc":11375,"ĠgenÃ©tica":11376,"Ġconvento":11377,"ĠCount":11378,"ĠconfusÃ£o":11379,"Ġbei":11380,"ĠChico":11381,"tema":11382,"ĠMargar":11383,"rindo":11384,"site":11385,"Ġligadas":11386,"ĠdinÃ¢mica":11387,"RS":11388,"Ġreduzida":11389,"Ġcomplexidade":11390,"ĠMP":11391,"Ġcentrais":11392,"qued":11393,"rocos":11394,"Ġjazz":11395,"ĠrestriÃ§Ãµes":11396,"Ġfome":11397,"Ġregistrado":11398,"ĠBrook":11399,"Ġcontinental":11400,"Ġromp":11401,"ĠSerg":11402,"ĠAlfredo":11403,"ĠClÃ¡udio":11404,"dal":11405,"ĠFemin":11406,"Ġvitor":11407,"Ġexistiam":11408,"ĠConte":11409,"ndez":11410,"bridge":11411,"ĠDireitos":11412,"Ġnecessariamente":11413,"Ġpassagens":11414,"ĠSociety":11415,"tten":11416,"tasse":11417,"Ġ46":11418,"feras":11419,"Ġdesfile":11420,"ĠsoviÃ©tico":11421,"Ġirre":11422,"Ġimpul":11423,"Ġ1909":11424,"ĠindicaÃ§Ãµes":11425,"cÃ³pio":11426,"ĠFloria":11427,"ĠGroup":11428,"Ġprovin":11429,"ĠRyan":11430,"\"(":11431,"mÃ¡ticas":11432,"ncialmente":11433,"ĠIntegra":11434,"ĠMid":11435,"Ġraiz":11436,"ĠCaxias":11437,"Ġapartamento":11438,"Ġhierar":11439,"Ġparecer":11440,"ĠPens":11441,"Ġcontinha":11442,"Ġ51":11443,"Come":11444,"ĠPrÃºssia":11445,"ĠfavorÃ¡vel":11446,"ĠnavegaÃ§Ã£o":11447,"ĠprecipitaÃ§Ã£o":11448,"Ġmm":11449,"Ġcint":11450,"Ġcinquenta":11451,"ĠgrÃ¡ficos":11452,"Ġintegrou":11453,"My":11454,"Ġteologia":11455,"Ġcolocando":11456,"Logo":11457,"Ġestabeleceram":11458,"Ġ1870":11459,"ĠlibertaÃ§Ã£o":11460,"Ġinteressante":11461,"Ġclipe":11462,"ĠPedra":11463,"metro":11464,"Ġordenado":11465,"Ġnotic":11466,"ĠparÃ³quia":11467,"ipes":11468,"Ġobjectivo":11469,"ĠCup":11470,"play":11471,"Ter":11472,"Å«":11473,"crimin":11474,"ĠassociaÃ§Ãµes":11475,"Ġdiminuir":11476,"irro":11477,"Ġcampon":11478,"ĠJustin":11479,"ĠDuas":11480,"ĠsalÃ£o":11481,"Ġ1907":11482,"ĠAre":11483,"Ġamarelo":11484,"jog":11485,"quina":11486,"ndrome":11487,"Ġpromul":11488,"ĠMerc":11489,"Ġestiveram":11490,"rÃ³":11491,"ĠApple":11492,"ĠAzevedo":11493,"ĠAssis":11494,"Ġlevada":11495,"gat":11496,"Ġfrutos":11497,"ĠSampaio":11498,"Ġpeixe":11499,"ĠNeves":11500,"Ġeficiente":11501,"ĠRon":11502,"Ġlucra":11503,"ĠcontinuaÃ§Ã£o":11504,"Ġexplicou":11505,"meno":11506,"arch":11507,"Ġsubiu":11508,"Ġvoltaram":11509,"volta":11510,"Ġcrescer":11511,"Ġvereador":11512,"Ġmilho":11513,"ĠemissÃ£o":11514,"itri":11515,"ĠRap":11516,"Ġcompromisso":11517,"ĠreÃºne":11518,"Ã¡rqu":11519,"Pla":11520,"Ã£e":11521,"Ġsono":11522,"Ġbrancas":11523,"2004":11524,"Ġcata":11525,"ancho":11526,"Ġsementes":11527,"Ġacion":11528,"Ġiguais":11529,"Ġaplicada":11530,"ĠmemÃ³rias":11531,"feiÃ§o":11532,"enha":11533,"Ġseguro":11534,"Ġfinanceiras":11535,"Ġestabilidade":11536,"ĠCem":11537,"Ã©nio":11538,"ĠdirecÃ§Ã£o":11539,"liv":11540,"Ġprecisamente":11541,"Ġsegredo":11542,"Ġferidos":11543,"Ġsemin":11544,"ock":11545,"iscopal":11546,"ĠcontrovÃ©rsia":11547,"ĠBry":11548,"Ġintegrado":11549,"Ġconvidada":11550,"Ġinstalada":11551,"Ġelec":11552,"impÃŃ":11553,"ede":11554,"Ġ(;":11555,"ĠXbox":11556,"Ġarquitet":11557,"raria":11558,"Ġfracass":11559,"ĠBruce":11560,"Ġparticipando":11561,"Ġhomossexual":11562,"Ġtrio":11563,"Ġades":11564,"ĠherÃ³is":11565,"Ġalgoritmo":11566,"ndi":11567,"Ġdomingo":11568,"ĠrebeliÃ£o":11569,"cros":11570,"ĠFiguei":11571,"Neste":11572,"vile":11573,"ĠBraganÃ§a":11574,"Ġencerramento":11575,"Ġza":11576,"ĠLam":11577,"ĠTig":11578,"ech":11579,"Ġhavendo":11580,"Ġrecebem":11581,"wski":11582,"ĠStephen":11583,"ĠelÃ©trons":11584,"Ġinqu":11585,"ĠAlc":11586,"Ã§ambique":11587,"log":11588,"ĠAgÃªncia":11589,"ĠHotel":11590,"Ġara":11591,"ĠAC":11592,"Ġisola":11593,"ĠForma":11594,"ĠeficiÃªncia":11595,"ĠautÃ´no":11596,"ipÃ©lago":11597,"Ã³metros":11598,"ĠComunicaÃ§Ã£o":11599,"Ġesclare":11600,"ĠCarioca":11601,"Ġesfera":11602,"Ġcauda":11603,"Ġelimin":11604,"asa":11605,"Categoria":11606,"Ġilegal":11607,"Ġembaixador":11608,"ĠviÃºva":11609,"ĠNunes":11610,"Ġpermaneceram":11611,"Ġmecanismos":11612,"ĠCorr":11613,"Ġatendimento":11614,"final":11615,"Ġjanela":11616,"ĠVaticano":11617,"Ġindicando":11618,"ĠMunique":11619,"Ġcoz":11620,"Ġtorneios":11621,"Ġaparelho":11622,"Ġabrang":11623,"ĠRenato":11624,"Ġlevam":11625,"Ġgarantiu":11626,"ĠDil":11627,"ĠcrenÃ§as":11628,"ciÃ³n":11629,"ĠPÃ©r":11630,"ĠDin":11631,"ĠLP":11632,"ĠnoÃ§Ã£o":11633,"ĠAngel":11634,"lasse":11635,"izaram":11636,"Ġexplorar":11637,"ĠGrÃªmio":11638,"gÃ¡ria":11639,"ĠMedia":11640,"Ġolhar":11641,"ĠBeau":11642,"Ġmetod":11643,"boy":11644,"Ã¡sticos":11645,"Ġcientista":11646,"yoffs":11647,"econ":11648,"Ġbloqu":11649,"ĠKevin":11650,"ĠsobrevivÃªncia":11651,"deias":11652,"ĠcivilizaÃ§Ã£o":11653,"ĠtrÃ¢nsito":11654,"Nascido":11655,"Ġprocedimento":11656,"ulha":11657,"istemas":11658,"kg":11659,"pero":11660,"Ġsubsta":11661,"Ġcombina":11662,"istic":11663,"Outros":11664,"AD":11665,"vidor":11666,"Ġcompetir":11667,"ĠNorth":11668,"quin":11669,"isi":11670,"Ġdomina":11671,"ĠNÃ¡":11672,"Ġacons":11673,"ĠWolf":11674,"Ġliberais":11675,"ĠGuinÃ©":11676,"rinos":11677,"ĠaÃ§Ãºcar":11678,"Ġsubter":11679,"ĠGiovanni":11680,"ĠatribuÃŃda":11681,"ĠrÃŃg":11682,"2012":11683,"arde":11684,"Ġoperar":11685,"zil":11686,"ĠConvenÃ§Ã£o":11687,"Ġnegativa":11688,"Ġartificial":11689,"seram":11690,"Ġduplas":11691,"Ġversos":11692,"Ã³via":11693,"Ġcai":11694,"Ġresultante":11695,"Ġcerteza":11696,"ĠQuatro":11697,"Ġpoderosa":11698,"Ġarmadas":11699,"Ġbolsa":11700,"AT":11701,"ĠVlad":11702,"ĠConcÃŃlio":11703,"Ġacampamento":11704,"Ġfrancesas":11705,"ĠVÃ¡rios":11706,"ĠIrmÃ£":11707,"ĠLÃ©":11708,"Ġcaver":11709,"cero":11710,"ĠdeterminaÃ§Ã£o":11711,"Ġreinos":11712,"Ġincl":11713,"ĠSab":11714,"Ġpublicamente":11715,"ĠJason":11716,"tres":11717,"ĠinvestigaÃ§Ãµes":11718,"ĠMiller":11719,"onial":11720,"Ġjornalismo":11721,"ĠChann":11722,"Ġpretende":11723,"ĠCÃ³r":11724,"Ġminas":11725,"ĠÃ¡lcool":11726,"Ġcomunista":11727,"Ġcontrola":11728,"Ġesperava":11729,"Ġcultivo":11730,"portiva":11731,"Ġproximidade":11732,"Ġabunda":11733,"Ã³nimo":11734,"Ġambientais":11735,"worth":11736,"Ġtransmitida":11737,"Ġlegais":11738,"ĠJay":11739,"ĠFonseca":11740,"Ser":11741,"ĠBomb":11742,"Ġadquirir":11743,"nova":11744,"ervatÃ³rio":11745,"yle":11746,"Ġpolu":11747,"Ã©gios":11748,"Ġcaracte":11749,"ĠOut":11750,"Ġgerando":11751,"ĠTais":11752,"Ġperdas":11753,"ports":11754,"parte":11755,"ĠanÃ¡lises":11756,"Ġmercador":11757,"ĠPhilip":11758,"ĠCorporation":11759,"cidades":11760,"ĠelÃ©trico":11761,"Ġgaroto":11762,"Ġmassas":11763,"Ġumas":11764,"ĠGia":11765,"tie":11766,"ĠAlianÃ§a":11767,"ĠOcidente":11768,"Ġpercorre":11769,"ĠONU":11770,"ĠLight":11771,"ĠRey":11772,"Ġactualmente":11773,"Ġexpuls":11774,"ĠNicolau":11775,"Ġconcedido":11776,"You":11777,"Ġconseguem":11778,"ĠIP":11779,"ĠcontemporÃ¢neos":11780,"ĠGP":11781,"mbio":11782,"Ġmorar":11783,"ĠNik":11784,"ĠNFL":11785,"Ġproduzindo":11786,"Ġcapturado":11787,"Ġarredores":11788,"Ġviajar":11789,"Ġassegurar":11790,"Dia":11791,"Ã³rios":11792,"ĠlanÃ§adas":11793,"Cor":11794,"rosa":11795,"campeonato":11796,"ĠAragÃ£o":11797,"tigo":11798,"hop":11799,"ĠPela":11800,"Ġvasta":11801,"Ġfiel":11802,"Ġlava":11803,"Ġareia":11804,"grafos":11805,"conc":11806,"Ġdestacar":11807,"house":11808,"AB":11809,"ĠobservaÃ§Ãµes":11810,"sou":11811,"Ġqueriam":11812,"Ġminiss":11813,"Ġhonor":11814,"ser":11815,"Ġalter":11816,"Ġacentu":11817,"Ġsubdiv":11818,"charel":11819,"Am":11820,"ĠeconÃ´micos":11821,"ĠRusso":11822,"row":11823,"ĠsensaÃ§Ã£o":11824,"ĠCN":11825,"ĠLÃºcio":11826,"ĠHart":11827,"SC":11828,"Ġprocessamento":11829,"Ġjudic":11830,"ĠCÃ¢":11831,"Ġmatando":11832,"ĠMeio":11833,"ĠcinematogrÃ¡fica":11834,"ĠsalÃ¡rio":11835,"ĠcampeÃµes":11836,"ĠdÃŃvida":11837,"ĠsÃ©r":11838,"Ġclassificada":11839,"Ġsemestre":11840,"ĠvilÃ£o":11841,"cionou":11842,"Ġassistir":11843,"Ġferramenta":11844,"imir":11845,"Ġpadro":11846,"estado":11847,"ĠTeve":11848,"Ġth":11849,"Ġapoiado":11850,"ĠHoward":11851,"Ġreconheceu":11852,"ĠaceitaÃ§Ã£o":11853,"Ġigualdade":11854,"ĠrenovaÃ§Ã£o":11855,"Ġfirme":11856,"Ġfilmado":11857,"ĠdifÃŃceis":11858,"ilv":11859,"2013":11860,"Ġbasquete":11861,"Ġenfrenta":11862,"ĠalemÃ£s":11863,"Ġestrelou":11864,"Ġfita":11865,"Ġby":11866,"Ġefetivamente":11867,"ÃŃlios":11868,"Ġ1880":11869,"Ġinspirada":11870,"Ġinternas":11871,"ĠfavorÃ¡veis":11872,"Ġabandonado":11873,"ĠChefe":11874,"Ġbilheteria":11875,"Ġhorizont":11876,"Ġdivide":11877,"ĠcrÃ©ditos":11878,"urb":11879,"Ġreconhecer":11880,"Ġpedindo":11881,"ght":11882,"ĠgeogrÃ¡fica":11883,"wart":11884,"Ġascend":11885,"Ġperturb":11886,"ĠMediterrÃ¢neo":11887,"ob":11888,"nts":11889,"Ġbril":11890,"ĠgrÃ¡":11891,"ĠMoÃ§ambique":11892,"Ġfixa":11893,"ĠGord":11894,"Ġaquelas":11895,"Ġexterno":11896,"ĠpossuÃŃam":11897,"Ġbaseadas":11898,"Ġalimento":11899,"Ġ1904":11900,"Ġinterpretando":11901,"ĠSher":11902,"Ġassumindo":11903,"dico":11904,"Ġtendem":11905,"Ġferido":11906,"ĠÃ¢ngulo":11907,"garam":11908,"Ġfon":11909,"ĠMulher":11910,"SE":11911,"ĠacÃºs":11912,"tidores":11913,"Ġpreced":11914,"Ġpresa":11915,"ĠsoviÃ©ticos":11916,"Ġvendida":11917,"Ġconsiderava":11918,"ĠLittle":11919,"Ġlegado":11920,"ĠNatural":11921,"Ġderrotas":11922,"ĠMateus":11923,"Ġdina":11924,"ĠSÃ©rvia":11925,"ordos":11926,"Ġinduz":11927,"Ġapresentados":11928,"ĠMatt":11929,"Ġsupre":11930,"Ġexperimental":11931,"Ġfuncionar":11932,"Ġsonor":11933,"Ġvivendo":11934,"ĠsuspensÃ£o":11935,"mida":11936,"Ġsanto":11937,"Ġconsigo":11938,"Ġinterface":11939,"Ġroda":11940,"ciente":11941,"conhec":11942,"ĠLuc":11943,"ĠeliminaÃ§Ã£o":11944,"oito":11945,"ĠRenas":11946,"ĠValent":11947,"Ġselecionado":11948,"Ġ1903":11949,"ĠDouglas":11950,"media":11951,"ĠAlexandria":11952,"Ġprotestantes":11953,"Ġreperc":11954,"Ġprivil":11955,"Ġdesafia":11956,"Ġrepara":11957,"ione":11958,"2003":11959,"Ġocasionalmente":11960,"ĠproporÃ§Ã£o":11961,"ĠChristo":11962,"Ġatinge":11963,"ĠCoraÃ§Ã£o":11964,"Ġinternos":11965,"ividade":11966,"ĠAlbu":11967,"Ġpastor":11968,"Ġarroz":11969,"setts":11970,"ĠrotaÃ§Ã£o":11971,"portos":11972,"Ġsalto":11973,"Ġarbit":11974,"ĠBenjam":11975,"Res":11976,"Ãªmea":11977,"Ġcertamente":11978,"ĠsentenÃ§a":11979,"Ġprovenientes":11980,"mad":11981,"Ġmun":11982,"Ġconsistia":11983,".âĢĿ":11984,"ĠcoloraÃ§Ã£o":11985,"cÃµes":11986,"Ġmodel":11987,"Ġideais":11988,"ĠAndrew":11989,"Ġperformances":11990,"ĠEspera":11991,"irim":11992,"ĠTon":11993,"2002":11994,"Ġcoopera":11995,"uer":11996,"war":11997,"zia":11998,"ĠAnn":11999,"Ġidiomas":12000,"ĠDigital":12001,"Ġchamando":12002,"ĠRevista":12003,"ĠBulgÃ¡ria":12004,"ĠferroviÃ¡ria":12005,"Ġsubmar":12006,"nesto":12007,"Ġcasada":12008,"ĠespÃŃ":12009,"ĠlegÃŃ":12010,"Ġcomunistas":12011,"quistas":12012,"ĠsemelhanÃ§a":12013,"ĠSk":12014,"ĠMarcel":12015,"ĠtÃŃpico":12016,"Ġbl":12017,"Ġproclam":12018,"Ã©tricas":12019,"Ġretrato":12020,"ĠCerca":12021,"cin":12022,"Ġapareceram":12023,"Ġdentes":12024,"isfa":12025,"Ġsantu":12026,"Ġrelata":12027,"Ġpublicar":12028,"breu":12029,"ĠbÃ¡sica":12030,"ĠAmazÃ´nia":12031,"Ġoutono":12032,"htt":12033,"Santa":12034,"ĠAzul":12035,"ĠStal":12036,"Ġindependentemente":12037,"och":12038,"ĠManchester":12039,"cito":12040,"Ġdiscre":12041,"Ġenviada":12042,"Ġmadru":12043,"ĠBlue":12044,"ĠKarl":12045,"ĠDona":12046,"ĠembarcaÃ§Ãµes":12047,"chusetts":12048,"venÃ§Ãµes":12049,"Ġespecialista":12050,"Ġcolet":12051,"Ġocul":12052,"ĠoxigÃªnio":12053,"%).":12054,"Ġprom":12055,"Ġcatedral":12056,"Ġfrequentes":12057,"Ġassociadas":12058,"Ġdispens":12059,"Ġjudaica":12060,"ĠRand":12061,"Ġsoldado":12062,"iÃªncia":12063,"singles":12064,"Mes":12065,"ĠTai":12066,"ĠFreitas":12067,"Ġconcluir":12068,"Ġ1889":12069,"querque":12070,"Ġdisputas":12071,"Ġarmazenamento":12072,"ficiente":12073,"rence":12074,"vaÃŃ":12075,"Ġdecidir":12076,"ĠâĢľ\"":12077,"Ġseguem":12078,"ions":12079,"Ġtouch":12080,"Ġtum":12081,"ĠSystem":12082,"ĠLula":12083,"ift":12084,"Ġfotografias":12085,"Ġassinar":12086,"ĠÅ":12087,"olares":12088,"Ġinteligente":12089,"Ġcriticou":12090,"Ġaprendizagem":12091,"pton":12092,"ĠNegra":12093,"tÃŃtulo":12094,"ĠRTP":12095,"messa":12096,"2001":12097,"Tal":12098,"Ġrealizando":12099,"tsu":12100,"az":12101,"ĠestÃ¡vel":12102,"ÃŃso":12103,"Ġcapturar":12104,"lins":12105,"Ġans":12106,"Ġfantasia":12107,"Ġida":12108,"remos":12109,"ĠalcanÃ§ado":12110,"tias":12111,"ĠJenn":12112,"ĠCarn":12113,"Ġempregados":12114,"Ġhabil":12115,"Ġvermel":12116,"Ġutilizou":12117,"integra":12118,"gicas":12119,"istiram":12120,"ĠdestruÃŃda":12121,"ĠfiÃ©is":12122,"Ġcabel":12123,"Sem":12124,"quias":12125,"ĠCristina":12126,"ĠmodificaÃ§Ãµes":12127,"John":12128,"ĠVisco":12129,"ĠApol":12130,"Ġespecific":12131,"ĠBritÃ¢nica":12132,"madas":12133,"Ġroupa":12134,"Ġcuidado":12135,"mundo":12136,"mail":12137,"ĠfenÃ´menos":12138,"Ġfaria":12139,"Ġteor":12140,"cky":12141,"ĠÃŃd":12142,"Ġverdad":12143,"reza":12144,"ÂłÂłÂłÂł":12145,"Ġpleno":12146,"ÃŃo":12147,"Ġafirmar":12148,"ĠmÃŃnima":12149,"ĠHip":12150,"ĠJovem":12151,"ĠMosteiro":12152,"PI":12153,"Ġavenida":12154,"Ġreen":12155,"Ġgenes":12156,"nÃ£":12157,"ĠRang":12158,"Ġarmada":12159,"off":12160,"Ġterrestres":12161,"ĠPare":12162,"ÃŃngua":12163,"ĠUR":12164,"Ġrode":12165,"Ġgravidade":12166,"ĠjurÃŃdico":12167,"Ġcomerciantes":12168,"Ġaventuras":12169,"ndiam":12170,"ĠEner":12171,"Ġcontratos":12172,"general":12173,"Ġligeiramente":12174,"Ġcess":12175,"Ġvideo":12176,"mena":12177,"ĠIno":12178,"Ġ85":12179,"Ãºrbios":12180,"Ġaplicado":12181,"Ġbaseia":12182,"ĠTwitter":12183,"ĠpolÃªmica":12184,"ĠLite":12185,"Ġadmi":12186,"ander":12187,"Ġderivado":12188,"Ġmitologia":12189,"Ġdepos":12190,"trica":12191,"ĠpercepÃ§Ã£o":12192,"ĠConstitucional":12193,"ĠvestÃŃgios":12194,"Ġhero":12195,"ĠDark":12196,"entais":12197,"ĠescravidÃ£o":12198,"Ġmarketing":12199,"ĠMello":12200,"Ġprofundo":12201,"ĠMeta":12202,"ĠPolÃŃtica":12203,"Ġobservado":12204,"ĠÃ³p":12205,"ĠEncont":12206,"haram":12207,"Ã¡quia":12208,"Ġreceita":12209,"ĠdistribuÃŃdos":12210,"ĠFinlÃ¢ndia":12211,"ĠComple":12212,"ĠLeonardo":12213,"Ġconcei":12214,"tÃ©is":12215,"Ġpsicologia":12216,"ĠCorreia":12217,"imens":12218,"ĠTestamento":12219,"Ġsites":12220,"itava":12221,"riado":12222,"Ġcapaci":12223,"ĠLady":12224,"Ġlutador":12225,"ĠexplicaÃ§Ã£o":12226,"gazine":12227,"Ġbro":12228,"Ġestatal":12229,"ificam":12230,"Ġvencedores":12231,"ĠbÃºl":12232,"Ġentrando":12233,"Ġestabelecimentos":12234,"We":12235,"menda":12236,"uÃ¡rio":12237,"ĠprotÃ³":12238,"Ġadver":12239,"arÃ£o":12240,"turou":12241,"Ġpromoveu":12242,"ĠBrand":12243,"ĠTendo":12244,"Ġministros":12245,"ĠPlane":12246,"Ġbizantinos":12247,"ĠCec":12248,"Ġperig":12249,"ĠCabral":12250,"ĠEconomia":12251,"ĠFilipinas":12252,"tuas":12253,"Ġequipas":12254,"ÅĤ":12255,"Ġflor":12256,"ĠWol":12257,"Ġencen":12258,"ern":12259,"ĠAbu":12260,"Ġtomando":12261,"ĠInver":12262,"ĠnÃºcleos":12263,"ĠBowl":12264,"ĠcompÃ´s":12265,"ranos":12266,"Ġrespostas":12267,"Ġsolid":12268,"Ġaponta":12269,"Ġlibras":12270,"Ġescritora":12271,"Ġadulto":12272,"cana":12273,"ĠGustavo":12274,"lis":12275,"Ġdefensores":12276,"Ġrivais":12277,"ĠPesquisa":12278,"Ġ54":12279,"Ġurbanos":12280,"pper":12281,"ctÃ©rias":12282,"Ġsacerdote":12283,"Ġproposto":12284,"ĠafirmaÃ§Ã£o":12285,"Ġpolit":12286,"Ġpessoalmente":12287,"ĠAri":12288,"Ġparas":12289,"ndra":12290,"ingham":12291,"ĠMineiro":12292,"tics":12293,"thy":12294,"ĠpremiaÃ§Ã£o":12295,"Ġteatral":12296,"Pol":12297,"sky":12298,"Ġaldeias":12299,"Ġadequado":12300,"Î±":12301,"ĠRaim":12302,"Ġprecisava":12303,"ĠDiÃ¡rio":12304,"ĠBio":12305,"tizar":12306,"caute":12307,"tocolo":12308,"Ġemitiu":12309,"ĠPires":12310,"Ġvelhos":12311,"Ġlegi":12312,"Ġatrair":12313,"ĠrepÃ³rter":12314,"Ġdinamar":12315,"ĠcientÃŃficos":12316,"ĠmanifestaÃ§Ã£o":12317,"Ġtax":12318,"Ġabus":12319,"Cal":12320,"biter":12321,"Ġcana":12322,"Ġpreval":12323,"ĠdestruÃŃdo":12324,"Ġvencido":12325,"Ġ1902":12326,"Ġaglome":12327,"Ġdestinada":12328,"Ġvesti":12329,"ĠComunidade":12330,"si":12331,"ĠPR":12332,"bach":12333,"ĠAngra":12334,"Ġintenso":12335,"Ġplas":12336,"ĠZu":12337,"ĠChannel":12338,"ĠContro":12339,"Ġmodos":12340,"ĠPinheiro":12341,"Ġtropicais":12342,"Ã¨re":12343,"Ġdiretores":12344,"estino":12345,"Ġbot":12346,"San":12347,"Ġcobri":12348,"ĠJimmy":12349,"Ġconto":12350,"itude":12351,"agon":12352,"Ġneve":12353,"Hz":12354,"Ġvent":12355,"ĠPort":12356,"ĠSofia":12357,"Ġcausado":12358,"ĠSeminÃ¡rio":12359,"lÃ¡via":12360,"Ġpale":12361,"Ġvib":12362,"Ġparcial":12363,"Ġsepultado":12364,"zen":12365,"Ġrestaurante":12366,"ĠSound":12367,"Ġsacrif":12368,"IM":12369,"ĠVocÃª":12370,"ĠcompilaÃ§Ã£o":12371,"Cha":12372,"Ġtriste":12373,"Ġtrens":12374,"Ġautora":12375,"Ġextensa":12376,"Ġentendimento":12377,"ĠFootball":12378,"cador":12379,"Ġsimpa":12380,"ĠMaurÃŃcio":12381,"Ġreferida":12382,"ĠRegimento":12383,"Ġbibliote":12384,"dil":12385,"Ġgases":12386,"Aos":12387,"ĠNaz":12388,"ĠBritÃ¢nico":12389,"cir":12390,"Ġcomparado":12391,"Todos":12392,"ĠpotÃªncias":12393,"lene":12394,"urch":12395,"tÃ³n":12396,"All":12397,"ĠFree":12398,"ĠMoura":12399,"Ġ1901":12400,"Ġ1891":12401,"ĠfuracÃ£o":12402,"Ġdown":12403,"ĠFora":12404,"Ġradical":12405,"ĠprimÃ¡rio":12406,"Ġmontagem":12407,"ĠIndÃºs":12408,"Ġiniciando":12409,"Ġretirado":12410,"Ġabastecimento":12411,"ĠManaus":12412,"ĠBandeirantes":12413,"Ã´lei":12414,"ĠMassachusetts":12415,"Ġrebotes":12416,"Muitos":12417,"Ġmatr":12418,"Ã©ricos":12419,"ĠBond":12420,"asco":12421,"ĠÃ³b":12422,"Ġconquistado":12423,"ĠColÃ´nia":12424,"Ġprostitu":12425,"NE":12426,"ĠArÃ¡":12427,"ĠNig":12428,"ĠdiÃ¡logo":12429,"ĠMargarida":12430,"ĠCard":12431,"Ġapresentadora":12432,"ĠimigraÃ§Ã£o":12433,"Ġsegmentos":12434,"Ã¡c":12435,"Ġvende":12436,"ĠsÃŃntese":12437,"head":12438,"Ġmans":12439,"Ġacompanhar":12440,"ĠadversÃ¡rios":12441,"ĠArist":12442,"Ã©trico":12443,"Ġartilheiro":12444,"Fer":12445,"ĠSS":12446,"ĠKra":12447,"bury":12448,"ĠpainÃ©is":12449,"ĠmamÃŃferos":12450,"antes":12451,"ĠSqu":12452,"ĠNoite":12453,"ĠcartÃ£o":12454,"Ġvisuais":12455,"Ġculpa":12456,"Ġimagin":12457,"ĠExecutivo":12458,"tol":12459,"Ġvirou":12460,"ĠDead":12461,"Å¡":12462,"Ġestou":12463,"Ġhumil":12464,"Ġcapit":12465,"ao":12466,"wen":12467,"ntadas":12468,"Ġreeleito":12469,"Ġname":12470,"sch":12471,"tona":12472,"Ġpole":12473,"gri":12474,"pirou":12475,"turos":12476,"Ġrodas":12477,"Ã¡ssico":12478,"plicaÃ§Ã£o":12479,"Ġvenez":12480,"Ġchar":12481,"Ġnucleares":12482,"ĠdiscussÃµes":12483,"ĠGregÃ³rio":12484,"fan":12485,"Ġbeira":12486,"Ġdeserto":12487,"Ġdiretoria":12488,"bais":12489,"tavam":12490,"Ġacord":12491,"Ġregente":12492,"Ġfugiu":12493,"ĠtÃºmulo":12494,"ĠMariana":12495,"Ġperceber":12496,"ĠNum":12497,"ĠbritÃ¢nicas":12498,"ĠlesÃµes":12499,"ĠSarah":12500,"Ġabra":12501,"Ġmontanh":12502,"Ġdemonstrou":12503,"ĠBara":12504,"Ġdelib":12505,"ĠRui":12506,"Ġjardins":12507,"ĠcientÃŃficas":12508,"www":12509,"Ġinves":12510,"ĠincluÃŃam":12511,"Ġvirtual":12512,"Ġoitavo":12513,"Ġaflu":12514,"Ġaten":12515,"ĠIvan":12516,"2014":12517,"ĠElec":12518,"Ġgovernante":12519,"ilvÃ¢nia":12520,"Ġplanetas":12521,"Ġelogia":12522,"ĠWell":12523,"Ġcontratou":12524,"Ġvestido":12525,"Ãºri":12526,"Ġvizinho":12527,"Ġchegado":12528,"ipo":12529,"Ġdoente":12530,"rÃ¡ria":12531,"Ġtransformada":12532,"Ġfrequente":12533,"Min":12534,"tÃ³rias":12535,"Ġvozes":12536,"ĠfilosÃ³f":12537,"Che":12538,"ĠdeverÃ¡":12539,"hores":12540,"Ġlege":12541,"Ġexcep":12542,"ĠCircuito":12543,"igan":12544,"dutor":12545,"Ġcomplic":12546,"ĠHaw":12547,"ĠRibeirÃ£o":12548,"Ġira":12549,"Ġsupervision":12550,"ilÃ¢ndia":12551,"Ġmau":12552,"Ġteto":12553,"ĠSalÃ£o":12554,"ĠBolÃŃvia":12555,"ĠAlago":12556,"Ġprocedimentos":12557,"Ġimprovis":12558,"ĠHouve":12559,"Ġfalantes":12560,"Ġtelespec":12561,"Raw":12562,"ĠJoan":12563,"ĠQuad":12564,"eler":12565,"tivaÃ§Ã£o":12566,"Ġapresentaram":12567,"Ġgay":12568,"Ġbela":12569,"ĠKal":12570,"Ġviram":12571,"ĠOff":12572,"Ġdeterminados":12573,"Â».":12574,"ĠEdi":12575,"Ġquadra":12576,"kar":12577,"Ġseparado":12578,"ĠDance":12579,"Ġ53":12580,"Ġmagia":12581,"Ġantrop":12582,"ĠbrasÃ£o":12583,"Ã«":12584,"Ġtrag":12585,"ĠPom":12586,"idou":12587,"Ġtanques":12588,"ĠcarvÃ£o":12589,"ĠaperfeiÃ§o":12590,"ĠEc":12591,"Ġcita":12592,"ĠliterÃ¡rio":12593,"ndidos":12594,"ĠAntigo":12595,"Hoje":12596,"ĠcÃ£o":12597,"ĠcatÃ¡":12598,"ĠrepressÃ£o":12599,"Ġdelim":12600,"Ġmetais":12601,"Ġtransferida":12602,"Ġmig":12603,"ĠRoad":12604,"Ġesperar":12605,"Ġresgate":12606,"tipos":12607,"Ġmarch":12608,"ĠNuma":12609,"ĠIgua":12610,"ĠcerÃ¢mica":12611,"ĠPequ":12612,"ĠKennedy":12613,"ĠMarx":12614,"Ġause":12615,"ngular":12616,"ĠadolescÃªncia":12617,"Ġcomentar":12618,"ĠAR":12619,"TF":12620,"Ġsonda":12621,"ĠContra":12622,"ĠelevaÃ§Ã£o":12623,"\">":12624,"ugu":12625,"ĠTudo":12626,"Ġdesenvolveram":12627,"Ġescoc":12628,"ĠPiauÃŃ":12629,"Ġaltern":12630,"Ġimposto":12631,"iley":12632,"Ġindicada":12633,"Ġmaca":12634,"Ðµ":12635,"ĠFun":12636,"attle":12637,"concel":12638,"Ġcotid":12639,"icÃ³p":12640,"Ġaspira":12641,"ĠVietnÃ£":12642,"ama":12643,"cen":12644,"ĠBrad":12645,"ĠfÃ¡bricas":12646,"iadas":12647,"roqu":12648,"Ġlocalizadas":12649,"Ġciclone":12650,"gnos":12651,"Ġmundialmente":12652,"Ġelabora":12653,"ĠcidadÃ£o":12654,"ĠBanda":12655,"Ġidentificado":12656,"Ġpreparar":12657,"escentes":12658,"ĠPost":12659,"fato":12660,"Ġfacilidade":12661,"Pos":12662,"Ġcaracteriza":12663,"Ġtivessem":12664,"ĠMarie":12665,"odoro":12666,"ĠServ":12667,"Ġvoltando":12668,"Ġalterado":12669,"Ġtrabalhado":12670,"ĠÃŃndices":12671,"ĠhidrogÃªnio":12672,"nÃ³polis":12673,"ouston":12674,"Ġcompreende":12675,"ĠOlimpÃŃ":12676,"ĠPrincesa":12677,"Ġcare":12678,"Ġpossibilidades":12679,"Ġpartil":12680,"Ġrin":12681,"Ġsatisfa":12682,"ĠLiberdade":12683,"dina":12684,"Ġare":12685,"ĠagÃªncias":12686,"Ġdesconhecida":12687,"Bra":12688,"Ġprovar":12689,"Ġrumores":12690,"teiras":12691,"Ġelegeu":12692,"ĠGirls":12693,"ĠsequÃªncias":12694,"ĠPou":12695,"Ġleitores":12696,"iler":12697,"ĠAfe":12698,"Ġfalhas":12699,"ĠBatman":12700,"ĠresidÃªncias":12701,"ĠrepresentaÃ§Ãµes":12702,"Ġliderados":12703,"Americana":12704,"ĠCr":12705,"ĠFir":12706,"Ġestabelecendo":12707,"indic":12708,"Ġrotas":12709,"Ġvital":12710,"Ġossos":12711,"idamente":12712,"Ġafricanos":12713,"eng":12714,"Ġperigos":12715,"Ġcong":12716,"vilha":12717,"inux":12718,"ĠprÃ©dios":12719,"gni":12720,"Ġachou":12721,"Ġsediada":12722,"Ġnorue":12723,"Ġpic":12724,"tana":12725,"Que":12726,"Ġdivor":12727,"ĠMoore":12728,"ĠÃ¡tomos":12729,"ĠVera":12730,"ĠministÃ©rio":12731,"ÃŃvio":12732,"naÃ§Ã£o":12733,"ĠVideo":12734,"tice":12735,"gby":12736,"ndar":12737,"embl":12738,"ĠmÃ¡rmore":12739,"ĠFire":12740,"toriais":12741,"Ġrou":12742,"ĠAgostinho":12743,"ĠfÃ©rias":12744,"ĠRese":12745,"Ġvencedora":12746,"Ġcaracterizado":12747,"Ġpermitia":12748,"ĠErnesto":12749,"Ġconcorrentes":12750,"ĠBatal":12751,"ĠLuÃŃsa":12752,"iseu":12753,"à¤":12754,"iller":12755,"ĠuniversitÃ¡rio":12756,"ĠArquite":12757,"ĠcelebraÃ§Ã£o":12758,"ĠCarnaval":12759,"Ġampl":12760,"Ġcavaleiros":12761,"Ġsugerem":12762,"bile":12763,"Ġ\"\".":12764,"ĠHuma":12765,"Ã§ando":12766,"ĠVers":12767,"nterior":12768,"Ġestreita":12769,"Ġlazer":12770,"Ġiriam":12771,"ĠfotÃ³":12772,"Ġactu":12773,"Ġcaridade":12774,"Ġjustific":12775,"vira":12776,"queira":12777,"ĠTrata":12778,"Ġgerente":12779,"ĠadoÃ§Ã£o":12780,"ĠLau":12781,"Ġarquitec":12782,"Ġpredominantemente":12783,"cionada":12784,"view":12785,"Ġseparadas":12786,"Ġdeusa":12787,"heiros":12788,"ols":12789,"Ġencontravam":12790,"Ġensaio":12791,"Ġpeito":12792,"ĠCru":12793,"Ġrealizaram":12794,"Ġgravadas":12795,"Ġsangu":12796,"cracia":12797,"ĠMatriz":12798,"Ġfazendas":12799,"Ġfalando":12800,"Ġvisitas":12801,"gara":12802,"ĠAlbum":12803,"Ġtemporariamente":12804,"ĠJunta":12805,"Via":12806,"ĠCÃŃ":12807,"gonha":12808,"Ġbits":12809,"ĠestÃ©tica":12810,"ĠTerri":12811,"Ġfragmentos":12812,"Ġpis":12813,"ĠÃ¡rb":12814,"ĠOficial":12815,"ĠescÃ¢nd":12816,"Ġepid":12817,"Ġesportivo":12818,"ĠautomÃ³veis":12819,"ĠMik":12820,"ĠCaio":12821,"ĠSudeste":12822,"Ġ700":12823,"Ġnutri":12824,"Ġdecidido":12825,"ĠtÃŃpica":12826,"ĠmatÃ©rias":12827,"Har":12828,"ey":12829,"Ġinferiores":12830,"ĠvÃ¡lidos":12831,"tiona":12832,"Ġtrav":12833,"Ġpostura":12834,"Ġassinal":12835,"ĠJohnny":12836,"Ġdesma":12837,"Ġdesigu":12838,"Ġsolos":12839,"Ġcontrolo":12840,"ĠWeek":12841,"Ġpremiado":12842,"Ġmercadorias":12843,"Ġviva":12844,"ĠMei":12845,"Ġpraias":12846,"ĠlanÃ§amentos":12847,"]].":12848,"Ġsoberania":12849,"PP":12850,"ĠmÃ¡scara":12851,"Ġmadrugada":12852,"Rei":12853,"ĠMajor":12854,"ĠJacob":12855,"grÃ¡ficos":12856,"Ġacident":12857,"Ġcolaborou":12858,"Ġeliminar":12859,"Ġprivile":12860,"Ġcargas":12861,"ĠVig":12862,"agner":12863,"Ġminuto":12864,"Ġresponder":12865,"ĠSilveira":12866,"jÃ£o":12867,"wei":12868,"elle":12869,"ĠAllen":12870,"ĠAlbuquerque":12871,"town":12872,"ĠNi":12873,"ĠFÃŃsica":12874,"Ġfortuna":12875,"Ġ56":12876,"elamento":12877,"ĠintÃ©rprete":12878,"fl":12879,"ĠVasconcel":12880,"romo":12881,"Ġrecolh":12882,"ppe":12883,"negro":12884,"Ġexige":12885,"Ġdemonstrar":12886,"vidade":12887,"ĠPet":12888,"edro":12889,"Ã©simo":12890,"ĠVelha":12891,"ĠSid":12892,"ÃŃsio":12893,"Ġrodovia":12894,"arial":12895,"riana":12896,"Ġvoltado":12897,"ĠRaul":12898,"ĠescritÃ³rios":12899,"Ste":12900,"Ġinib":12901,"graduaÃ§Ã£o":12902,"ĠGonÃ§alo":12903,"Bu":12904,"tÃ¡rios":12905,"logos":12906,"ĠsoviÃ©tica":12907,"ĠMarquÃªs":12908,"Ġvac":12909,"Ġmistas":12910,"ĠEast":12911,"ifÃŃcio":12912,"ĠpÃ¡tio":12913,"Ġgovernamentais":12914,"Mad":12915,"hard":12916,"ĠBeach":12917,"Ġmostraram":12918,"ĠacusaÃ§Ã£o":12919,"ĠBorges":12920,"ĠminissÃ©rie":12921,"ĠcontrataÃ§Ã£o":12922,"Ġadquirido":12923,"Ġmedicamentos":12924,"ĠprevisÃ£o":12925,"Ġfechada":12926,"ĠFlorenÃ§a":12927,"ĠEnt":12928,"Ġconfia":12929,"Ġfacilitar":12930,"ĠTomÃ¡s":12931,"adju":12932,"ipse":12933,"Ġarcos":12934,"Ġtribun":12935,"Ġdescan":12936,"ĠConstru":12937,"ĠDemocrÃ¡tico":12938,"osh":12939,"ĠMog":12940,"Ġportos":12941,"teca":12942,"ĠFeira":12943,"Ġacas":12944,"2015":12945,"Ġmagist":12946,"Men":12947,"foi":12948,"Ġoptou":12949,"ĠCaso":12950,"Ġagricul":12951,"ĠAfric":12952,"Ġplayoffs":12953,"Ġmelhoria":12954,"Ġminerais":12955,"ourt":12956,"ĠJuventude":12957,"Ġcostume":12958,"Ġabsoluta":12959,"ĠacadÃªmicos":12960,"ciada":12961,"Ġsuspeita":12962,"ĠvÃªm":12963,"ĠConta":12964,"ĠRelaÃ§Ãµes":12965,"Ġturcos":12966,"Ġroteirista":12967,"brindo":12968,"Ġmaci":12969,"Ġsustenta":12970,"ĠampliaÃ§Ã£o":12971,"ĠArn":12972,"ĠdemissÃ£o":12973,"Ġ1895":12974,"ciou":12975,"Ġoitava":12976,"Ġconselheiro":12977,"DC":12978,"xem":12979,"Ġesma":12980,"ĠOrle":12981,"Ġrelevante":12982,"Ãºrio":12983,"Ġchefes":12984,"Lis":12985,"time":12986,"ĠRiver":12987,"vey":12988,"Ġsobreviver":12989,"oln":12990,"ĠJoana":12991,"ĠWin":12992,"Ġinfluente":12993,"Ġpainel":12994,"prin":12995,"Ġpersa":12996,"ologicamente":12997,"Ġpioneiro":12998,"ĠEvan":12999,"Ġ95":13000,"ĠsÃº":13001,"ĠPaquistÃ£o":13002,"Ġformados":13003,"ĠMaomÃ©":13004,"Ġdesignar":13005,"mÃ¢nia":13006,"nga":13007,"vares":13008,"ĠCond":13009,"Ġlargo":13010,"Ġdivulgado":13011,"ĠhomÃ´nimo":13012,"ĠDick":13013,"Ġempregado":13014,"rac":13015,"Ġpano":13016,"ĠcÃ³r":13017,"ĠComando":13018,"Ġganho":13019,"Ġdezesseis":13020,"ĠjesuÃŃtas":13021,"emy":13022,"Ġadja":13023,"Ġalfabeto":13024,"gÃªncia":13025,"Ġincapaz":13026,"ĠlaÃ§os":13027,"Ġlatitude":13028,"Ġferrovia":13029,"Ġpecu":13030,"ĠCharlie":13031,"Ġregresso":13032,"ĠdistribuÃŃdo":13033,"Ġhebra":13034,"Ġremix":13035,"ĠHumb":13036,"Ġsegura":13037,"idiocese":13038,"Esse":13039,"Ġprolon":13040,"ĠacadÃªmico":13041,"Ġbeneficia":13042,"mburgo":13043,"ĠHamb":13044,"Ġinternacionalmente":13045,"Ġtiros":13046,"ĠMarsh":13047,"ĠXu":13048,"reak":13049,"Ġrestaurantes":13050,"letismo":13051,"ledo":13052,"cham":13053,"ĠÃŃcon":13054,"Ġoposto":13055,"mack":13056,"ĠComa":13057,"Ġembri":13058,"ello":13059,"Ġcomplexa":13060,"Ġprotesto":13061,"Ġesculturas":13062,"Ġpseud":13063,"ĠcÃºp":13064,"ĠvÃ©r":13065,"Â»,":13066,"Ġvirada":13067,"ĠTenn":13068,"pensa":13069,"Ã³lico":13070,"Ġaposentadoria":13071,"ĠAtravÃ©s":13072,"Ġpac":13073,"ĠquÃŃmicos":13074,"Ġestrangeiras":13075,"Ġconsideravelmente":13076,"ĠinstruÃ§Ã£o":13077,"ĠemancipaÃ§Ã£o":13078,"Ġvisa":13079,"ĠcenÃ¡rios":13080,"guar":13081,"Ġtreinar":13082,"Ġ\".":13083,"ĠcomemoraÃ§Ã£o":13084,"Ġtomb":13085,"Ġocupando":13086,"Ġinvo":13087,"Ġderrotando":13088,"Ġrejeita":13089,"iverpool":13090,"Ġmantida":13091,"Ġpecul":13092,"Ġdign":13093,"rimo":13094,"ĠcomunicaÃ§Ãµes":13095,"ptos":13096,"Ġsucedida":13097,"viera":13098,"ĠPai":13099,"Ġconfrontos":13100,"ĠPatrimÃ´nio":13101,"Ġconcorda":13102,"antar":13103,"ĠmÃºltiplas":13104,"feld":13105,"hÃ¡":13106,"teto":13107,"Ġdesencade":13108,"ĠÃºnicas":13109,"sub":13110,"Ġtomaram":13111,"Ġensinamentos":13112,"Ð½":13113,"show":13114,"Ġmarx":13115,"ĠtendÃªncias":13116,"ĠdependÃªncia":13117,"irÃ£o":13118,"zio":13119,"Ġracional":13120,"Ġremonta":13121,"Ġ1860":13122,"ĠViana":13123,"ĠMarrocos":13124,"ĠAntiga":13125,"Ġrenunciou":13126,"Ġplaneja":13127,"ĠRico":13128,"ĠGames":13129,"ĠavÃ³":13130,"Ġencarreg":13131,"American":13132,"Go":13133,"rock":13134,"Ġdemitido":13135,"ĠatraÃ§Ãµes":13136,"ĠBarry":13137,"ĠSouth":13138,"Ġjusti":13139,"Ġlicencia":13140,"Ġreme":13141,"Ġmetropolitana":13142,"Ġpesado":13143,"wick":13144,"Ġpistas":13145,"ndro":13146,"arre":13147,"ĠInÃ¡cio":13148,"ĠcÃ©lebre":13149,"ĠLine":13150,"ĠMau":13151,"ĠSteven":13152,"ĠGilberto":13153,"Ġater":13154,"Ġdesenvolvidas":13155,"ĠvinganÃ§a":13156,"ĠRi":13157,"ĠThor":13158,"Ġpresti":13159,"Ġrelatou":13160,"Ġaquilo":13161,"Ġenerg":13162,"ĠSÃ©culo":13163,"Ġrestring":13164,"Ġexperimentos":13165,"Ġdomic":13166,"Ġtentam":13167,"IP":13168,"Ġturco":13169,"Ġprevista":13170,"Ġafund":13171,"ĠtransmissÃµes":13172,"ĠÏ":13173,"ĠÃĤ":13174,"Ġproduzem":13175,"ĠMG":13176,"Ġtranstor":13177,"Ġbarcos":13178,"Ãªa":13179,"mund":13180,"rina":13181,"onÃ©sia":13182,"ount":13183,"ibal":13184,"Ġmelhorias":13185,"missÃ£o":13186,"Ġcass":13187,"Ġotim":13188,"1999":13189,"ĠproibiÃ§Ã£o":13190,"ĠbÃ¡sicos":13191,"Ġgigante":13192,"erente":13193,"ĠOrtodo":13194,"ĠMagazine":13195,"Ġhospitais":13196,"Ġenquad":13197,"ĠHome":13198,"Ġabertas":13199,"Ġreivind":13200,"ĠarquipÃ©lago":13201,"ĠTanto":13202,"Ġdescul":13203,".),":13204,"Ġlutadores":13205,"Grande":13206,"Tunes":13207,"ĠHil":13208,"Ãªnis":13209,"Ġcaracteres":13210,"fÃ´nica":13211,"Ġpolar":13212,"ets":13213,"Ġemprestado":13214,"ĠPatrick":13215,"ĠÃģlvaro":13216,"ĠfuncionÃ¡rio":13217,"Ġajudando":13218,"ĠaÃ©reas":13219,"ĠPeters":13220,"fir":13221,"governador":13222,"ĠfÃ³sseis":13223,"Ġagrem":13224,"Ġderrotados":13225,"ĠGeor":13226,"aranja":13227,"Ġaconsel":13228,"Ġestabil":13229,"Ġvendendo":13230,"Ġpropriamente":13231,"ĠPrÃ©mio":13232,"Ġdevia":13233,"ĠEva":13234,"Ġconvidou":13235,"elizmente":13236,"ĠEspanhola":13237,"Ġcub":13238,"Ġprocurando":13239,"Ġvizinha":13240,"Ġanuais":13241,"ĠInterior":13242,"Ġacabam":13243,"Ġconfirmada":13244,"Ġarru":13245,"ĠSeries":13246,"Ġandares":13247,"Ġrequisitos":13248,"sol":13249,"Ġoral":13250,"Fre":13251,"Je":13252,"MP":13253,"Ġtomado":13254,"Ġlistas":13255,"Ġmuralhas":13256,"Ġ1896":13257,"ĠavanÃ§ou":13258,"Ġassassino":13259,"Ġtransformado":13260,"coÃ§o":13261,"ĠestÃ¡gios":13262,"Ġexempl":13263,"ĠRussell":13264,"Ġaceito":13265,"ĠPower":13266,"ĠLondon":13267,"Ġparceiros":13268,"Ġriscos":13269,"Fe":13270,"Ã¡vio":13271,"Ġservidor":13272,"ĠKara":13273,"Ġassalto":13274,"Ġinspirou":13275,"iceu":13276,"tors":13277,"poles":13278,"Ġadequada":13279,"ĠrepercussÃ£o":13280,"ijo":13281,"ĠLic":13282,"ndidas":13283,"ĠcompÃµem":13284,"Ġlevados":13285,"Ġchamava":13286,"Ġsucedeu":13287,"ĠDiogo":13288,"Ġobtidos":13289,"Ġmonumentos":13290,"Ġouvido":13291,"Ġvantagens":13292,"rision":13293,"ĠsalÃ¡rios":13294,"Ġreconhece":13295,"vial":13296,"ĠNam":13297,"ĠTam":13298,"ĠCarmo":13299,"ĠArg":13300,"ĠavanÃ§a":13301,"Ġmix":13302,"ĠVermelha":13303,"ĠTrabalhadores":13304,"Ġteorema":13305,"ĠconsideraÃ§Ã£o":13306,"ĠquilÃ³metros":13307,"Ġpinto":13308,"ĠtemÃ¡tica":13309,"fone":13310,"Ġtrechos":13311,"Ġ1898":13312,"ab":13313,"pecu":13314,"tyle":13315,"ÃŃduos":13316,"trong":13317,"Ġpadres":13318,"IG":13319,"ĠConn":13320,"guesias":13321,"ĠFacebook":13322,"timento":13323,"ĠEstrela":13324,"guia":13325,"ĠRat":13326,"ĠBaviera":13327,"Ġempur":13328,"ĠSE":13329,"ĠLord":13330,"Ġservidores":13331,"Her":13332,"Ãªne":13333,"atisf":13334,"ĠsatÃ©lites":13335,"Ġfres":13336,"ĠLinc":13337,"ĠMedalha":13338,"ĠhelicÃ³p":13339,"ĠNico":13340,"inidade":13341,"Ġcoletiva":13342,"Cap":13343,"Ġespont":13344,"Liv":13345,"ĠdÃ©":13346,"Ã´nus":13347,"Ġacompanhada":13348,"ĠJacques":13349,"ĠUnder":13350,"Ġrelatado":13351,"Ġdesempenhou":13352,"Gen":13353,"guerra":13354,"hoje":13355,"ĠOxford":13356,"Ġimobil":13357,"ĠPay":13358,"ĠBened":13359,"Ġcoberta":13360,"ĠcoleÃ§Ãµes":13361,"ĠBeatles":13362,"Ġvariados":13363,"Ġcapitais":13364,"ĠdoaÃ§Ã£o":13365,"Ġpreta":13366,"Ġfrequentou":13367,"Ġdefinitiva":13368,"Brasil":13369,"UN":13370,"itt":13371,"Ġlentamente":13372,"Ġcritica":13373,"nascido":13374,"videz":13375,"Ġpago":13376,"Ġfazend":13377,"tagens":13378,"Ġquentes":13379,"iles":13380,"ĠjuÃŃzes":13381,"Ġdezoito":13382,"peram":13383,"Ġpossuindo":13384,"Ġencarregado":13385,"Ġprovid":13386,"Ġpromessa":13387,"ĠSongs":13388,"Ġnoruegu":13389,"IL":13390,"ĠAgora":13391,"itÃ©":13392,"ĠproteÃŃna":13393,"Ger":13394,"vant":13395,"ĠKh":13396,"ĠautÃ³":13397,"Ġespectro":13398,"Il":13399,"ĠLeite":13400,"Ġacreditar":13401,"ganistÃ£o":13402,"Ġbiografia":13403,"Ġges":13404,"urÃ£o":13405,"rell":13406,"Ġelogios":13407,"],":13408,"Ġucran":13409,"ĠHans":13410,"Ġpopularmente":13411,"ĠAmaral":13412,"ĠcÃŃ":13413,"ĠLaura":13414,"Ġinvestigar":13415,"Ġjuntaram":13416,"Ġindicar":13417,"Entretanto":13418,"Jornal":13419,"Ġalegou":13420,"Ġsingular":13421,"peras":13422,"Ġnegativo":13423,"ON":13424,"ĠHavia":13425,"Ġgeom":13426,"Ġradic":13427,"Ġpopul":13428,"Ġparalis":13429,"Love":13430,"ĠLagoa":13431,"ĠSicÃŃlia":13432,"Ġhino":13433,"Ġengra":13434,"Ġcolh":13435,"iosas":13436,"Ġsuperar":13437,"Ġiran":13438,"copa":13439,"ĠascendÃªncia":13440,"Ġexcesso":13441,"Ġastrona":13442,"Ġredu":13443,"Ġdisfar":13444,"ĠacÃ§Ã£o":13445,"ĠIbÃ©rica":13446,"Ġinsetos":13447,"ESP":13448,"Mesmo":13449,"tex":13450,"fri":13451,"ĠSyd":13452,"Ġexpandir":13453,"comunicaÃ§Ãµes":13454,"lino":13455,"ĠSig":13456,"ĠHouston":13457,"Ġpermitido":13458,"Sobre":13459,"prefeito":13460,"Ġesconder":13461,"ĠGor":13462,"Down":13463,"dir":13464,"eriais":13465,"ĠsecundÃ¡ria":13466,"Ġadaptado":13467,"Ġrenuncia":13468,"ĠGordon":13469,"Ġentradas":13470,"Ġcompostas":13471,"Americano":13472,"Ġpercebeu":13473,"Ġmarcados":13474,"Ġcoleta":13475,"Ġabertos":13476,"ĠBenjamin":13477,"Ġ57":13478,"ĠGuara":13479,"Ġtraduzido":13480,"Ġancestral":13481,"ology":13482,"Ġjustamente":13483,"queiro":13484,"ĠestÃ¡tuas":13485,"Ġguia":13486,"Ġrelevantes":13487,"Ġqueima":13488,"Ġescu":13489,"Ġmestres":13490,"Ġ1897":13491,"Ġcoincid":13492,"Ġtru":13493,"landeses":13494,"Ġdeterminadas":13495,"Ġirri":13496,"ĠAfeganistÃ£o":13497,"ĠFÃ¡bio":13498,"itariamente":13499,"Ġgreve":13500,"Ġagrade":13501,"Ġdebates":13502,"Ġnasce":13503,"ĠequaÃ§Ãµes":13504,"ĠAnthony":13505,"ML":13506,"Ġparado":13507,"Ġentregar":13508,"ligaÃ§Ã£o":13509,"Ġaparelhos":13510,"Vol":13511,"ĠTes":13512,"Ġregressou":13513,"Ġsoube":13514,"ĠNASA":13515,"nteriormente":13516,"ezas":13517,"ĠconcorrÃªncia":13518,"Ġtotalidade":13519,"tivismo":13520,"Ġfamosas":13521,"Ġnaturalmente":13522,"Ġcilind":13523,"Ġhola":13524,"Ġlinhagem":13525,"ĠBizant":13526,"Ġinfluentes":13527,"ĠDonald":13528,"Ġenvel":13529,"Ġagregado":13530,"brica":13531,"Ġadministrativo":13532,"ĠArmadas":13533,"mant":13534,"ĠAbreu":13535,"ĠcontemporÃ¢neo":13536,"ĠexportaÃ§Ã£o":13537,":\"":13538,"Mor":13539,"Ġvariedades":13540,"asso":13541,"ilaÃ§Ã£o":13542,"viÄĩ":13543,"Ġtrabalham":13544,"ĠRoy":13545,"inton":13546,"ange":13547,"ĠSever":13548,"ĠameaÃ§as":13549,"magem":13550,"Ġdaqueles":13551,"ĠAy":13552,"ĠAga":13553,"Ġdesped":13554,"vich":13555,"Ġadministrador":13556,"ĠVirgin":13557,"ĠEnd":13558,"Ġsofreram":13559,"ĠoraÃ§Ã£o":13560,"ĠprejuÃŃ":13561,"Ġdownload":13562,"Ġsevera":13563,"ĠAcredita":13564,"illy":13565,"Ġrespectivos":13566,"Ġtomadas":13567,"Ġjustifica":13568,"Ġcozinha":13569,"ĠBeira":13570,"Ġdesfa":13571,"Ġ-,":13572,"tizou":13573,"Ġmandatos":13574,"tificaÃ§Ãµes":13575,"Ġabuso":13576,"ĠbactÃ©rias":13577,"Ġnotur":13578,"Ġverso":13579,"Ġeditado":13580,"Ġcompreender":13581,"Ġritual":13582,"enciou":13583,"Ġuru":13584,"Ġexclusivo":13585,"alizou":13586,"Ġengan":13587,"Ġvoltada":13588,"ĠconvenÃ§Ã£o":13589,"ĠMorris":13590,"inÃ¡rios":13591,"ĠFede":13592,"urreiÃ§Ã£o":13593,"ah":13594,"Ġagir":13595,"Ġimun":13596,"citos":13597,"ÃŃsta":13598,"ĠMaced":13599,"Ġdeterminou":13600,"Ġkg":13601,"Ã¢metros":13602,"ĠPho":13603,"Ġmembra":13604,"ĠWalt":13605,"Ġflan":13606,"doras":13607,"ĠFur":13608,"ĠAndy":13609,"Ġenglo":13610,"Ġconcedida":13611,"Enc":13612,"ĠCord":13613,"ĠmaÃ§":13614,"ĠOce":13615,"istro":13616,"Ġfolha":13617,"Ġgastos":13618,"Ġecos":13619,"Ġfacul":13620,"Ġconcreto":13621,"Ġgame":13622,"Ġaplicar":13623,"ĠinfecÃ§Ã£o":13624,"ometria":13625,"Ġnazista":13626,"Ġsindica":13627,"ĠLiverpool":13628,"estres":13629,"Ġestud":13630,"Ġvegetais":13631,"ĠEquador":13632,"Ġcaracterizada":13633,"Ġoferecido":13634,"Ġhierarquia":13635,"adrez":13636,"atre":13637,"Ġfuturos":13638,"Ġbombas":13639,"Reg":13640,"ĠassistÃªncias":13641,"ĠRepublicano":13642,"Pal":13643,"ĠPress":13644,"ĠpescoÃ§o":13645,"ĠFriedrich":13646,"Ġ360":13647,"Ġchoque":13648,"Ġbriga":13649,"Ġcavaleiro":13650,"Ġisolamento":13651,"vino":13652,"Ã©nia":13653,"Ġagreg":13654,"ĠFrei":13655,"tadora":13656,"ĠInverno":13657,"Ġproeminente":13658,"ĠApos":13659,"Home":13660,"Ġcripto":13661,"Ġregistrados":13662,"ĠCongregaÃ§Ã£o":13663,"Ġoferecendo":13664,"ĠNÃ¡poles":13665,"Ġemble":13666,"ĠQuinta":13667,"Ġcorrer":13668,"ĠBilly":13669,"ĠdifusÃ£o":13670,"ĠNewton":13671,"Ġsobreviveu":13672,"ĠOtomano":13673,"Ġdevida":13674,"Ġentregou":13675,"ĠGuana":13676,"Ġgarante":13677,"Ġplanejado":13678,"licos":13679,"tolome":13680,"ĠThat":13681,"ĠLand":13682,"Ġsignificativas":13683,"ĠinscriÃ§Ãµes":13684,"ĠIndiana":13685,"ĠidÃ©ia":13686,"Cada":13687,"Ġsor":13688,"ĠMass":13689,"Ġaprendeu":13690,"Ġagrupa":13691,"ĠEri":13692,"Ġpacote":13693,"ĠKer":13694,"Ġinterfer":13695,"gie":13696,"ĠSuperliga":13697,"ĠGaleria":13698,"arani":13699,"Ġvindos":13700,"ĠbebÃª":13701,"Ġnamorada":13702,"ĠSat":13703,"ĠNobel":13704,"Ġrocha":13705,"Ġresponde":13706,"ground":13707,"Ġacrescentou":13708,"Ġseco":13709,"Ġnegou":13710,"ĠviolÃ£o":13711,"Ġcriticado":13712,"Ġsoberano":13713,"Ġtelespectadores":13714,"Ġmapas":13715,"Ġficado":13716,"Ġrevelar":13717,"ĠFundo":13718,"Ġtia":13719,"ocra":13720,"ĠMuse":13721,"iciano":13722,"Ġparticipado":13723,"atÃ³rios":13724,"ĠCorrÃªa":13725,"Ġmantiveram":13726,"ĠDave":13727,"Ġ1892":13728,"Ġdiri":13729,"foro":13730,"Ġmilitantes":13731,"Ġexternas":13732,"ĠmÃºltiplos":13733,"ĠLind":13734,"Ã¡lise":13735,"Ġpermanecem":13736,"gento":13737,"ĠCab":13738,"Ġcheia":13739,"ĠGeografia":13740,"Ġatraiu":13741,"Ġfus":13742,"ĠMorte":13743,"ĠMala":13744,"ĠNavar":13745,"ĠinovaÃ§Ã£o":13746,"Ġ(...)":13747,"Ġparques":13748,"Ġvariante":13749,"Ġprovoca":13750,"ĠexpressÃµes":13751,"Ġcerebral":13752,"Ab":13753,"ÃŃticas":13754,"Ġnativa":13755,"Ġmilag":13756,"ĠholandÃªs":13757,"qual":13758,"ĠMaca":13759,"Ġcorredor":13760,"Pra":13761,"Ġamostras":13762,"ĠavaliaÃ§Ãµes":13763,"cus":13764,"oler":13765,"Ġbrevemente":13766,"ĠDos":13767,"Ġdatada":13768,"ĠGrÃ£o":13769,"Ġ58":13770,"Ġafet":13771,"Ġtransformando":13772,"Ġrepar":13773,"ĠBei":13774,"Ġacordos":13775,"Ġdiretora":13776,"ĠCacho":13777,"ashi":13778,"Ġpreench":13779,"Poss":13780,"Vo":13781,"isma":13782,"Ġmasculina":13783,"Ġconsecutivas":13784,"Ġpreservar":13785,"ĠcoletÃ¢nea":13786,"dan":13787,"Ã§ois":13788,"Ġpronto":13789,"ĠRous":13790,"Ġaler":13791,"bell":13792,"wig":13793,"ĠBrito":13794,"ĠArch":13795,"Ġ1888":13796,"ĠGonz":13797,"Ġimpulso":13798,"ather":13799,"ĠDown":13800,"Ġsurgir":13801,"magn":13802,"icular":13803,"Ġmarg":13804,"Ġmantinha":13805,"guaia":13806,"ĠFesta":13807,"inamente":13808,"Ġatacado":13809,"ĠAgric":13810,"ulantes":13811,"Ġlutando":13812,"zos":13813,"Ġsel":13814,"ulhos":13815,"Ġcheio":13816,"ĠdeclaraÃ§Ãµes":13817,"ixon":13818,"ĠJordan":13819,"ãģ":13820,"Ġtabel":13821,"ĠMaxim":13822,"Ġbuscando":13823,"rida":13824,"inf":13825,"ĠMod":13826,"ĠRussa":13827,"ÑĢ":13828,"ĠPie":13829,"Ġgravidez":13830,"Ġsobrenome":13831,"ĠsÃŃtios":13832,"Ã©ns":13833,"ĠÃ©tica":13834,"ĠHD":13835,"ĠvÃ¡lida":13836,"ĠGaÃº":13837,"Ġmexicana":13838,"Ġdiscrimin":13839,"Ġdesafios":13840,"Ġrib":13841,"ness":13842,"Ġdesp":13843,"centemente":13844,"Ġsubstituto":13845,"Ġecl":13846,"ĠMada":13847,"ĠAlgar":13848,"ĠConsidera":13849,"Ġlembrar":13850,"CC":13851,"Ġmestrado":13852,"Ġsubir":13853,"ĠdispÃµe":13854,"Ġdefensor":13855,"partamentos":13856,"dicaÃ§Ã£o":13857,"Ġperfeita":13858,"ĠChin":13859,"ĠmetrÃ´":13860,"Lisboa":13861,"Ġarrem":13862,"Ġacomo":13863,"vina":13864,"istindo":13865,"ecidos":13866,"ĠQuanto":13867,"ĠCavaleiro":13868,"ĠClemente":13869,"Ġmanuscritos":13870,"ĠCampeÃ£o":13871,"Ã³gicas":13872,"hua":13873,"ĠDun":13874,"Ġtransportes":13875,"mÃ©dio":13876,"ĠremoÃ§Ã£o":13877,"ĠCristÃ³":13878,"Ġpisc":13879,"Ã©mon":13880,"Ġrituais":13881,"americanas":13882,"ĠPresidÃªncia":13883,"eu":13884,"Ġfras":13885,"Ġnocaute":13886,"Ġacidentes":13887,"Ġ1850":13888,"ĠPublic":13889,"lovÃ¡quia":13890,"Ġreceitas":13891,"Ġmilhas":13892,"Paulo":13893,"ĠComercial":13894,"Ġocor":13895,"Ġpereg":13896,"ĠLeopoldo":13897,"Ġsaindo":13898,"Ġcontagem":13899,"Ġcelebr":13900,"ĠBaÃŃa":13901,"ĠCÃ¡":13902,"ĠAmÃ©ricas":13903,"BI":13904,"ED":13905,"ĠUnidade":13906,"ĠPequim":13907,"Ġmudando":13908,"Los":13909,"ĠaviaÃ§Ã£o":13910,"senal":13911,"ĠGin":13912,"ĠFigueiredo":13913,"ĠtrÃ¡fico":13914,"enne":13915,"yoncÃ©":13916,"Ġterminaram":13917,"iterÃ³i":13918,"ÃŃdeo":13919,"Ġalternativas":13920,"Ġprolong":13921,"uns":13922,"ustÃ£o":13923,"Ġjuntas":13924,"Ġapresentadas":13925,"Ġdefinidos":13926,"ĠiTunes":13927,"Ġmissa":13928,"Ġdivulgou":13929,"ĠVirgÃŃnia":13930,"mido":13931,"Ġparou":13932,"Ġpend":13933,"ĠLatino":13934,"Ġaquecimento":13935,"ĠAth":13936,
[...]
